#version: 0.2
Ġ t
Ġ a
h e
i n
Ġt he
Ġ s
r e
Ġ w
Ġ o
i s
e r
n d
Ġ f
Ġ m
Ġ b
i t
a t
in g
Ġ c
e n
e s
o r
o u
Ġt h
o n
Ġ h
l l
Ġo f
Ġa nd
a n
Ġt o
Ġ p
a r
Ġ d
e d
a s
Ġ in
Ġ l
o m
Ġ is
Ġ I
b r
i c
Ġ g
Ġ /
Ġ/ >
l e
Ġ e
o t
Ġ n
a l
u t
s t
c t
i l
Ġ it
Ġb e
v e
i e
Ġm o
l y
Ġ T
Ġ re
Ġo n
Ġth at
o w
v er
a d
en t
' s
Ġ he
i on
Ġth is
i m
a y
Ġw h
s e
Ġs t
e t
g h
i d
c h
Ġw as
Ġmo v
Ġ y
Ġ/> <
it h
il m
a ll
Ġf ilm
o o
Ġf or
Ġa s
Ġ u
c e
Ġw ith
Ġa n
k e
Ġ A
a m
l d
Ġ S
Ġs e
Ġmov ie
i r
ĠT he
r o
Ġy ou
Ġh a
r i
. <
Ġ B
he r
u r
Ġl i
Ġb ut
Ġ M
r a
Ġn ot
Ġw e
' t
all y
i ll
t er
Ġ (
Ġ C
Ġ "
c k
Ġ H
Ġa re
Ġs h
om e
Ġh is
Ġc h
p e
er s
. .
Ġa t
ou ld
u l
Ġ W
Ġha ve
gh t
i f
Ġ D
u st
u n
e m
Ġ j
Ġs u
Ġf r
Ġs c
ou t
Ġa ct
Ġd o
b le
a in
Ġe x
Ġon e
es s
Ġwh o
Ġ k
e l
Ġs o
ver y
a ct
Ġp l
Ġc om
oo d
Ġa ll
an t
Ġa b
ar t
i es
p p
a k
u s
Ġa l
Ġb y
a g
Ġ v
o l
es t
t h
o p
ou s
Ġd e
Ġ P
is t
a nd
Ġw or
Ġ R
Ġfr om
Ġthe y
Ġli ke
on e
Ġn e
Ġ L
Ġo ut
as t
Ġ r
v en
Ġw he
Ġs ome
Ġ F
Ġin t
Ġo r
q u
at ion
f e
Ġc on
u m
re d
Ġ G
Ġ J
ou gh
a u
Ġhe r
at e
Ġm e
ĠI t
Ġj ust
Ġab out
Ġh as
re s
o s
ic h
in d
ar d
Ġp ro
i ve
or y
a ck
Ġch ar
Ġ N
Ġc an
or t
p t
Ġt im
Ġu n
Ġ E
h is
i g
u d
T he
oo k
i re
a ke
re at
Ġl e
Ġchar act
i ght
Ġg ood
Ġan y
Ġw at
Ġm an
Ġl o
on g
Ġu p
Ġ O
Ġt r
Ġmo re
Ġg et
Ġg o
Ġse e
Ġn o
Ġw ould
it y
Ġf e
ou nd
Ġ very
Ġwh at
Ġm y
t her
Ġthe re
am e
it e
g e
n t
id e
a ble
Ġbe c
Ġst ory
Ġtim e
o d
Ġwhe n
Ġs he
Ġ 1
h ing
Ġ en
o re
Ġ -
Ġsc en
Ġwe re
Ġh ad
o y
Ġre ally
u re
Ġ if
Ġthe ir
e ll
Ġwat ch
Ġsh ow
Ġon ly
c i
Ġh im
it t
a b
Ġe ven
Ġo ther
in k
ic k
Ġ K
p l
Ġp er
s o
Ġwh ich
Ġc l
Ġthe m
ou r
Ġk n
m an
in e
Ġd id
Ġth an
o nd
m ent
o g
t e
u ch
i ous
ar s
ay s
a re
Ġe nd
Ġdo es
a p
ad e
v es
au se
Ġp e
.. .
Ġg reat
ic e
Ġl ook
Ġm uch
u e
Ġb ad
Ġbe t
Ġ qu
Ġa r
a c
Ġbe en
Ġc ould
ire ct
op le
Ġ im
Ġw ill
er t
ir st
p le
Ġh ow
Ġp o
en ce
Ġo ver
Ġint o
l f
ĠT his
n e
Ġwe ll
Ġp re
Ġmo st
Ġkn ow
as s
r y
Ġpe ople
in t
o se
Ġth ink
Ġt w
Ġ ro
ot her
f or
Ġd is
Ġbec ause
Ġto o
Ġa d
ag e
Ġu s
f f
p er
Ġe very
f ter
a v
Ġa g
Ġre al
or s
f ul
Ġa m
Ġm ake
Ġof f
Ġd irect
is h
Ġp art
Ġth ing
Ġf irst
Ġm ade
u ll
i le
n y
Ġf un
a w
ic t
Ġw ay
Ġal so
h at
t y
e re
o ll
o st
Ġd on
i an
ak es
Ġmov ies
Ġse em
Ġth r
ow n
Ġw r
ar y
Ġ '
Ġcharact er
Ġit s
at ed
Ġg u
e p
ic al
g in
Ġs p
ie w
Ġcharact ers
Ġb l
a ce
o b
res s
Ġwor k
u ally
n g
Ġt e
ĠA nd
fe ct
ĠC h
Ġf l
he d
Ġfilm s
c c
pe ct
i al
Ġpl ay
Ġ Y
i z
Ġse en
Ġpl ot
se lf
Ġthe n
Ġ V
v ing
Ġyou r
Ġw ant
c es
om et
Ġy e
Ġbe ing
ĠB ut
Ġa w
an ce
) ,
Ġs er
Ġlo ve
Ġman y
Ġs ay
itt le
Ġa fter
an g
Ġtw o
g et
Ġne ver
nd er
Ġact ing
) .
ĠH e
an s
en s
ur n
m er
T his
Ġwhe re
i p
ar k
Ġ ent
Ġthr ough
v ed
ĠI n
Ġ <
Ġb ack
Ġli fe
a ch
Ġb est
Ġl ittle
Ġs omet
Ġre m
Ġe ver
Ġh or
ul t
Ġre c
il d
il y
at her
b er
Ġd es
Ġbet ter
w e
Ġb r
d u
h y
ve l
is e
ion s
w n
! !
u al
Ġscen e
ĠS t
r u
Ġf ind
b e
th ing
Ġper for
ou ght
Ġs pe
Ġsh ould
ra p
ak ing
Ġs l
Ġscen es
ver s
Ġp r
Ġcon t
as e
ie nd
ert ain
Ġfe el
Ġm in
l ess
' ve
Ġat t
Ġu nder
Ġ 2
Ġg r
Ġ i
m e
l ie
au gh
Ġag ain
Ġ U
t ing
ent s
Ġ ri
e ver
Ġst ill
Ġhe re
re e
ere st
i a
l es
i gh
n ing
f ore
re n
ĠThe re
Ġk ill
Ġsomet hing
Ġin c
ab ly
en se
' m
Ġint erest
Ġsu ch
Ġ1 9
at ing
Ġha pp
Ġim p
Ġl ot
Ġthe se
Ġm ay
ation s
a ve
Ġc r
ar ly
as on
a il
Ġh um
al k
at h
Ġs ur
Ġo ld
Ġperfor man
Ġg i
re en
t he
Ġc ast
r or
o ck
u p
at er
Ġpo int
e ct
i v
Ġdoes n
Ġm us
Ġth ose
Ġact ors
Ġa p
Ġwatch ing
ĠA l
Ġf am
Ġdid n
j oy
Ġde c
y ing
Ġre s
Ġ ra
Ġs im
Ġc he
Ġgu y
Ġye ars
Ġw om
Ġfun ny
Ġc ou
Ġg ir
ot h
Ġg en
f fect
Ġv iew
Ġen joy
Ġs et
Ġm akes
Ġt ra
Ġst art
Ġf act
ers on
Ġbe lie
ut e
Ġd own
ed y
Ġgo ing
ĠI f
Ġcom p
oo l
Ġs ame
Ġo b
is s
a z
- -
o c
Ġact ually
Ġfe w
Ġbe fore
os s
Ġf in
o ld
Ġe m
Ġl ong
Ġe v
Ġsu b
d er
a le
Ġpre t
Ġpro du
i ence
f t
* *
Ġwh ile
ci al
Ġyou ng
Ġg ot
Ġn ow
Ġth ought
Ġt er
ri gin
Ġo wn
Ġwh y
l i
Ġd if
ct ion
Ġb ig
Ġdirect or
Ġ ke
Ġb it
' re
on s
Ġt ri
Ġth ough
u b
Ġex ce
ri pt
Ġt urn
he n
Ġsu pp
Ġnot hing
Ġo rigin
i ble
r am
ĠJ o
Ġan other
a ut
Ġne w
Ġs m
Ġfr iend
in ce
Ġcom ple
it ing
Ġre l
Ġ &
Ġe ffect
Ġin v
Ġgir l
Ġar ound
re nt
Ġqu ite
Ġseem s
Ġthing s
ond er
Ġpret ty
Ġa pp
0 0
ing s
e w
Ġsc reen
Ġen ough
a ir
mer ic
ig n
c hed
ic ally
m ost
i b
Ġne ed
Ġl augh
w ays
Ġri ght
r is
we en
n ess
Ġh ard
Ġsc ript
an k
Ġf ar
Ġwor ld
Ġa cc
Ġk id
Ġst r
Ġorigin al
Ġh igh
Ġp erson
ate ly
Ġt ake
ĠS he
a pp
st er
e ad
Ġin s
c ed
Ġbet ween
Ġk ind
ent ion
Ġap pe
Ġm ust
ri ll
in em
Ġo p
Ġmus ic
Ġg ive
ĠB r
Ġhor ror
Ġ es
he s
ut es
Ġw onder
ĠA s
Ġro le
w ard
Ġre ason
" ,
Ġse c
or d
v ious
as h
it s
Ġget s
Ġis n
Ġp ut
Ġs aw
Ġtim es
Ġm om
Ġt ell
Ġal ways
Ġser ies
Ġwho le
a id
Ġb u
Ġact ion
Ġse x
ĠA meric
Ġle ast
as ed
Ġhe l
ic ul
ĠY ou
Ġinterest ing
Ġm ain
od y
o ot
Ġc ome
Ġcom edy
ĠThe y
he re
Ġre ad
Ġch ild
Ġle ad
Ġbe aut
Ġs ound
Ġd one
Ġcl ass
Ġe p
n er
if e
Ġb oth
ĠH ow
Ġwith out
Ġex pect
ar r
Ġal most
Ġ ide
Ġcon s
Ġsh ot
Ġm ight
Ġmin utes
ull y
g g
Ġc am
v iew
Ġc inem
h n
Ġha nd
ri ble
Ġdif fe
' ll
Ġwor th
Ġa ud
x t
in es
Ġcomple te
b ably
Ġex pl
ou se
ur ing
d e
ĠS h
Ġc o
Ġl ast
Ġany thing
im e
Ġperforman ce
st and
Ġbe gin
th ough
Ġb ook
Ġc are
s on
Ġin st
an e
Ġc le
Ġc our
Ġfam ily
Ġhel p
I t
ci ally
ĠT h
" .
Ġ 3
Ġent ertain
o v
is m
Ġs ince
Ġw ar
Ġe l
Ġc all
Ġf ound
ĠT V
er a
Ġaw ay
og rap
ial og
one y
me nd
ĠF r
Ġex t
Ġc ar
ist ic
Ġse qu
u res
at ive
Ġpro bably
Ġar t
it ion
at ch
Ġd ialog
ĠW h
an ge
ro s
Ġr un
Ġb o
Ġwom an
E R
Ġsu re
V D
as ter
al s
ĠA n
re t
j ect
c o
pe cially
Ġl et
Ġ1 0
Ġr ather
a h
is od
l ing
a pt
Ġad d
l ed
. "
u ck
o int
w h
Ġwor st
t en
w ood
Ġhapp en
Ġab s
ĠD VD
os ed
Ġli k
Ġo ur
Ġm aking
Ġme an
e e
Ġ vers
it her
Ġsur p
Ġcour se
al f
Ġke ep
Ġany one
Ġpo or
Ġep isod
on t
Ġbelie ve
o k
Ġe ach
Ġtr ying
oll ow
oll y
Ġdiffe rent
Ġbeaut if
Ġm ind
at es
Ġd el
Ġb or
ĠJo hn
Ġcom es
ad y
Ġj ob
e c
om mend
Ġc re
ble m
Ġin ter
um b
ing ly
e x
Ġs ense
Ġpl ace
h ip
Ġend ing
Ġshow s
Ġgo es
Ġplay ed
f in
ĠS o
Ġre st
ĠT hat
it er
ment s
Ġt y
Ġb oy
Ġp ol
ne y
Ġl ess
em pt
d d
ic s
r ist
Ġy et
Ġsh ort
ie ce
Ġd ay
Ġpro blem
o pe
at ter
ĠW hat
' d
Ġper fect
Ġa c
r ay
Ġst and
Ġp res
al ity
k s
are nt
il ar
l ud
Ġm em
Ġwat ched
Ġrec ommend
Ġwas n
Ġc reat
Ġf an
ĠW e
p h
Ġlook s
Ġlook ing
Ġeffect s
Ġp ort
Ġsu per
Ġm oney
re am
ow er
ort un
ap s
Ġact or
Ġh alf
an n
s p
Ġg l
Ġcon f
w ay
Ġd ram
id ent
Ġf ollow
i o
Ġs it
ĠN ot
.. ..
Ġpl ays
Ġc ertain
get her
Ġto gether
Ġaud ience
Ġf av
Ġhe ad
Ġm iss
Ġs aid
i ed
s c
Ġunder stand
ll ent
ar n
l and
ĠT H
ĠD e
Ġsome one
Ġde p
Ġha ving
Ġel se
u es
Ġt akes
Ġre view
Ġsec ond
Ġhim self
Ġt alk
Ġim ag
Ġm on
Ġth ree
Ġp oss
Ġle ft
Ġn ice
Ġ ed
Ġtr ue
Ġre le
am es
n ot
ud get
d ay
Ġvers ion
ce pt
olly wood
Ġspe cial
Ġn ight
1 0
at ure
i x
ĠB l
Ġf all
up id
Ġfriend s
Ġes pecially
Ġide a
Ġv is
it ed
at ic
ist s
ĠAmeric an
c ing
u ff
p ly
s y
Ġcom m
ion al
Ġu se
ĠA ll
Ġc ame
Ġp h
Ġent ire
Ġevery thing
ros s
ĠF or
t ed
Ġob vious
i red
Ġs ch
i er
Ġh our
Ġinv ol
Ġe y
Ġbeautif ul
a red
Ġsee ing
Ġd et
Ġw ife
Ġexce llent
Ġs ing
Ġd ist
Ġm ur
id es
Ġs k
Ġd uring
Ġto t
i en
Ġh ome
Ġl ater
Ġevery one
f ully
Ġex c
Ġst upid
Ġe le
Ġm en
m y
Ġl ack
app oint
ou nt
ĠR ob
Ġatt empt
Ġus ed
ĠB e
Ġex per
Ġye ar
ĠS p
ir d
Ġt al
Ġon ce
Ġl ow
Ġrem em
ĠS c
om b
am p
Ġcomplete ly
er y
in s
li ke
Ġm ar
ĠU n
Ġf ather
Ġdis appoint
Ġf ight
Ġde ath
Ġhis t
ol ute
Ġas s
Ġto p
Ġun t
ain s
Ġop en
y le
or n
Ġsim ply
Ġhum an
at t
Ġre p
i ol
Ġser ious
o ve
Ġ 4
ra ct
ĠC l
ĠS te
Ġc op
Ġwor d
Ġbe h
Ġex p
b ut
Ġan im
ĠA r
ĠW hen
Ġre t
or k
Ġlo c
Ġst ud
Ġde fin
ar ing
Ġwr ong
Ġt it
ĠR e
Ġs ong
et s
ograp hy
Ġs y
Ġinc lud
Ġgen er
or m
Ġem ot
Ġal ong
ot t
ĠA t
Ġc ra
ĠH ollywood
ide o
Ġm ess
Ġp ict
Ġhe art
Ġ- -
Ġperforman ces
Ġtr y
Ġsupp osed
Ġe ither
Ġcam era
I n
Ġg ra
ĠM ar
itt en
Ġabs olute
Ġf ail
Ġbor ing
u ly
id er
Ġkid s
Ġd ra
id d
Ġ Z
Ġl ine
Ġcou nt
Ġbl ack
v in
Ġe as
Ġcou ple
f ic
Ġsch ool
ot e
g r
Ġprodu ction
Ġ 8
Ġsm all
a x
Ġp ass
Ã ©
ĠCh rist
Ġex am
Ġin d
Ġclass ic
el t
o ice
Ġb as
Ġsurp ris
Ġh ope
ut h
Ġgi ven
ĠHow ever
v is
Ġwom en
h aps
ĠM y
Ġbec om
i ant
Ġb udget
m ed
ĠO ne
Ġ 5
Ġcon c
Ġs ort
o on
c om
Ġfav or
ite ly
Ġunt il
Ġpart icul
Ġli ght
Ġtr uly
Ġhum or
Ġr om
Ġs ad
Ġfl ick
Ġport ray
Ġc red
it ies
Ġw on
Ġh ouse
Ġmom ents
Ġhe ro
iz e
Ġn ame
Ġf ull
Ġit self
Ġv iol
se l
Ġst ar
pl ay
vel op
I N
f ortun
Ġp le
Ġget ting
in ess
Ġam az
Ġinst ead
t on
Ġaw ful
Ġp ain
i ke
ow s
Ġ Â
Ġremem ber
il ity
a j
Ġne xt
ter n
ent ly
ĠN o
r ic
Ġter rible
Ġexce pt
re ak
ĠS e
Ġgi ves
Ġdo ing
Ġgu ess
ĠC ar
Ġm other
Ġw a
Ġepisod e
c y
Ġc oll
Ġplay ing
Ġd ri
Ġtal ent
Ġf ace
or ies
u g
Ġre g
Ġl ines
it ch
Ġhow ever
Ġdialog ue
Ġ 7
is ter
re me
qu e
Ġwonder ful
p s
ĠM r
Ġother s
ill y
Ġv ideo
Ġof ten
Ġw ent
on y
um ent
, "
im es
Ġcould n
Ġp iece
Ġc or
ĠM an
g er
Ġp ower
Ġfor m
Ġde ad
I f
Ġc ut
Ġsl ow
Ġbec ome
Ġb rill
Ġ 9
Ġe arly
Ġimp ress
v ent
Ġlik ed
Ġan n
ĠTH E
u red
ol og
augh ter
Ġ .
Ġqu est
m ing
Ġde velop
iz ed
ĠL e
ĠJ ack
Ġentertain ing
Ġcl ose
ib ly
y n
Ġc ase
Ġli ve
ĠO n
ĠD on
l ine
Ġre f
c ess
Ġmay be
ri ght
Ġm ention
en n
Ġf elt
o id
Ġchild ren
a el
Ġst yle
he t
ĠW ill
Ġst ars
The re
b ody
ĠW ell
us ed
Ġrel ations
Ġm atter
l er
Ġstr ong
Ġtr ans
l ish
Ġabsolute ly
le y
Ġd ark
Ġ z
Ġact ress
Ġtit le
Ġwor se
Ġre nt
Ġr id
u nd
cc ess
Ġbegin ning
ou b
ul ar
Ġguy s
Ġs ide
us s
p ite
Ġm is
Ġwas te
Ġdefin itely
r iend
in ed
Ġcertain ly
Ġwr itten
Ġagain st
b y
if ic
Ġf ant
Ġext reme
Ġseem ed
sel ves
re ady
Ġlo ved
ĠH is
un ch
Ġse ver
pp ed
ĠN ew
Ġp ast
a pe
Ġcinem a
Ġbrill iant
Ġwant ed
ĠD av
t s
Ġsever al
un k
ich ael
at ur
Ġpict ure
is on
Ġp op
Ġbecom es
fortun ately
Ġs w
Ġp red
Ġal ready
Ġrelations hip
Ġexam ple
ĠE ven
Ġsome w
ĠE ng
un g
Ġsu ccess
Ġtot ally
Ġdram a
ak en
v able
Ġad m
Ġm aster
os p
Ġbl ood
Ġa ble
Ġth rill
Ġli ves
Ġd em
Ġg ame
g u
Ġdirect ion
re w
Ġf ans
Ġp ar
i am
Ġal though
ie f
Ġcall ed
Ġp ur
Ġe t
ĠH ar
s h
id ed
Ġpro v
Ġde al
Ġsupp ort
Ġst uff
Ġgr ou
Ġa v
ĠM c
Ġf ine
Ġt ou
Ġc apt
ĠÂ ĸ
Ġw alk
Ġc ent
Ġse lf
Ġqu ality
Ġwant s
Ġbr other
Ġto wn
! <
Ġdes er
Ġdo c
av ing
ri ed
) .<
? ?
ĠS ome
ĠT o
o ke
ag es
Ġm or
Ġcom ment
Ġwr iting
Ġb ased
u se
Ġl ist
ĠI s
Ġe ff
Ġb ra
Ġwork s
Ġthrough out
Ġlo st
Ġd aughter
o il
or ge
Ġann oy
Ġo cc
Ġv al
ĠCh ar
Ġv ill
o ff
Ġsit u
ch n
O T
Ġtri es
am ed
sy ch
Ġview er
t o
Ġhist ory
Ġs n
us ing
Ġp at
Ġimp ort
Ġenjoy ed
Ġs on
Ġpres ent
Ġg ave
in ation
Ġm ed
Ġsu sp
Ġf air
Ġn um
Ġfin al
c hes
1 9
Ġs at
Ġm ag
ri b
i ent
Ġd r
m s
Ġh on
i k
Ġle arn
ĠA fter
ud e
Ġturn s
Ġpart s
Ġappe ar
Ġcr it
Ġf em
ov ie
Ġamaz ing
Ġet c
Ġno vel
Ġto day
Ġst ra
er n
ro du
art h
Ġthem selves
Ġfin ally
Ġc ol
Ġd ays
Ġfavor ite
Ġin f
Ġte en
Ġpr om
Ġgen re
o x
aj or
is hed
Ġcont in
it ive
Ġhor rible
Ġf oot
Ġc ult
Ġle vel
Ġl ate
Ġmom ent
Ġsh oot
A s
Ġh ilar
t ra
en e
Ġgrou p
Ġfe at
ĠM ichael
Ġstart s
ro p
Ġex act
ard s
Ġbeh ind
ĠThe n
Ġmy self
Ġdoc ument
Ġ ir
Ġf ig
y p
Ġst op
ok es
Ġas k
Ġkill ed
Ġ ,
Ġkill er
Ġp ick
Ġty p
Ġcons ider
Ġs ays
Ġo pp
Ġc ost
Ġmy ster
ĠG er
ĠRob ert
ĠE d
icul ous
Ġdel i
ast ic
Ġeff ort
ĠW ith
Ġinc red
Ġtoo k
Ġey es
el s
b and
Ġthink ing
ĠH er
ĠAl so
ar b
et h
at s
ak ers
es e
Ġhapp ens
Ġdec ent
ant ly
Ġm ot
Ġhe ard
um p
i or
Ġb us
Ġv oice
Ġexper ience
A N
Ġint ell
e y
ur t
Ġcon st
Ġev il
Ġmur der
Ġf a
ĠD an
Ġhilar ious
u ge
Ġf ore
i ves
Ġfeel ing
n a
Ġso on
Ġty pe
d y
us band
ĠBr it
Ġcinem at
S T
ĠO f
ow ing
u c
Ġper haps
Ġgirl s
Ġn on
ĠG e
g s
Ġte le
en ces
Ġ Q
A T
Ġp sych
. )
a ul
Ġm ajor
Ġch ang
Ġinvol ved
Ġpro f
Ġst ru
ĠW ar
Ġrid iculous
Ġro les
Ġdirect ed
ter s
er ing
Ġh it
Ġop in
W hat
Ġs le
Ġto ld
ant ic
Ġst e
Ġcan not
Ġh old
an ces
z y
at or
ĠW hy
Ġes c
Ġst ories
Ġro om
ĠI nd
Ġch ance
ĠG od
Ġpred ict
a ves
Ġlook ed
Ġche ap
Ġso l
Ġwh ite
Ġsc ore
Ġextreme ly
em ent
ian s
ot s
ĠM ay
Ġres ult
Ġd ream
Ġw in
Ġh usband
Ġdis co
ang er
h ow
Ġmo ve
Ġle ave
ac ed
Ġc rap
Ġun i
s ide
idd le
ĠG r
nd ed
Ġag o
Ġst re
an y
Ġqu ick
Ġshow n
Ġwould n
ur b
Ġhappen ed
Ġcom ing
Ġviol ence
Ġc ool
ĠJ ust
L L
Ġwe ak
Ġbr ing
ren ch
ac es
ĠWh ile
Ġev ent
O R
on es
O N
Ġs we
Ġan t
Ġ 6
Ġsim ple
v ol
Ġsh ock
Ġt aken
ation al
Ġte chn
A nd
ut ion
vis ion
c er
Ġdes c
Ġmus ical
ĠP l
Ġsub ject
Ġp os
ie t
r on
ĠEng lish
ag ed
c he
Ġa ge
ĠE very
g an
ck s
ĠO r
m b
Ġb reak
B ut
m p
nd s
ward s
Ġcount ry
Ġknow n
A R
Ġv ar
m m
re st
ie ty
o le
Ġac ross
Ġobvious ly
Ġ2 00
Ġcare er
r it
Ġret urn
Ġpol it
ur y
ĠN ow
e red
itt ing
gr ound
Ġst ay
pp ing
!! !
k y
Ġhigh ly
ie ld
.. .<
Ġin de
Ġapp arent
Ġopen ing
Ġph ot
Ġh uge
y s
Ġrele ased
Ġcom ed
ĠP et
Ġsay ing
Ġf our
Ġan g
Ġexact ly
Ġf oc
Ġj okes
r al
Ġyour self
Ġde v
Ġsusp ense
Ġhour s
Ġannoy ing
Ġb ody
Ġd oub
Ġl ar
ct or
Ġf ut
ĠK e
Ġde ep
Ġbu ild
ĠC on
Ġparticul arly
Ġor der
ren ce
ĠDav id
ub l
Ġsim ilar
om p
Ġopin ion
in a
re al
Ġreal ity
Ġdis c
Ġg un
b all
Ġsomet imes
ent y
Ġp ay
il i
Ġcinemat ography
Ġstart ed
out h
ĠJ ames
Ġpre m
Ġshot s
Ġstr ange
Ġwr iter
ou l
Ġposs ible
Ġon es
Ġnum ber
ict ion
Ġp ull
Ġt reat
Ġend s
Ġd est
het ic
Ġ ill
Ġgo re
b el
en g
ent ial
a im
re ad
Ġdocument ary
Ġsub t
Ġne ar
Ġs ave
Ġch ange
Ġh ot
in o
es tern
** **
Ġw ish
Ġf ill
Ġfor get
Ġpol ice
Ġn arr
Ġdisappoint ed
Ġmo der
Ġwho se
Ġimport ant
Ġhon est
Ġwe e
Ġus ual
Ġfilm m
Ġp arent
Ġal one
ou ble
Ġpr ot
Ġli ving
Ġte am
Ġp ri
r ise
Ġs ister
Ġdet ail
Ġsomew hat
w ise
Ġturn ed
Ġfem ale
Ġkn ew
Ġloc al
or th
ĠGer man
Ġa ir
ĠD o
Ġun c
Ġfind s
y ond
ĠA m
IN G
ou d
ap an
Ġ2 0
Ġd ru
ĠT om
Ġknow s
Ġatt ention
Ġrun ning
Ġsing le
ĠP er
ĠP e
Ġr ating
re ci
ich Ã©
Ġs illy
! "
al d
Ġword s
Ġv ict
ĠR ich
Ġproblem s
Ġs ent
ll ing
Ġstra ight
in c
Ġt aking
Ġp ot
Ġrem ind
e an
oo f
A l
g y
Ġso ld
m osp
un t
Ġepisod es
Ġm ist
ain ed
Ġt en
ar ch
he ad
Ġl and
Ġm iddle
Ġdes pite
Ġsequ ence
Ġcont ro
Ġme et
wh ich
Ġin n
i res
Ġ ut
us h
Ġam ong
it al
ĠA d
Ġres pect
Ġe qu
Ġpl an
Ġtou ch
is ed
Ġbe l
Ġhe ll
Ġcon vin
or able
ant s
r om
Ġcom pl
Ġus ually
Ġat mosp
re ly
Ġtalk ing
Ġc art
for m
Ġev ents
tra ck
E N
Ġcl ichÃ©
us ion
Ġmoder n
Ġare n
Ġtell s
Ġinclud ing
ĠBrit ish
b ack
ĠO sc
Ġs ign
Ġen g
Ġc a
Ġun f
Ġhand s
Ġfor g
Ġtele vision
Ġd ue
ĠJ apan
ot ic
t im
Ġg ang
l ight
ak er
ub b
Ġintell ig
Ġm ater
Ġ ve
Ġh op
ĠN e
Ġpre vious
Ġm ark
Ġappe ars
Ġquest ion
ĠE l
Ġapp reci
ĠWill iam
i od
Ġpro g
Ġd ull
Ġbo x
ĠP h
Ġset s
Ġ8 0
Ġmost ly
Ġenjoy able
Ġpredict able
Ġre ve
ous ly
Ġsong s
M y
au ght
Ġh ate
Ġo dd
Ġse ason
Ġsc ary
Ġsound track
Ġrom antic
Ġmater ial
ies t
Ġas pect
att le
Ġup on
Ġap art
w here
Ġn one
Ġhapp y
Ġple as
or ry
Ġserious ly
Ġbe yond
Ġcle ar
Ġad v
g o
u ri
o e
Ġche ck
Ġw ays
Ġu l
Ġcam p
Ġha ven
Ġcle arly
Ġey e
Ġdoub t
Ġcom ic
Ġsp ir
Ġab ove
irect or
Ġgi ving
nd ing
Ġsurpris ed
ou n
Ġfl aw
Ġsequ el
wh o
Ġeas ily
Ġvis ual
Ġfut ure
Ġneed s
Ġtri ed
ĠA ny
Ġe ar
ke y
Ġfe ature
Ġ19 7
ubl ic
o ver
ĠS am
Ġsex ual
r ow
as c
ĠP aul
as y
Ġsl ight
Ġfall s
Ġvict im
w ork
Ġmess age
Ġthe at
gg est
Ġcre ep
Ġf ast
ĠI M
Ġshow ing
Ġac cept
A n
ress ed
Ġb unch
ar a
r ated
Ġb ar
Ġentertain ment
S t
Ġm et
Ġstory line
Ġrele ase
ens ion
Ġset ting
c l
Ġthem e
Ġad ult
Ġmov ing
? <
Ġsu ggest
Ġ19 8
!! !!
ie l
oo se
in al
Ġtw ist
Ġperson al
Ġact ual
Ġex ist
iv al
ic es
Ġper iod
ver age
' ,
E A
en ing
le t
ir t
Ġem b
or ld
Ġad apt
Ġlar ge
ĠF rench
Ġsupport ing
im ent
Ġsur v
Ġz omb
fic ult
w r
Ġme ans
Ġm il
Ġke pt
Ġn amed
a ur
Ġfeel s
Ġeas y
Ġatt ack
Ġcom ments
Ġparent s
Ġele ments
ĠD is
! )
I L
Ġdif ficult
Ġis s
ĠM or
Ġpo st
b s
us es
Ġsp oil
Ġsec ret
Ġfe ll
Ġdec ided
Ġpoint s
Ġthrill er
Ġcom b
Ġher self
u pp
ĠD r
ĠGe orge
Ġfilm ed
Ġwork ing
ce ed
ĠN OT
Ġf ree
Ġwith in
Ġsuper b
Ġr u
Ġview ing
Ġview ers
i ally
k ay
ĠIt al
W h
Ġins p
Ġb ro
Ġt re
ĠFr ank
Ġover all
atur al
b ers
Ġtyp ical
Ġed iting
g es
ĠU S
Ġbelie vable
ĠY ork
Ġbr ought
Ġhe ar
Ġreal istic
o or
Ġd ie
Ġsu ff
Ġint rodu
Ġspe ak
Ġne arly
Ġtr uth
Ġbu y
g ic
O U
b o
Ġreview s
ĠOsc ar
is ing
ĠRich ard
ĠG u
Ġlead s
Ġw it
o f
Ġus ing
S o
al ing
C h
Ġs il
e g
l in
ci ous
Ġbegin s
m a
Ġbus iness
Ġm ix
Ġfig ure
Ġfam ous
es y
Ġgreat est
Ġsequ ences
Ġc ur
ab y
Ġwhe ther
Ġc ity
ate ver
Ġprem ise
Ġthe ater
Ġwe ird
Ġwr it
Ġback ground
Y ou
Ġmean ing
ĠAmeric a
Ġd an
Ġbas ically
p iece
s w
Ġexpect ed
Ġatmosp here
Ġcl im
Ġn orm
Ġso c
Ġparticul ar
Ġt ale
Ġf ive
Ġob s
ĠO K
ver all
Ġs ens
ri fic
ĠJ ul
ive ly
Ġfant astic
es ome
Ġd umb
Ġanim ation
Ġsitu ation
E S
ĠT r
Ġfr ont
om in
m ore
Â ħ
ĠO h
a f
Ġ *
ir c
ĠC ol
Ġcr ime
Ġwa it
Ġu nd
Ġ19 9
lf riend
in ing
ĠMay be
ĠS ch
Ġst ri
dd en
? "
Ġp ure
li er
Ġ id
ul a
ĠAl though
se t
Ġst un
og n
O ne
ien ces
h ic
Ġsurp rise
ĠJ im
Ġro ck
ĠA ust
Ġre d
ĠIM D
t ime
ĠP r
f er
Ġl im
ĠS im
Ġle aves
Ġdo g
Ġlot s
Ġcre w
le ct
Ġkill ing
Ġpoor ly
ick s
Ġbec ame
Ġapparent ly
u ro
Ġemot ional
ur ther
Ġfoot age
Ġapp ro
Ġut ter
Ġt ast
Ġres p
Ġneed ed
Ġst ere
Ġw ood
Ġre se
hy s
ĠUn fortunately
ĠL ee
Ġint e
Ġav oid
o red
Ġfor ced
Ġc at
ag er
ĠPet er
T h
Ġl ame
Ġ/> "
y e
Ġa verage
Ġg one
Ġsu dden
Ġbo red
Ġstru gg
Ġw ind
Ġcle ver
b b
Ġex ec
Ġmem orable
Ġgra nd
Ġst age
' .
Ġcred its
Ġm ale
ar re
ĠM on
Ġall ow
ĠG ra
ĠA ng
s pect
b ert
pe nd
Ġcop y
Ġp ublic
ĠK ing
Ġmin ute
Ġwr ite
W hen
Ġ $
Ġs ick
re y
Ġsoc iety
Ġinterest ed
f riend
Ġmon ster
Ġpro p
Ġsh ame
Ġul tim
Ġl iter
Ġf ire
ĠB en
ĠC an
c ers
Ġemot ion
Ġuni que
k ing
ĠM ost
Ġfeat ures
ri es
Ġ ...
ĠC om
Ġany way
et t
Ġperfect ly
Ġpro ject
ĠWh o
Ġdes ign
Ġsp ace
Ġlaugh s
l or
Ġsome how
Ġme ets
um e
Ġkeep s
ĠA N
ill s
ili ar
Ġn ature
ang u
i us
ag on
Ġpr ison
Ġexp ress
Ġvill ain
Ġquick ly
i ved
ank s
is f
re ed
er v
Ġme ant
Ġstere ot
Ġche esy
Ġgir lfriend
Ġco ver
Ġm ill
Ġl os
Ġhe av
ĠP ar
ĠS m
ĠF ilm
w ell
Ġl aw
b or
Ġo per
Ġd am
ĠQ u
ĠM art
Ġad vent
a i
Ġfor ward
Ġcon cept
p or
ur d
Ġread ing
Ġwork ed
Ġ er
Ġreal ize
h ood
Ġm ad
th is
Ġm ent
ch ie
Ġam ount
Ġmyster y
A ll
ac y
Ġimag ine
act ion
Ġear lier
R E
Ġun like
ac ing
Ġdist urb
Ġprof ess
F or
el ess
ĠFr om
n ed
ĠW ood
Ġrom ance
o pp
Ġy es
Ġmaster piece
ĠDis ney
Ġcon ne
Ġbad ly
is es
ĠT w
Ġc ry
Ġag ree
Ġgener al
Ġpur p
ĠJapan ese
ĠIt s
Ġg ay
Ġ7 0
Ġpop ular
? )
in y
ar ry
Ġre pe
h ost
Ġwh om
z e
Ġc ap
Ġth ird
ĠE x
Ġen c
Ġscreen play
ĠA f
Ġhist or
all ow
Ġposs ibly
Ġb and
Ġvar ious
Ġext ra
g ed
Ġbr ings
Ġrec ogn
Ġold er
Ġtot al
k n
ĠIMD b
Ġadm it
Ġf asc
Ġpower ful
r ing
Ġto wards
ak ed
Ġincred ibly
Ġtr ad
c her
an a
ĠThe se
Ġj oke
Ġb are
Ġd ance
Ġwrit ers
Ġ3 0
om an
Ġinn oc
" )
ĠY es
st ead
l ook
Ġ19 5
as k
Ġcon v
Ġact ed
ĠSc ott
Ġcoll ect
Ġb attle
Ġreason s
arr ing
cess ary
un ny
Ġcoll e
Ġcart oon
Ġh om
ĠC he
Ġr ich
Ġdevelop ment
ol f
itt y
Ġfail s
ri f
Ġins ide
Ġocc as
Ġevent ually
Ġsp ent
bel ie
er m
Ġn or
Ġportray ed
Ġple ase
Ġfair ly
ĠL ike
Ġdirect ing
Ġdeser ves
Ġsle ep
Ġcreep y
Ġj our
Ġatt ract
ĠG ood
Ġfl at
ĠB y
Ġc irc
Ġinv est
p ar
w ith
as es
ĠP at
Ġim m
for d
O O
Ġv amp
Ġsc ient
Ġdram atic
Ġ9 0
Ġwas ted
ĠM e
itt ed
Ġdirect ors
Ġc atch
ud d
Ġsound s
ĠT ra
Ġbeaut y
ĠL u
Ġman ages
Ġattempt s
H ow
iv id
ip s
b l
ro y
Ġide as
Ġpl ain
Ġc ond
ĠN ight
Ġlead ing
ve red
ag ue
Ġexpect ing
Ġcre ate
ĠBl ack
er ry
Ġcomm un
Ġspir it
Ġ ign
Ġb ed
m en
Ġp hys
Ġl angu
Ġ ident
ĠS u
in ary
Ġpolit ical
Ġpl enty
ud ity
y l
Ġboy s
ĠE uro
med i
er o
Ġne g
Ġmem bers
Ġa ut
Ġfam iliar
Ġ :
Ġs orry
Ġc aught
ĠB ra
Ġend ed
Ġinde ed
m ist
Ġ `
Ġexpl ain
Ġrec ord
res h
b oy
Ġmiss ing
ar l
Ġre vol
ĠR uss
Ġsy mp
Ġst at
and y
ac her
arr ass
ad es
ĠF irst
Ġfight ing
ĠA le
Ġacc ident
Ġa ff
Ġoff ic
Ġout side
Ġpos itive
g est
Ġ ess
Ġm atch
ol es
m as
re l
on ic
ĠJo e
e en
Ġa chie
Ġwat er
Ġlaugh ing
Ġpot ential
iz ing
Ġswe et
Ġro b
Ġnot e
l u
Ġha ir
Ġcomm on
O n
ĠW orld
ir l
Ġrec ently
Ġ est
Ġj ud
Ġrem ake
v al
he l
Ġp orn
Ġtalent ed
Ġfilmm akers
Ġ !
Ġre qu
z z
Ġemb arrass
Ġb le
Ġcl aim
Ġfl ash
Ġtra vel
Ġp ace
Ġdep th
Ġcreat ed
Ġ( "
ck ed
as hing
Ġtell ing
Ġesc ape
it es
Ġso cial
Ġfun n
ĠM at
Ġimp ro
olog y
Ġ era
Ġim medi
Ġrel ig
T H
i ers
Ġid i
Ġint ri
Ġb other
Ġb iz
ic ed
Ġan sw
Ġbra in
ĠItal ian
I S
Ġtra il
Ġfollow ing
Ġst ep
Ġcomple x
ious ly
Ġmiss ed
Ġw estern
Ġwh atever
em y
Ġar ri
Ġcra zy
Ġn udity
ie ces
Ġbr ief
Ġmur d
h a
v il
Ġc ute
ĠO ther
wh ile
Ġa f
ven ge
Ġam b
Ġhard ly
Ġh y
Ġfor mer
u ine
as her
um es
Ġmed i
Ġwa iting
ĠB ill
Ġcred it
Ġant i
re ct
ut er
st ers
00 0
Ġmention ed
ĠV an
Ġslight ly
Ġstereot yp
Ġl ady
Ġ1 5
im p
Ġdec ides
Ġf urther
Ġre ce
Ġus es
e le
Ġse es
ib ility
Ġm el
Ġforg ot
c ent
Ġconvin cing
Ġmo d
ra ge
Ġcl os
ber g
Ġdes per
Ġst ore
Ġdra w
Ġcast ing
Ġsubt le
g ing
ver n
Ġdo ll
ĠIn stead
Ġm id
ĠP ro
Ġcontro l
ĠD es
Ġentire ly
Ġm ass
oss ible
Ġfollow s
is hing
Ġportray al
Ġdel ight
Ġappreci ate
Ġf it
it ation
Ġacc ent
Ġval ue
Ġpoint less
Ġexpl o
ĠEuro pe
Ġd ied
Ġdo ctor
s u
Ġt ension
Ġmar ried
ĠT im
Ġr ad
P O
ĠP ark
D on
l ict
ly ing
Ġwr ote
Ġin e
al th
ĠG reat
in ating
Ġr ate
ash ion
Ġcol or
V ER
Ġsu m
Ġgen uine
if f
Ġun belie
Ġrem ark
ut ed
c ast
ĠM ad
Ġst ick
ĠA ct
ĠH ere
ĠW atch
Ġsc ream
Ġt ort
ust er
Ġ19 3
ann el
c ome
ing er
Ġch oice
Ġfant asy
ĠJ e
E D
Ġmov es
Ġprodu ced
Ġyoung er
i ving
ill er
Ġdep ict
Ġsol id
f i
ell y
Ġ19 6
o es
i pp
Ġsitu ations
il t
Ġimag es
idd en
Ġcrit ic
se qu
ĠSt ar
Ġbig gest
c on
st r
Ġf ol
Ġg arb
ĠH or
Ġlong er
Ġsuccess ful
Ġsat isf
Ġlangu age
l usion
Ġincred ible
Ġs oul
n o
Ġw all
ĠS w
Ġgr ound
Ġexc iting
Ġintellig ent
Ġdec ide
stand ing
Ġc ru
Ġd anger
en ed
Ġcont r
ir ty
Ġam using
Ġcomp any
Ġ rap
Ġw ild
ag ing
Ġhum our
Ġwee k
Ġpurp ose
Ġe arth
Ġpart y
ĠJ ane
ate ur
O W
ĠE n
Ġcomp et
ill e
Ġun fortunately
Ġeffect ive
Ġreg ard
d ing
op h
Ġrec ent
ar ily
if ied
Ġspe nd
Ġtra in
rib ly
Ġm ach
ro om
Ġbr ut
Ġbiz arre
O M
et te
Ġtr ouble
Ġtra ck
Ġlik es
kn own
ge nd
a us
k i
Ġre fe
iz ation
w art
Ġfoc us
Ġquest ions
ap pe
Ġb reat
Ġin form
ĠI I
Ġother wise
ĠS er
Ġwere n
Ġgl ad
Ġprog ram
Ġa uth
it ary
Ġmo od
Ġun less
Ġdru g
Ġsu spect
Ġprodu cers
Ġter ror
Ġchang ed
Ġkill s
Ġval ues
W ell
Ġsc i
ĠG l
Ġconc ern
Ġviol ent
ĠI r
Ġj ump
Ġfill ed
Ġcolle ge
Ġf ake
al t
Ġl uck
Ġimpress ive
Ġcontin u
and a
Ġshow ed
Ġcom pe
N ot
ĠL ou
Ġc ross
Ġrep res
Ġinvol ving
Ġpat hetic
ĠD ead
ĠChrist mas
Ġ5 0
Ġgarb age
ide red
mist ry
Ġm er
ĠM ac
m ovie
ĠM ovie
Ġun in
Ġopp ortun
ic he
Ġsl asher
e ven
a res
ĠC ra
Ġcomp ared
ĠH itch
ĠF l
ĠG old
Ġsp ot
id ing
Ġsu c
L E
Ġam ateur
Ġfail ed
eng th
B C
ĠB oy
ĠO F
Ġstre et
Ġa ffect
Ġfe ar
Ġdis g
ect ive
ott om
Ġcult ure
Ġtast e
Ġbare ly
ĠR ock
Ġsudden ly
Ġinter view
Ġre de
m in
Ġt est
Ġb ought
ĠL ove
Ġaw esome
ĠAf ric
Ġbe at
Ġsing ing
Ġche mistry
Ġprodu ct
Ġdan cing
Ġs qu
Ġs pect
Ġb all
ĠB ig
Ġab ility
ap er
Ġ19 4
Ġtr ash
ĠF red
Ġav ail
Ġc ause
en er
Ġacc ur
Ġcons idered
r ound
Ġk ick
Ġcar ry
Ġdisturb ing
Ġsymp at
Ġse arch
Ġman ner
ond on
Ġf at
Ġcont ri
Ġstud io
Ġb ull
Ġst ate
Ġexcept ion
ct ed
il es
un e
Ġro ll
al es
Ġimmedi ately
ĠFr an
Ġreve al
in n
Ġg host
ĠSt re
Ġis land
Ġre pl
Ġbook s
Ġdeli ver
a ven
Ġb omb
Ġimp ossible
Ġcr im
** *
Ġsuc ceed
f ort
Ġthink s
Ġshoot ing
Ġh ang
Ġaud iences
a ff
ĠR ed
id ence
Ġra nd
w ar
ĠR ay
Ġro ad
Ġt ough
Ġtri p
ru pt
Ġimpress ion
re g
Ġc old
Ġgo vern
c ock
Ġsu it
Ġle aving
Ġoff ice
ĠInd ian
A fter
Ġgo d
Ġmin or
Ġbas ic
Ġg ag
IL ER
i ver
re aking
Ġappe al
Ġrun s
Ġiss ues
Ġfav our
Ġp ack
Ġp un
Ġp ract
ri an
ĠC ity
ĠD ra
Ġ1 00
Ġdo or
iz es
ens ive
Ġconsider ing
Ġl au
Ġgen ius
PO ILER
r id
Ġs itting
ir ing
ĠH ouse
ec ause
Ġrede em
n ight
Ġf ashion
if y
ĠM ur
Ġlike ly
Ġsh ip
ĠL ondon
Ġun ex
ren ces
Ġinvest ig
Ġadd ed
Ġconc lusion
th at
Ġp ers
ĠB er
Ġtw ists
less ly
ĠAle x
F irst
Ġl oud
ĠM el
Ġins ult
Ġrand om
am b
ĠB ur
Ġcl ot
Ġn atural
ir th
Ġstun ning
Ġnot ice
Ġappear ance
m aking
Ġb aby
st e
oo p
ĠC or
Ġde f
W e
Ġocc ur
y ou
ow ers
ain ing
ic ated
Ġsm art
k in
ain e
Ġal ive
A S
c le
Ġter ms
Ġauth or
Ġg em
and s
Ġs av
Ġl ab
Ġscen ery
Ġresp ons
Ġg rap
op her
Ġpre p
ĠM ary
ĠAng el
T o
Ġpres ence
Ġind ust
Ġadvent ure
Ġne ither
Ġf resh
ĠW ay
Ġcomp uter
Ġfa ith
ver t
Ġstand ard
Ġdest roy
Ġnorm al
I D
ĠA g
ĠB ru
ĠS T
ĠE arth
Ġcent ury
Ġman aged
Ġre venge
Ġcinem atic
Ġsomew here
Ġavail able
ann a
olog ical
Ġheav y
ic ide
ĠE m
" .<
en a
ĠB ob
Ġjour ney
ri age
th s
Ġrem ains
Ġsold iers
Ġobs ess
Ġm ult
ĠN or
Ġnow here
Ġboy friend
Ġappro ach
Ġultim ately
ĠB at
Ġne igh
ĠChar les
ĠL et
Ġra re
ict or
l o
it ions
Ġun s
Ġaff air
st em
Ġfor ce
Ġflash back
ĠSt an
Ġsupp ose
Ġsex y
Ġpass ion
Ġconst antly
ĠPer haps
on ed
Ġd ro
Ġconf lict
ĠAust ral
B e
Ġo kay
Ġth reat
Ġthr own
Ġmag ic
Ġzomb ie
Ġclim ax
Ġintri gu
Ġdesc rib
Ġemot ions
rop ri
Ġchang es
i ven
j ust
Ġj o
ĠJ ones
Ġphot ography
Ġadapt ation
f ace
ri ff
ĠB est
Ġnarr ative
Ġdetail s
es ides
Ġn ames
i vers
Ġst arring
ĠH ol
Ġbeautif ully
est ival
Ġutter ly
Ġliter ally
ent ed
Ġchar ming
ĠAn n
H e
Ġd in
Ġoff er
ĠY e
Ġdem on
Ġwit ness
and er
Ġa st
it ude
Ġpl aces
play ed
Ġprot agon
ar m
Ġd ig
Ġbeh av
ress ing
Ġter rific
ve y
ĠH am
ort s
ĠPar is
Ġhistor ical
Ġt one
Ġc uri
Ġanim ated
Ġinte nded
Ġcom mer
Ġind ivid
Ġesc ap
Ġinnoc ent
ur ch
Ġinf lu
g l
ut s
Ġlaugh able
Ġstand s
Ġtrad ition
ok ing
Ġcomed ies
Ġcomp ar
le ase
Ġrecommend ed
Ġdisappoint ing
Ġdr ink
Ġs ix
ĠS ure
ĠB el
Ġsc ience
ell ing
Ġfeel ings
bo ard
ĠSm ith
Ġh ost
Ġpresent ed
o ices
ab ility
O V
ĠH igh
un ting
ars h
Ġfin ish
Ġtouch ing
Ġadd ition
Ġput s
ĠS ci
aw n
Ġthr ow
Ġpain ful
Ġcost umes
Ġfilm ing
Ġch all
Ġgener ally
Ġsurpris ingly
osp ital
Ġunbelie vable
T hat
f ield
p art
Ġsur round
Ġle g
Ġspe c
J o
Ġabs urd
Ġp ieces
ĠA nt
ĠM iss
Ġgo ld
Ġthem es
I T
Ġpl us
Ġchar m
Ġmil itary
Ġf ool
Ġl oose
ic a
Ġbuild ing
Ġgovern ment
Ġu r
ĠC al
Ġso ft
Ġte acher
Ġaspect s
ĠC G
Ġlo ves
Ġb oss
Ġmedi oc
iv il
Ġob ject
Ġslow ly
Ġsy stem
ĠChrist ian
A D
Ġf ully
Ġof fe
ĠJe ff
Ġm akers
Ġint ense
Ġlove ly
Ġdisappoint ment
Ġhop ing
g hed
p ro
S ome
ĠS ec
Ġmist ake
C H
Ġt ired
ĠSt ill
Ġindivid ual
t a
S h
d own
Ġst o
Ġ1 8
pl oy
o h
od e
Ġexpect ations
h ouse
Ġd ate
ill ing
Ġb urn
Ġact s
ant ed
Ġal ien
ĠHitch cock
ĠB ro
pl es
Ġart ist
Ġ6 0
o ved
Ġs pl
Ġl ength
ough ly
Ġsil ent
Ġmill ion
b udget
Ġele ment
ĠChar lie
n ow
ĠD irector
Ġen er
Ġexc use
Ġopportun ity
ent ially
Ġde fe
Ġdisc uss
Ġr ide
Ġdisco ver
Ġcommer cial
ĠB ecause
Ġmor al
Ġmag n
Ġequ ally
re m
Ġd ad
ĠH en
Ġke y
Ġcur rent
g ue
ac hed
ĠHar ry
? !
Ġd im
Ġstud ent
Ġmyster ious
Ġfasc inating
I G
Ġin it
Ġout standing
u nder
is ion
Ġli f
Ġpro per
ist ent
Ġsub st
Ġinter n
Ġ4 0
Ġdri ve
ri be
ain t
ĠR y
Ġcont ains
ĠSte ve
ook s
Ġknow ing
Ġn umb
Ġdr unk
A t
w in
Ġim pl
Ġinclud e
Ġ X
Ġor d
Ġqu al
Ġcont ent
ĠOn ly
he art
Ġd iv
ĠC r
.. ...
Ġle gend
an ch
ĠD ark
ast y
u it
ĠM ark
akes pe
Ġdes ert
ĠAn other
led ge
Ġhappen ing
ĠAd am
Ġlau ghed
Ġs ight
on na
ĠW W
Ġpict ures
ĠS outh
Ġser ial
Ġstud ents
Ġm outh
ĠT ony
se y
Ġwalk ing
ĠBru ce
ĠW est
in i
Ġd ies
Ġpro cess
app y
Ġli ved
ĠW here
ĠD u
mb ol
U n
Ġconf using
Ġmel od
N ow
ly n
Ġcrit ics
Ġir rit
ĠSt r
Ġflick s
I E
Ġdis aster
O h
ĠSte wart
Ġdisg ust
h or
r ont
ur al
Ġim age
Ġdiffe rence
p ret
ĠT ar
ĠP ol
Ġra ce
Ġtra g
Ġse g
Ġphot ograp
Ġcompe lling
Ġcle an
Ġbreat h
m on
Ġd read
ĠV ery
Ġlack s
Ġrelationship s
ĠD ou
ĠF e
Ġser v
de red
in ct
Ġprodu cer
Ġloc ation
Ġimpress ed
Ġopp os
Ġfol ks
ĠCh ris
Ġed ge
Ġdra wn
v ir
Ġf aces
as ing
Ġlik able
Ġmar riage
t able
in ally
Ġv irt
ĠJ ew
ĠY et
h am
Ġcor rect
Ġc ell
Ġsh are
if t
ĠV ictor
Ġhelp s
O verall
g ly
ĠJ ean
ex ic
Ġconf used
Ġri p
Ġadd s
Ġdevelop ed
Ġdru gs
u ous
re nd
Ġappe ared
ĠPe ople
Ġinform ation
B l
s s
u el
Ġth or
wr iter
g ood
Ġh ospital
Ġp il
A L
w hat
Ġg orge
ĠH ard
gg ed
er ous
ar ies
ĠB ar
Ġgi ant
Ġfore ver
pend ent
Ġspect ac
th ur
te nd
Ġrem ote
Ġpr im
Ġlight ing
Ġdeli vers
ĠMart in
ĠS and
en cy
ĠK elly
Ġm ir
Ġvictim s
k a
se e
Ġmot ion
Ġfa ult
Ġflaw s
Ġseem ingly
omet hing
Ġsy mbol
Ġneg ative
om as
ĠS ee
pp y
te xt
ĠTw o
Ġp aid
Ġch ase
ĠF ox
Ġoff ers
Wh ile
Ġvamp ire
Ġansw er
Ġnew s
Ġwonder ing
k en
op s
ĠR am
ud dy
ĠSh akespe
Ġdream s
Ġn aked
Ġcr ow
Ġany more
Ġmult i
o om
ro g
Ġj oy
Ġmain ly
ĠNot hing
ĠAN D
Ġtrail er
an ced
ĠC o
Ġr out
ĠG ar
ĠE ast
Ġres c
Ġhas n
ac hes
Ġallow ed
Ġf right
it a
ĠO verall
Ġcreat ive
Ġprov ides
Ġindust ry
A ny
Ġh oles
ĠI S
ust r
Ġfind ing
az z
A meric
ic ip
ĠB ad
ĠD ay
us hed
Ġlo ver
Ġme rely
os h
Ġadult s
Ġb i
il ities
ĠA b
pect ed
Ġfunn iest
l ife
Ġh ig
Ġno body
Ġwill ing
Ġdis appe
ĠRuss ian
Ġmelod ram
ĠM exic
Ġcon vers
Ġforgot ten
Ġd ubb
ver se
ra id
ĠN ever
Ġthan k
Ġhigh light
i que
Ġf iction
Ġn ons
Ġrent ed
Ġmark et
Ġevery body
Ġimag ination
Ġgorge ous
c ra
Ġst uck
ab b
Ġa head
Ġon to
Ġimp act
Ġexpl an
Ġstand ards
Ġw ide
ll ed
ĠP art
-- --
Ġfollow ed
Ġbecom ing
Ġremind ed
Ġattract ive
Ġ ****
Ġm art
Ġp en
Ġ1 2
so ever
it z
or ter
Ġe ight
Ġun us
Ġzomb ies
ele br
Ġm at
Ġcont em
Ġfall ing
Ġcollect ion
ĠJ on
Ġfell ow
ĠCan ad
Ġmedioc re
Ġst ation
pp er
Ġr ound
Ġcl ub
ĠTh ough
Ġhonest ly
D e
Ġo h
Ġl ad
ĠB ond
ill ed
au d
Ġra c
Ġread y
Ġbo ard
Ġoccas ion
l ock
it or
Ġfor t
Ġperson ality
Ġd ouble
Ġl atter
ste in
. ,
I C
Ġe at
ĠM ore
ĠG o
ab l
A Y
an ic
ĠB et
Ġare a
Ġwhat soever
ention al
Ġdet ective
Ġh am
as ure
Ġact ions
Ġun ne
ĠAmeric ans
Ġpick ed
m es
Ġas ide
Ġsu icide
Ġpr in
Ġcop s
Ġanim als
e ch
s he
Ġa im
ĠW alk
ĠR og
Ġkid n
Ġhelp ed
Ġl ed
Ġg ri
ĠS pe
ĠJack son
A C
ot ed
Ġtw ice
Ġstre ng
is hes
Ġunder st
Ġtra gic
ĠSh ow
Ġph one
ĠSte ven
Ġh ide
Ġre ach
ad ed
Ġbl ind
id ay
Ġun real
Ġput ting
Ġmem ber
ĠPh il
Ġd en
N o
W ith
m ark
Ġb ase
Ġp air
Ġ/> -
ĠW il
Ġworth y
Ġposs ess
Ġscient ist
Ġachie ve
h ol
ĠB illy
Ġpro ves
ĠN az
Ġmov ed
Ġshould n
Ġenc oun
at on
od ies
Ġthor oughly
e al
r ough
Ġgr ow
Ġchild hood
f fe
f ather
g ar
ĠD ick
ĠRob in
Ġtrag edy
Ġcrow d
Ġw ise
Ġb ottom
Ġjust ice
Ġprofess ional
i um
i os
p hen
Ġsu mm
Ġfriends hip
Ġactress es
ĠM s
ĠF ord
Ġqu iet
az y
Ġsecond s
Ġb ene
Ġwe ap
ul es
ĠYou ng
ĠChrist opher
ĠShakespe are
. '
L Y
he rent
Ġc elebr
Ġh ook
Ġpl ane
Ġr ated
ĠO N
ĠCar l
Ġform ula
e per
f ilm
Ġp ra
Ġbe gan
ĠB oth
Ġun w
ĠE r
ĠW estern
ines e
Ġdra g
ĠMc C
Ġask ed
T V
re qu
ill a
Ġno ir
Ġturn ing
Ġcontin ue
ĠG reen
Ġsl ap
Ġcomment ary
Ġprov ide
Ġs our
Ġshock ing
Ġn asty
Ġlo se
Ġmurd ers
Ġwe aring
Ġsuper ior
Ġdesc ribe
m ar
Ġch annel
ĠL yn
Ġsupposed ly
m i
ag ger
ard ed
ar p
if er
Ġtr ust
Ġreal ized
Ġbit s
Ġang ry
Ġoper a
Ġaf raid
p ort
or ing
ĠM us
Ġkn ock
ĠSt ory
Ġcent ral
Ġwood en
ĠSu per
Ġb right
am ent
Ġphys ical
Ġclot hes
x ual
an ish
ĠT re
Ġhe ld
oo re
Ġbro ad
) <
ĠS l
Ġdep art
Ġapart ment
k es
ye ar
oo s
ag ers
Ġrepe ated
ĠCG I
ĠL au
Ġins ight
Ġart istic
ĠMan y
Jo hn
ic ious
ĠT e
Ġhor se
ov ies
Ġwar m
Ġsure ly
Ġintrodu ced
Ġstrugg le
Ġt ar
at ors
ĠThe ir
ress es
Ġmem ory
Ġlist en
m iss
Ġd ying
Ġplan et
er k
all ed
Ġag ent
Ġwant ing
Ġfavour ite
Ġunex pected
Ġener gy
Ġse ll
ro c
ĠM ag
Ġcomp are
Ġredeem ing
Ġthan ks
Ġep ic
Ġpleas ure
a ire
Ġne cessary
ĠV H
Ġperfor m
Ġacc om
old s
app ed
j a
r ors
Ġth in
ĠS ar
Ġsad ly
Ġinsp ired
Ġdam n
Ġli es
ĠD en
Ġem ploy
ĠAny way
Ġyou th
ĠB as
Ġtort ure
Ġintrigu ing
z en
Ġc al
an o
Ġnumb ers
g ent
k ward
ot es
ad ing
Ġu gly
ĠB o
Ġsc are
ous y
Ġlo ving
Ġpre fer
Ġbl ond
Ġcou n
ropri ate
Ġth us
ĠC am
Ġ195 0
Ġh at
Ġcreat ure
Ġdeser ve
Ġrese mb
Ġbrut al
Ġas ks
Ġexpl os
Ġrel ative
Ġteen age
ĠRy an
Ġp ath
Ġbrother s
ĠclichÃ© s
Ġaccur ate
ll a
ĠJ r
ĠJ es
Ġaw are
Al though
Ġbel ong
Ġre lie
ĠG irl
Ġany where
ĠEvery thing
ĠA c
ast s
Ġintellig ence
al y
Ġse par
Ġch ick
Ġra pe
Ġacc ount
e k
ar io
ĠT oo
te red
Ġte ars
Ġdeser ved
Ġcomed ic
Ġsold ier
ĠWilliam s
i ac
an cy
Ġd er
ent ious
Ġr ubb
Ġwatch able
dd ie
Ġvis ion
Ġpri est
ĠB arb
ĠL ittle
Ġte nd
Ġhold s
Ġdeep ly
a fe
Ġsurpris ing
Ġfilmm aker
Ġaw kward
Ġperson ally
und red
Ġrelig ious
r as
Ġm ount
Ġun known
Ġknow ledge
ĠBat man
v ate
Ġ ?
ĠS y
Ġsu cks
Ġde b
ian ce
Ġbor n
Ġ197 0
u ct
Ġf ood
Ġ1 3
Ġlet s
Ġinclud es
Ġele ct
Ġre act
J ust
a br
ĠH el
ĠE v
S E
Ġl oss
om en
il st
Ġst ock
ĠS ad
ĠP al
ĠCh inese
Ġunderstand ing
Ġhot el
Ġt our
ĠI N
Ġde g
Ġbl ock
be red
Ġcra ft
A M
le ep
Ġsur real
v ille
st al
Ġwonder fully
ĠTh omas
Ġexplan ation
r ick
Ġs in
ĠM en
ĠM oore
Ġsu ck
ĠJ ason
Ġem pt
ĠHen ry
Ġg ames
ĠW al
Ġbl ame
ĠSp ace
Ġmart ial
Ġ ver
ord ing
U T
Ġt ed
Ġm ut
Ġm ine
Ġb al
Ġh int
ĠT hing
ĠJ ud
Ġmagn ific
Ġl ay
ct ure
Ġnot iced
d o
u gg
y r
Ġt ur
Ġb ank
pect ive
Ġremind s
ĠDes pite
Ġrad io
he ro
Ġb irth
Ġth ous
Ġp acing
Ġr is
ĠHar ris
as hed
ad emy
atur ally
Ġlim ited
Ġremark able
Ġgag s
Ġtar get
es pecially
ate g
Ġunus ual
R e
ĠJ erry
te en
Ġiss ue
h and
Ġc ow
os es
Ġinde pendent
en ge
ĠD am
Ġany body
Ġcall s
Ġloc ations
Ġmot iv
Ġsign ific
Americ an
ir gin
um an
Ġspe aking
E T
ay lor
ĠR us
Ġass ist
Ġcapt ured
Ġoppos ite
he red
il os
Ġst ink
ĠA v
Ġsc ared
Ġbl and
Ġent h
Ġmem ories
ĠVH S
Ġaccom pl
Ġm ild
if ul
iv ity
Ġref lect
Ġlearn ed
Ġreturn s
at ory
Ġh urt
ad ow
ĠL aw
Ġra rely
ĠBr other
u h
Ġh undred
ĠD id
pl ot
Ġb ur
Ġman age
Ġtw enty
the re
ĠAll en
b ian
n ie
so ci
Ġbu ff
Ġhead s
omin ated
S c
Ġt em
Ġl a
Ġlead er
Ġmon ths
Ġnice ly
Ġprot ect
Ġeng aging
Ġdanger ous
Ġunne cessary
S p
Ġmo b
Ġst y
Ġde but
ĠR o
Ġbelie f
ĠHow ard
Ġso ap
Ġpro ceed
Ġinter pret
ĠKe vin
Ġ198 0
b ad
â Ģ
pl ic
ĠOn ce
Ġrespons ible
Ġf ield
Ġh ated
ll e
ip ul
Ġins ane
s pe
ĠR oy
Ġr an
Ġcreat ing
ĠSte phen
: <
R ob
Ġt ight
re ck
em an
ĠL ife
Ġar my
Ġreg ret
her n
ur s
Ġment al
ĠS il
ir k
ru ction
Ġmin im
Ġcommun ity
Ġf lying
ĠT ex
Ġexpl ained
Ġvis it
ĠDan ny
Ġtreat ed
Ġrefe rences
Ġneigh bor
st ar
ĠS us
ab or
Ġplot s
ew is
2 00
es h
Ġrem ain
ĠBr own
Ġcompar ison
st ick
Ġplay er
Ġtechn ical
ĠM ike
Ġgr ad
Ġinc re
Ġfin ished
Ġart s
Ġsk in
Ġsubt it
W hy
Ġs ac
ĠA p
un ter
os en
ci ent
Ġeffort s
Ġbehav ior
c ise
o ons
st it
ĠW in
Ġbl ue
ĠAn ne
Ġhuman ity
Ġcontr ast
Ġg e
ĠS ant
Ġfr ame
Ġfl oor
Ġo pt
Ġh its
ĠM aster
Ġplay ers
Ġsm ile
ress ion
Ġtrans l
Ġc ivil
Ġab and
Ġhad n
ac he
Ġdet erm
Ġlack ing
Ġc ard
te rest
Ġbo at
Ġn a
ĠH all
enn ifer
Ġrubb ish
ĠT aylor
Ġthat s
Ġgot ten
Ġmur dered
Ġfight s
Ġsum mer
r ous
Ġf reak
Ġb oo
Ġh yp
ent le
ĠL es
Ġinst ance
Ġrepres ent
d on
v y
v it
oo per
ĠH it
ĠK id
ĠWh ite
Ġconst ant
Ġfore ign
Ġve hic
Ġsurv ive
Ġmach ine
O K
ic ation
ĠD O
ĠL ind
os aur
Ġpro ve
ick ed
ĠJohn ny
Ġw ond
Ġp et
Ġst ret
The y
Ġlo vers
Ġrec all
." <
Ġunc on
s er
Ġh idden
ĠA pp
ĠS in
Ġtheat re
Ġcirc um
How ever
Ġd u
ĠH ell
pl ess
ens ional
Ġbig ger
Ġcapt ure
n atural
ur se
Ġgr at
g n
l s
t es
Ġdes p
Ġhum ans
Ġinclud ed
Ġcrim inal
og y
are n
Ġdri ving
ĠEng land
Ġprotagon ist
r ays
Ġc ars
Ġn et
ay be
em ber
Ġj unk
ĠP res
Ġexper ien
ĠDav is
et ic
ĠR EA
Ġaw ard
Ġmix ed
Ġn er
Ġde als
Ġcon text
the y
ĠJo an
Ġkeep ing
Ġmiss ion
Ġnum erous
Ġt ape
al though
Ġv s
ab e
Ġpart ner
ug s
Ġhop es
ĠHor ror
m are
ound s
Ġfin est
Ġblood y
Ġbel ow
Ġdesper ate
d irector
ĠAl an
Ġhumor ous
Ġvill ains
look ing
Ġconf ront
v ant
Ġb an
Ġre action
ĠB rian
ĠM ax
ĠL o
Ġthere fore
Ġte xt
Ġspe ech
ail s
ĠAr thur
Ġcra ppy
Ġintell ect
) ;
I I
Ġr ing
Ġrel ate
Ġed uc
Ġexper iment
Ġirrit ating
vir on
y es
Â Ĺ
at ives
ĠW H
th ony
Ġsp oof
ĠBl ood
an ity
ic ate
ĠT er
Ġinc omp
Ġres ol
Ġc ateg
am a
ĠD ar
us hing
Ġun int
Ġ1 1
ell e
Ġhero ine
Ġdeal ing
Ġreveal ed
ĠC ass
Ġreal ism
Ġfin ale
Ġresult s
Ġadv ice
Ġf requ
Ġl es
un ted
Ġar m
Ġconcern ed
E ven
r s
Ġp upp
ĠR om
ĠN orth
Ġgr owing
sc reen
Ġoffic er
o res
is c
Ġpull ed
_ _
u k
Ġch urch
Ġwin ning
Ġpil ot
Ġnons ense
Ġw itty
Ġf ate
ir m
Ġwind ow
Ġcircum st
r ad
ĠD or
Ġsk ills
Ġgun s
POILER S
r ical
Ġsh op
Ġown er
Ġph ilos
Ġcut s
fort able
a pl
Ġg oof
qu es
um ps
ĠE ddie
Ġtal ents
u ed
Ġ ing
Ġe arn
ant e
Ġter ribly
ĠQ ue
Ġstereotyp es
Ġb ot
ĠD em
Ġste al
Ġord inary
se ll
ĠC apt
ĠP lease
Ġtr oub
Ġass ass
por ary
ĠWay ne
Ġs ed
Ġg ru
all ing
ur ity
un n
Ġshe er
Ġpr int
Ġdisco vered
Ġsent iment
ĠLyn ch
z an
Ġs afe
Ġto ward
ĠR on
Ġte ach
Ġcons ist
ann ed
Ġanim al
ĠLou is
O L
Ġf if
Ġfor ces
Ġen viron
up s
rif ying
as hes
ul f
ĠFr ance
ĠDe ath
Ġreg ular
?? ?
ĠS ince
ĠAnd rew
Ġmon sters
Ġexp ert
Ġwood s
Ġrece ived
Ġc able
ed ding
Ġl at
ĠC ent
Ġman ipul
Ġstart ing
Ġpret entious
ĠSp anish
Ġremem bered
ĠI m
Ġen s
Ġdis p
Ġstud y
Ġp u
Ġch ore
Ġsome body
ru ct
Ġcontin ues
Ġpsych ological
Ġgenuine ly
v est
w orth
Ġteen agers
Ġlevel s
Ġprin ci
c ore
Ġb ath
ĠS n
Ġint ent
Ġar ch
Ġmin i
Ġatt itude
arent ly
enn is
Ġmed ia
Ġcru el
Y es
b an
Ġf le
Ġf ra
Ġhero es
ĠMr s
reed om
ĠAfric an
ir o
Ġempt y
Ġp ark
Ġp aper
ad s
ĠSe an
Ġcor rupt
Ġmis er
Ġbreak s
I LL
b ell
ĠH ay
Ġk iss
ab eth
Ġfail ure
Ġunf unny
ĠCol umb
ĠTex as
n am
t w
an ny
Ġg reen
Ġas soci
ĠTh ose
Ġmor ning
Ġmod el
ĠEurope an
il ies
ĠB arry
ĠH aw
Ġchar ism
Ġdis play
Ġkind a
Ġsav ed
gl as
5 0
Ġwe alth
Ġor gan
ĠJ ose
ĠCh an
Ġop ens
Ġvisual s
Ġstreng th
k ins
s ome
Ġ ic
Ġs ite
id ge
ri but
ĠM ont
ive red
ĠE VER
Ġspe ed
Ġtri b
Ġreview ers
Ġsing er
ĠGu y
Ġspectac ular
a a
i y
i ens
ĠW as
ĠE ric
Ġfe et
Ġdes ire
ath an
Ġcame o
Ġexist ence
Ġconne ction
p oint
y er
Ġf und
ĠC arr
ĠN ick
Ġdist ract
allow een
Ġpers pective
Ġchall eng
Ġrelie f
t op
Ġc ant
ul ous
Ġsu cked
Ġtr uck
.... ....
Ġed ited
heart ed
Ġoccasion ally
b ur
ĠW at
ac c
ĠV al
Ġimag in
Ġsat ire
E very
w olf
Ġg ory
ag al
Ġgener ation
Ġgra ce
ĠEvery one
se c
act ing
ĠL i
Ġr ange
Ġun able
lud ing
Ġdescrib ed
Ġmagnific ent
O f
he nt
Ġin h
Ġse at
Ġj u
Ġfr ank
ĠL ewis
ĠO ut
Ġover ly
Ġve ter
Ġp it
il ing
ĠD el
ĠV iet
Ġdec ision
Ġev idence
Ġmar ry
ĠIs land
Ġcontri ved
u be
is er
or ious
Ġh all
Ġdec ade
Ġless on
Ġdisco vers
a e
a ult
is a
Ġd ated
et her
am ing
Ġso le
Ġunreal istic
Ġv ote
Ġdread ful
Ġt ack
ĠJ an
aw ay
ul s
omet imes
Ġpar ody
Ġconne ct
Ġhig her
A r
R A
Ġp ress
Ġg rew
Ġsc rew
Ġgr own
Ġwar ning
Ġinvol ves
ĠK enn
ĠAustral ian
f it
Ġf al
ch ing
Ġsh allow
ang ed
Ġsy n
Ġcomb ination
Ġc ash
ĠH art
Ġorigin ally
Ġrese arch
Ġs ake
Ġf ly
om ed
ĠW ild
Ġob l
Ġdel ivered
Ġflashback s
Ġs un
Ġg onna
Ġal tern
Ġun com
fin itely
apl in
Ġwh ilst
Ġob sc
ĠAs ian
Ġtyp es
Al so
n ox
le ar
Ġbe ar
ĠB BC
Ġch oose
Ġcreat es
Ġextra ord
ĠDou glas
U N
p ent
ar c
as m
ĠI T
ĠE s
Ġlo gic
ĠV er
Ġmar vel
Ġprov ided
Ġsn ow
L et
Ġd i
ĠC at
out s
Ġv ac
ĠWh ich
Ġteen ager
! ).
G E
y m
Ġc yn
Ġn in
Ġpe ace
ord on
Ġfeat uring
Ġca res
Ġgang ster
Ġdelight ful
Ġd ressed
ri x
ĠAn thony
Ġtheat ers
Ġt or
Ġv ul
Ġpro ved
Ġye ah
Ġbu ilt
Ġfoot ball
Ġjud ge
at ra
Ġd ry
ĠL ord
ĠN O
Ġad vert
the less
Ġfam ilies
Ġask ing
il ty
Ġse nd
Ġlaugh ter
Ġass ume
Ġsw ord
ĠKe aton
ĠMor gan
Ġbro ken
Ġlos es
Ġcap able
Ġamateur ish
l aw
t le
Ġp unch
Ġse a
ĠM al
ight s
Ġbelie ves
Ġcor ny
Ġess entially
ĠSec ond
ut her
ir ation
Ġne cess
ĠE ll
The n
ĠO l
ose xual
ĠAnd y
Ġunder rated
ok en
Ġref res
Ġsympat hetic
Ġgrap hic
hent ic
Ġfr ustr
Ġall ows
ĠN ic
Ġsk ill
Ġmeet ing
Ġtradition al
m ble
Ġs al
Ġre du
Ġbrilliant ly
Ġemotion ally
ĠFran c
ĠAg ain
Ġg ross
ot hy
ĠG ary
ĠY OU
Ġcuri ous
ĠHit ler
F rom
Ġtalk s
An other
ĠJul ie
IG H
ention ally
Ġgl ass
Ġmajor ity
ĠAc ademy
Ġh arm
Ġin ex
Ġe mer
ow ell
are t
ĠTh ank
Ġcreat ures
R I
S te
if orn
Ġcon sequ
ĠTH IS
Ġvill age
Ġtreat ment
Ġenviron ment
i ents
Ġb at
Ġd a
ĠM ic
Ġk ing
us i
Ġexec uted
Ġultim ate
ĠL uc
ĠF ar
um s
ĠJim my
b a
y al
Ġe ating
ĠM er
ul p
us ive
Ġthought s
Ġport rays
ĠLe on
Ġine pt
Ġresc ue
ll y
Ġp owers
ĠW ars
Ġsc ar
Ġv ide
ĠL a
um my
for med
Ġsit com
ĠDan iel
LL Y
Ġhands ome
Ġprop ag
Ġexpress ion
uit ous
Ġted ious
Ġna ive
r ate
t ain
ĠR ose
ang ers
Ġste als
Ġembarrass ing
Ġh ur
Ġse ven
ĠR od
ĠJ ess
Ġpur ch
Ġcol our
g en
m o
Ġt ick
Ġb odies
ĠL ady
ĠJ ennifer
Ġend less
ĠAl bert
Ġcour t
Ġcircumst ances
Ġh arsh
Ġgu est
Ġrevol ution
Ġf ict
Ġb ag
Ġcra ck
Ġcontro vers
Ġca used
Ġscream ing
S he
f l
Ġt able
Ġg as
Ġcomp an
Ġacc omp
u le
Ġ )
st ream
am ily
ĠC amp
oy d
Ġreview er
Ġinvol ve
Ġexc ited
Ġprom ise
Ġv ol
Ġview ed
Ġest abl
Ġdisgust ing
k er
ĠP ac
ĠCh aplin
Ġwalk ed
ĠBro ad
Ġcoun ter
Â ´
ĠS und
ich ol
Ġstre ets
Ġp al
ar ian
im ate
ĠM iche
ĠC oll
ĠAnd erson
Ġgr ade
uck y
Ġpass ed
Ġmurd ere
Ġrefres hing
m ade
he m
Ġf reedom
ĠM il
Ġv an
Ġv oices
Ġag es
iz abeth
Ġcomp os
Ġentertain ed
Ġsequ els
atur day
ĠGerman y
h an
Ġinv ent
Ġstand ing
Ġident ity
ĠTre k
iforn ia
Ġrent al
Ġbring ing
Ġl ousy
ld er
Ġsh arp
Ġcost s
Ġnorm ally
Ġrout ine
it iz
ĠC le
un s
Ġcon vey
te nded
Ġpr oud
Ġlad ies
P l
d one
p hy
Ġl one
ĠS H
ul ation
Ġhor ribly
Ġprodu ce
Ġapp l
Ġaut hentic
Ġsto pped
Ġf are
Ġfor th
ĠM att
ĠL ast
Ġsp in
Ġstrong ly
ean while
cl ass
z a
in is
Ġre nd
Ġcon ce
Ġtechn ology
Ġpleas ant
aus ible
d om
n al
Ġf ame
ĠI nt
ĠT ed
Ġso ph
Ġpl ans
Ġend e
vious ly
Ġwee ks
ashing ton
Ġvehic le
I R
p ir
t r
ĠL ook
um m
um mer
urn s
eth od
Ġsuff ering
Ġdubb ed
Ġcontem porary
Ġs aving
ĠT ime
ro ll
ur a
ol a
ĠG ordon
ĠK u
ĠK ong
og ether
Ġmatter s
Ġwalk s
ĠWil son
Ġexperien ced
Ġb ond
ot ing
ather ine
Ġpain fully
ung le
Ġlearn s
Ġsour ce
Ġsubtit les
s en
Ġf its
Ġfact s
Ġz ero
Ġshock ed
Ġdoll ars
Ġcritic ism
Ġqual ities
ĠJes us
m other
Ġb re
en stein
es pite
ĠD ian
ĠF estival
ĠG ene
Ġvers ions
Ġdepict ed
M an
ic it
Ġwhen ever
Ġportray ing
Ġhy ster
ĠStre et
Ġgrat uitous
i xt
w hel
Ġan cient
ĠR oman
Ġdep ressing
Ġexc it
Ġru ined
a it
t aking
t elling
u pt
Ġhe y
Ġter m
Ġrelig ion
Ġsatisf ying
ĠB E
ĠC ast
Ġbl ow
Ġspe nds
ĠSe agal
ĠPl us
i j
p rodu
ĠC inem
ort ed
ree k
ĠBr ad
Ġclass ics
co hol
Ġref er
Ġsubst ance
Ġc as
on el
yn am
Ġcent er
Ġpri or
Ġcart oons
" ),
Ġp an
Ġas leep
ĠW ashington
Ġfl esh
Ġem p
Ġide al
ĠUn ivers
Ġlarge ly
Ġlos ing
Ġwe l
ĠP re
ĠL arry
Ġun fortun
av y
Ġdesc ript
aur a
Ġine vit
Ġseg ment
Ġslap stick
Ġenth usi
terest ing
Ġlat est
r an
in ated
it ter
ĠB or
ĠC ount
ĠF re
Ġtheat rical
Ġtwist ed
ĠIr ish
Ġles bian
b uster
ot ion
Ġch osen
ĠP ict
ĠL am
Ġcl ue
Ġsp orts
ph as
19 9
Ġang les
ĠCom m
Ġluck y
Ġencoun ter
N e
Ġl ink
Ġexplo itation
C l
F i
ort ing
ĠSt one
Ġexper iences
Ġconv ince
B O
Ġw itch
Ġd rop
Ġl ie
et ime
ĠA re
ĠM oon
ĠR en
Ġrecogn ize
ĠFranc is
Ġexcit ement
Ġg ig
Ġhe n
ĠA dd
Ġte ens
Ġbelie ved
Ġpur su
EN T
o ir
ĠD og
um ber
Ġeven ing
Ġpre gn
Ġapp ropriate
Ġspeak s
Ġpropag anda
l ong
Ġb att
Ġh ol
Ġ1 4
Ġcr ing
ĠZ omb
) :
Ġs ides
st on
Ġhe aring
Ġpro stit
ap es
Ġvis ually
Ġcomm itted
ĠJack ie
ĠBrother s
m ind
en ess
Ġre vel
Ġre ject
ke nd
ĠS at
ĠG ener
ĠK im
Ġmake up
ĠU K
hen s
ĠBarb ara
B I
l im
Ġv ague
Ġun for
Ġsur face
Ġfact or
Ġappe aling
Ġworth while
Ġcapt ures
Ġsuff ers
Ġfal se
ud es
Ġprom ising
ĠCapt ain
Ġqu ir
ĠTH AT
19 8
Ġhold ing
Ġidi ot
Ġvirt ually
o ly
Ġm ask
Ġin ner
ĠL A
Ġr ough
ud ic
Ġpr ice
19 7
Ġmove ment
, '
Ġc ore
ad d
ur p
Ġsh ut
ĠV ER
Ġperfor med
Ġrep ut
Ġstru cture
mm a
Ġmulti ple
Ġse mi
Ġr ules
ĠN E
ĠK ill
be at
Ġacc ents
Ġfeat ured
ĠSim on
Ġpract ically
Ġunfortun ate
oo oo
ĠR un
Ġr ise
ĠSt ates
Ġhand led
ĠJohn son
Ġcut ting
opp y
n s
ar ning
il ogy
igh ter
Ġcr ash
ĠUn ited
Ġexp os
Ġinflu ence
f ire
m ond
Ġp ity
Ġch ose
Ġab use
ol ic
ĠCanad ian
Ġpra ise
Ġrelative ly
U R
V E
W atch
er ie
at hy
Ġn ominated
Ġha unting
ĠK ore
Ġinc ident
Ġpos ition
Ġspoil ers
Ġ196 0
ĠRus sell
c ula
Ġa br
Ġb ound
Ġl ower
ĠT O
ĠS her
Ġj ail
opp er
D o
ĠB ern
ra ction
Ġal cohol
ĠL ong
ĠG et
Ġen emy
ress ive
ĠAl ice
Ġland sc
ĠPat rick
Ġstat ement
Ġblond e
Ġbot hered
Ġfrank ly
ĠM ir
Ġcomm it
Ġtou ches
Ġvar iety
Ġsuspense ful
ĠMur phy
ĠHol mes
k ed
Ġsc ale
Ġout rage
Ġr ot
Ġsp ark
Ġem phas
ĠclichÃ© d
Ġclaim s
ĠJew ish
Ġdeg ree
ĠViet nam
! ),
ĠW he
out hern
ĠR ick
Ġne at
Ġoff ensive
Ġ2 5
Ġri val
umb ling
Ġfavor ites
Ġsympat hy
Ġinit ial
n ers
p et
Ġf estival
Ġac qu
ĠDo es
Ġer otic
Ġconvers ation
l ow
z o
Ġar rest
Ġgu ilty
ĠU p
Ġtra ining
Ġadm ire
inc luding
ĠBra nd
Ġaccident ally
Ġuncon vin
Ġto ler
ol en
ĠR em
Ġev ol
Ġfig ured
Ġprevious ly
Ġobsess ed
ĠJose ph
w w
Ġw rest
Ġc ook
ĠT od
ĠS k
ĠS an
ĠB og
Ġpo ign
Ġreal izes
Ġdirect ly
Ġser ves
ĠAfric a
Ġcateg ory
ĠBroad way
Ġf ish
it ious
le ction
et er
Ġha ck
ĠC H
Ġtr ick
Ġdis ag
Ġsuper natural
Ġsurpris es
ĠEd ward
Ġdestroy ed
I ON
or b
ar i
Ġg entle
Ġwe ar
ĠW r
Ġex agger
ag o
ĠN ichol
Ġmy th
Ġevery where
Ġsort s
s hip
Ġm ethod
ĠS al
ĠE ve
Ġ1 6
Ġsp ite
ĠCh ild
az e
Ġforget table
Ġexec ution
Ġmelodram a
Ġintellect ual
Ġw edding
Ġb oot
Ġc ab
ed s
ĠT y
Ġhe ck
ch an
Ġse ction
um ph
ĠE vil
Ġcam er
Ġpres ents
Ġconf ess
ĠBe fore
Ġunlike ly
Ġgrap h
Ġdemon str
Ġextraord inary
Ġ #
Ġt ill
re hens
Ġw ound
Ġd irty
ĠH aving
Ġat ro
ĠK ate
ass ion
Ġbit ter
ĠRe ally
Ġcost ume
ĠRobert s
Ġpull s
Ġcontinu ity
1 1
i pping
m al
Ġd ed
Ġl udic
ut y
ĠS E
ĠS id
ĠF ull
Ġar g
Ġpol ic
Ġcompl ain
cra ft
Ġb esides
Ġhe alth
Ġent er
Ġfar m
Ġsw im
Ġrequ ired
Ġmass ive
Ġhang ing
c r
ĠH ope
Ġj eal
ĠV inc
Ġcont act
Ġmind s
Ġprof ound
ĠEl izabeth
Ġprep ared
ĠCal ifornia
ĠEast wood
ĠRog er
I s
Ġst om
ĠJ ac
Ġeffect ively
app ing
Ġdeath s
Ġcry ing
Ġimpro ve
Ġ193 0
c hen
w orld
Ġ ice
en ced
Ġst alk
Ġco vered
Ġpri vate
ĠAnt on
a ust
c ons
Ġt ask
at o
ĠH off
Ġexc ess
Ġpolit ics
ĠPark er
r ie
Ġp aced
et he
ul ci
Ġfl o
Ġtra pped
oc al
ib al
ĠAct ually
L ike
i pped
Ġc ust
am ous
ro l
ĠM in
ĠM uch
Ġwor ry
our ne
Ġsk ip
Ġdri ver
wr itten
Ġremote ly
ĠAv oid
" ).
2 0
f ess
Ġb ab
Ġd ress
ĠA LL
ĠS aturday
ĠO ld
Ġsim pl
ĠAn na
Ġrep orter
Ġrent ing
Ġstat us
Ġstereotyp ical
Ġreput ation
Ġf ix
it o
Ġp ile
ĠH alloween
ĠP ort
Ġfl ow
Ġcr is
Ġimag ery
Ġass um
Ġnarr ation
Ġserv ice
Ġfright ening
Ġaband oned
or ig
Ġas h
ĠR ain
Ġrem inis
Ġext ras
Ġrep et
Ġfoc used
Ġveter an
Ġfict ional
I M
c ies
em s
Ġsc he
ĠR ad
ĠF inally
Ġcou rage
Ġconc ert
Ġsens itive
w ing
Ġs ne
ĠI re
Ġ/> *
ĠT ri
ĠM OV
ĠC as
ĠD ennis
Ġup set
Ġgreat er
Ġdist inct
Ġseason s
Ġaccomp an
b reaking
d im
Ġt iny
Ġw ins
ĠM ST
ĠC ost
Ġno stal
Ġmist akes
i at
Ġh ired
ĠW all
ĠO ver
ĠCh annel
ĠAr t
Ġconvin ced
Ġarri ves
G M
ĠC omp
ĠD un
we et
ĠBr ooks
ĠDon ald
Ġdev ice
Ġtre mend
Ġenc ou
Ġclos er
z il
Ġmain stream
Ġcall ing
Ġadd ict
Ġconc ent
Ġpain ting
Ġuni verse
Ġweap ons
b it
o oth
Ġs ke
Ġw id
Ġf u
Ġc ous
Ġbe ach
Ġst olen
ĠB ull
Ġde eper
ard en
ĠDe an
Ġdep iction
Ġdist ribut
ĠBe at
ĠCar pent
Ġcrit ical
Ġru in
ĠUS A
Ġhom osexual
Ġinterview s
IGH T
Ġs ink
Ġy ell
Ġcan n
Ġpart icip
ost er
Ġstay ed
Ġoccas ional
Ġfunn ier
ethe less
a fter
en ny
ĠT or
Ġli ft
Ġch air
Ġover look
ĠInd ia
ĠEs pecially
l aim
Ġpl aced
Ġv ast
ĠL ane
Ġscen ario
pl ays
Ġra ised
li ver
Ġcapt iv
uc lear
Ġfoc uses
Ġheav ily
c an
Ġb ore
at ically
as p
om er
ĠB on
Ġch oices
Ġun p
Ġdec ades
Ġsound ed
ĠCar ol
Ġvamp ires
Ġdepart ment
ĠSad ly
ĠPres ident
ĠVER Y
L e
s m
an i
if orm
ĠO ff
ac re
Ġpre view
Wh o
Ġsuff er
Ġclos ing
Ġoffe red
Ġlegend ary
B y
g a
o ch
on est
ĠH ong
ĠF er
Ġamaz ed
Ġcol ors
Ġfig ures
ĠEn ter
Ġgru esome
Ġnecess arily
Ġa in
Ġb ird
Ġd ynam
Ġis ol
il s
il ton
ig r
Ġgu ard
Ġdown right
Ġbu ying
Ġexpl ains
ĠTh rough
sp ired
Ġuni vers
ĠQue en
Ġpu zz
Ġ 0
Ġt ong
Ġre un
ud ge
Ġte eth
Ġcont est
Ġgr itty
Ġdri ven
Ġreve als
Ġmild ly
Ġatro cious
Ġstom ach
ĠHoff man
Ġover whel
ĠV amp
ĠU nder
Ġkill ers
Ġcomm and
Ġcontri but
Ġdin osaur
A m
Ġf ab
Ġg re
am ie
ĠF ulci
ian o
Ġpay ing
Ġsister s
ĠMexic an
Ġunderst ood
g on
Ġlo yal
Ġthr ows
Ġbl own
Ġkind s
Ġpain t
ĠPh ill
ĠApp arently
Ġmurdere r
c ause
w y
z ed
Ġan ger
ĠC are
el ve
Ġacc ording
Ġdem and
ĠAny one
ĠTar zan
Ġunconvin cing
M ichael
c ase
on a
as ant
Ġsc r
Ġint ens
um ble
ĠN one
ell a
Ġob nox
Ġscreen ing
Any way
ĠHel en
" ?
Ġw and
Ġf il
Ġd om
ĠB aby
ĠM ill
ĠH ad
ĠR os
Ġser ve
ĠCl ark
Ġform at
Ġunin teresting
ĠYe ah
Ġsumm ary
g ie
l oyd
s ch
ĠE ach
ĠY our
Ġcr ude
ĠAr my
Ġlist ening
Ġchang ing
Ġcompl icated
Ġfaith ful
re es
as hy
Ġn aturally
im m
ak i
au de
Ġspe ll
Ġche ese
ĠPl ay
bel ief
Ġdesign ed
Ġsucceed s
w alk
in als
ĠD ie
ĠP ri
Ġbet ray
ob b
ĠTh ree
ĠSc ar
ĠBet ty
Ġpregn ant
I A
ĠT ake
ch y
ĠA ir
ĠS O
Ġv ia
ĠL ater
Ġun iform
Ġman s
Ġ1 7
ĠCh ina
-- -
Ġoriginal ity
Ġhand le
Ġlight s
Ġca uses
Ġsignific ant
Ġinh ab
is her
er al
Ġan ime
ĠB u
Ġch ief
ĠN at
Ġlo g
Ġtr ilogy
Ġcont ain
ĠU s
Ġview s
ĠAs h
cept ion
com ing
Ġwin ner
Ġcomb ined
ĠDra cula
Ġminim al
M ar
i ques
Ġtim ing
ĠO b
Ġsee k
Ġco inc
Ġpass ing
Ġunc le
Ġcamp y
Ġlaw yer
Ġludic rous
C T
O kay
a ver
n oon
ĠA ra
Ġha unted
ĠH ill
Ġpre vent
ĠBl ue
Ġgra ve
Ġinte gr
ĠLu ke
ĠSin atra
ĠS un
ĠD et
Ġsc ares
ĠF BI
ug os
Ġfa cial
ĠNaz i
dim ensional
ion ed
ĠW or
Ġchar ge
Ġad e
Ġpr ime
Ġsec urity
Ġwar ned
Ġbra ve
Ġmag ical
Ġquir ky
g ia
Ġp age
Ġn ative
Ġn ude
Ġst ays
id s
Ġr ub
Ġar ms
Ġsub sequ
ner y
ĠFr iday
Ġshort s
Ġir re
Ġdiv or
ĠWW II
ĠWal ter
Ġgoof y
Ġdescript ion
D av
f all
f rom
Ġb reaking
Ġth ro
ul ated
ĠD ep
Ġthr owing
Ġri ver
Ġev ident
Ġattempt ing
ĠJul ia
ĠAN Y
ĠCam er
g irl
er ved
Ġm as
Ġre ward
Ġli ber
Ġdo gs
Ġstr ict
ĠMc G
Ġdeli very
.) <
Ġappreci ated
Ġstrugg ling
Ġcap ital
Ġansw ers
p r
Ġf et
ĠS on
ac le
Ġbl at
Ġexam ples
Ġamaz ingly
Ġfore st
Ġadv ant
Ġcond ition
ĠSw ed
ĠCarpent er
Ġch uck
ust y
ĠP itt
Ġright s
Ġcar ried
Ġjob s
ĠDo ctor
Ġmet ap
Ġinsp iration
Ġexpress ions
Ġf ond
Ġse ve
ĠM iller
Ġcom ical
Ġext ent
OO D
Ġregard ing
ĠSund ay
c alled
d en
ĠM eanwhile
Ġte ar
het t
ĠWell es
Ġpat ient
ĠBer g
Ġproper ly
W ill
i able
j ud
id a
ĠA L
Ġhalf way
ĠGra nd
Ġign or
ĠOther wise
Ġdisag ree
d s
e ed
k ind
m od
t t
Ġthe ory
Ġe lder
st yle
ĠM GM
Ġdo zen
Ġex er
Ġal iens
os ity
Ġdis belief
Ġcar ries
ĠGr ant
ĠPl an
Ġru le
Ġintrodu ction
Ġdesper ately
Ġjo in
Ġsoph istic
T w
u ght
Ġin j
Ġe th
ĠP a
Ġstory telling
ĠK night
Ġevery day
Ġinc or
Ġsur f
Ġnovel s
Ġwee kend
Ġrac ist
H ere
Ġn u
Ġn uclear
ad a
ce an
Ġbut t
ell o
Ġstar red
Ġdin ner
hor ror
in er
Ġg ar
Ġ/> (
ĠT ur
id ents
ĠC age
Ġgu ar
Ġbas is
Ġdri ves
ĠWith out
Ġdrink ing
Ġbreath taking
Ġobnox ious
8 0
G ood
n es
nd a
ad ays
if ies
act ic
ĠL loyd
ĠJ ay
Ġme re
ĠN Y
ian c
Ġenjoy ing
Ġhelp ing
ĠBe aut
Ch rist
Ġt un
Ġb ill
ch ar
ĠS ometimes
ĠC ru
ĠG oth
ound ing
ĠK ane
ple nd
Ġche er
Ġrel ated
Ġtou ched
ĠBur ton
Ġrac ism
i ber
Ġb uddy
Ġhe aven
ĠS ovie
ĠC ooper
ĠD a
ĠK urt
... "
Ġdis s
Ġad op
Ġser ved
ĠIn c
be it
Ġlet ter
Ġbase ball
ĠSar ah
Ġinterpret ation
h ib
Ġb ik
ĠW onder
ign ed
Ġstupid ity
Ġtrans form
ĠChar l
Ġexec ut
Ġproduct ions
Ġassist ant
O P
Ġt ree
ing ers
il ed
Ġmo ck
ĠM od
ĠC ann
ĠD uring
Ġfr anch
ĠR ac
ĠR ec
irect ed
Ġbl ah
Ġtit les
ĠItal y
Ġment ally
Ġign ore
uther land
D espite
ro ph
ĠB ack
ĠC ole
Ġj ungle
ĠL OV
ĠF in
ĠE nd
ĠO w
Ġret arded
Ġcred ible
Ġcred ibility
Ġpar all
ĠWar ner
Ġpure ly
ĠWatch ing
Ġrefe rence
Rob ert
ĠMOV IE
J ack
s omething
Ġh ipp
Ġre v
ĠS av
ĠW ind
ond a
Ġpick s
Ġpsych o
Ġflaw ed
lin ers
C K
ing ing
Ġc and
ap ed
Ġent ry
ĠAr gent
Ġcult ural
Ġrating s
Ġbel oved
Ġtur key
W here
f its
br a
ck er
te nding
Ġcar ing
Ġmis cast
iam ond
Ġdeterm ined
ĠMic key
Ġcontrovers ial
Ġf ac
Ġd ude
Ġwe ars
Ġpl astic
Ġr ank
Ġcomed ian
Ġsetting s
Ġtre asure
Ġrevol ves
ĠAustral ia
Ġreminis cent
D irector
Ġb ow
Ġun be
ĠAr m
ĠMar g
Ġmed ical
Ġtechn ique
Ġaccept ed
Ġattack s
Ġlone ly
v o
Ġc y
Ġh ole
ĠS ir
Ġex ists
ous es
ĠK arl
Ġar gu
Ġpo et
Ġaw ards
ib ilities
ograp her
Ġescap es
wy ck
Ġt ense
Ġst unt
am s
ĠM om
ĠC ap
Ġsh adow
Ġch a
ĠR et
ĠK rist
Ġdead ly
Ġann oun
Ġamong st
Ġjour nal
ĠSant a
Ġwel come
B S
ut ter
et y
ĠM ass
Ġsh ark
Ġal right
ol ph
ĠK ar
Ġro lling
Ġfl ight
Ġinter act
ex cept
Ġtop ic
Ġcount ries
Ġattack ed
Ġimm ense
Ġintern ational
lyn n
ĠMus ic
Ġsin ister
Ġash amed
e ase
h h
or c
all ey
ĠC ome
Ġsh ape
ant ino
ĠO ur
Ġback d
ĠSt ud
Ġgr im
Ġcast le
Ġind ie
Ġstrugg les
Ġ194 0
Ġrepl aced
Ġt on
Ġn ation
Ġli br
ĠH A
Ġle arning
Ġshe riff
Ġres ist
Ġperfect ion
Ġconf usion
ron ic
Ġsepar ate
Ġt ag
ar on
ĠL at
Ġunder ground
Ġdeli ber
Ġcarry ing
Ġcrim inals
Ġbal ance
Ġf ulf
Ġh ar
ig er
Ġgreat ly
for ward
Ġdis gu
Ġant icip
Ġmil es
ĠMexic o
Ġris k
Ġsty lish
Ġgraph ics
Ġintens ity
Ġadvant age
d ie
f est
t ogether
w hen
Ġc ock
Ġp ed
ĠB L
Ġsu ffe
ple te
Ġafter noon
Ġhor rific
erson ally
ĠDe vil
Ġguess ing
Ġstop s
Ġast on
ĠPhil ip
Ġthous ands
in ate
Ġm ature
Ġk ung
Ġno se
ĠK aren
Ġadd ing
vis ed
Ġexcept ional
ific ation
gy pt
Ġembarrass ed
iven ess
Ġpoign ant
Ġtong ue
E x
M aybe
P er
f un
Ġt une
ing u
ĠS utherland
ust rated
op ath
ĠL os
ĠL isa
Ġcan ce
Ġdis like
Ġra w
ster y
che ll
set t
Ġgri pping
Ġnet work
Ġcyn ical
Ġh ip
Ġl azy
ad ows
ri al
ĠM ovies
ĠH al
Ġall eg
ĠO kay
ĠCh ic
ret t
Ġsle azy
Ġang le
ĠAm az
Ġspoil er
ĠWood y
Ġwealth y
ĠKenn edy
M r
p al
or ation
ĠA ward
ĠM U
ĠP rodu
Ġlet ting
Ġmind less
ĠAr n
Ġ199 0
Ġinnoc ence
ĠPac ino
h ard
w atch
Ġp hen
Ġwe ight
ĠL and
ast e
Ġar rog
ish ment
ĠV en
get table
ons ider
ram a
Ġscreen writer
Ġscript s
Ġopen ed
Ġpresent ation
Ġmag az
Ġequ al
ĠPr ince
Ġidi otic
Ġchall enge
Un fortunately
ĠAb out
Ġmount ain
ĠBerg man
Ġl aid
Ġn om
Ġn ational
st ory
ĠC aine
Ġlo vable
ĠO z
ĠIn tern
Ġport ra
ĠBe ing
Ġinn ov
ĠSuper man
Ġfrequ ently
ĠVinc ent
w or
ch ant
ĠC ry
og ical
oc r
Ġfin an
Ġcons ists
Ġart ists
ĠRe yn
Ġsuggest s
Ġsleep ing
ĠSus an
b id
m ates
Ġb on
se mble
ĠH a
ĠW ater
Ġj umps
ĠR a
Ġne ck
ĠF lor
Ġcl ips
Ġcont ract
Ġfair y
Ġadvent ures
TH E
ĠFred dy
Ġfranch ise
T ER
Ġc ases
Ġp ool
og ue
Ġatmosp her
A d
E L
W ow
m itted
Ġc ave
il a
Ġv ivid
ĠL ost
ĠG i
ĠN ol
Ġcre ation
ph an
!!!! !!!!
Ġstep s
ĠHard y
H aving
Ġnot ed
ĠD ave
un ning
Ġv ir
ĠCl ass
Ġunf old
Ġrob ot
Ġimagin ative
Ġa ired
Ġnot able
ĠC atherine
ĠP owell
Ġman ager
ret ty
Ġbor der
Ġtechn iques
ĠColumb o
orig inal
= =
B ra
Ġc orn
ci a
ĠAnd re
Ġour selves
Ġsk y
Ġocc up
ĠBrit ain
Ġ200 1
ĠSch ool
Ġrob ber
ĠWalk er
3 0
s ky
w rit
he st
Ġw anna
Ġf irm
Ġh iding
Ġsh o
th an
ĠL aura
Ġinst all
Ġnight mare
ĠBl air
go ing
Ġspec ific
m ate
or der
Ġwas ting
ce llent
ri g
ĠB ollywood
ĠB esides
ĠP G
ĠP L
Ġri pped
air s
Ġsk et
Ġur ban
ĠThing s
ĠCamer on
Ġsuffe red
? ).
P aul
U L
al ph
Ġex ch
Ġde ce
ĠE gypt
og an
Ġra ise
oint ed
Ġuse less
Ġattempt ed
Ġappear ances
Ġir onic
Ġpsych iat
ĠTom my
Ġstun ts
bb ed
ĠGra ce
Ġoffic ial
Ġsearch ing
ĠStan wyck
O D
y pe
Ġhe s
am or
Ġv i
ind a
ook y
Ġen orm
Ġhapp iness
ĠAl ong
umb s
Ġrest aur
Ġfall en
ĠMar ie
Ġsuccess fully
Ġsed u
Ġvide os
A A
M ost
i ation
Ġs ings
as ion
se ud
Ġst ates
Ġst orm
ĠS omething
ĠH unter
Ġch illing
ĠW ere
ĠW olf
ĠD ream
Ġcon ven
ĠO liver
Ġrel ax
Ġacc ess
co ver
Ã© e
com edy
Ġcor por
EA D
Ġbored om
Ġphys ically
Ġhook ed
Ġobl ig
Ġcous in
l ist
n an
ar ter
ĠA st
Ġv ent
ĠG riff
Ġfriend ly
ib l
Ġref uses
Ġfem in
ĠCon nery
Ġsexual ity
Ġmeaning ful
Ġinit ially
Ġconsequ ences
ĠSovie t
Ġt empt
Ġs plend
er ior
Ġl ying
oo ps
ĠM a
Ġj ack
Ġinst antly
ĠMat th
ĠGold en
Ġprotagon ists
Ġbelong s
Ġtrib ute
Ġmarvel ous
Ġestabl ished
Ġt orn
ĠT urn
ad er
ĠM AN
ĠD ad
ĠG reek
ĠN ancy
Ġen h
pl ace
pl ots
ob i
Ġpr oof
ĠSo on
Ch ar
Ġachie ved
Ġweap on
e nd
l ance
it chell
Ġto ile
Ġd ign
Ġl yr
ĠB ell
ĠF le
ert y
Ġover come
Ġsp oken
ĠCh uck
Ġir ony
Ġste aling
Ġrepe at
rif ied
Ġess ential
Ġcompet ent
ĠUnivers al
Ġfab ulous
u x
Ġg al
ul ate
qu is
Ġle gs
Ġwere wolf
Ġpo ster
ON E
Ġconv ict
Ġsurround ing
ĠAndrew s
Ġexer cise
v a
v ably
st op
im ents
Ġan al
Ġse nds
un o
el son
Ġar r
ĠV eg
ath olic
Ġtri al
Ġweak ness
Ġsurv iv
ĠVictor ia
ĠFre eman
B LE
h ill
Ġt ied
it ar
Ġn urse
ri er
ul k
ĠL ion
ĠL ore
Ġpre ach
ors es
Ġwar n
Ġlack ed
ĠUn like
ĠCl int
Ġcraft ed
Ġneighbor hood
ĠREA LLY
Ġsentiment al
ĠSat an
ĠReyn olds
Ġin fect
ent ric
ay ing
id ers
us hes
ĠF lynn
ĠAl ien
Ġtra um
Ġtri umph
Ġel abor
Ġcar ic
Ġscient ists
Ġamb ig
Ġobsess ion
Ġneigh b
ĠTar antino
Ġmir ror
h old
k ick
as er
Ġe ager
ĠH ave
Ġsh ines
ĠW es
ĠF u
Ġme at
Ġte nder
Ġhor rend
oc he
Ġappe aring
ĠAt l
ĠMar ia
Ġclose ly
Ġdest ro
ĠBas ically
Ġtroub led
acc ur
C on
g un
w ife
or row
Ġp seud
ct ions
Ġst umb
ĠS ky
Ġse vent
ck et
if fe
ak y
ĠF air
Ġsp ots
the w
Ġter rit
Ġsol ve
Ġmusical s
Ġspirit ual
Ġess ence
Ġperform ers
Ġvac ation
? ),
r ich
w oman
Ġt rap
Ġs aves
Ġf est
Ġb udd
Ġth ick
as ingly
ĠC urt
ĠH ud
el ine
Ġsee king
our s
Ġgl imp
ĠChar act
let t
Ġmill ions
Ġconne cted
ugos i
Dav id
Ġglimp se
6 0
Ġw ishes
Ġth irty
Ġbe er
ĠS ally
Ġpl ant
ĠF amily
Ġtrans fer
Ġannoy ed
Ġdev il
upp et
Ġbro ke
Ġhom age
Ġaut om
Ġuncom fortable
ĠMiche lle
ĠS ol
Ġj erk
ag ine
ĠP enn
Ġint ention
Ġsp y
ang le
Ġenjoy ment
Ġco ach
Ġcare fully
Ġdram as
Ġdevelop s
Ġdeal t
Ġdaughter s
Ġshoot s
Ġ: )
Ġhundred s
ĠGener al
Ġatmospher ic
C E
L D
p ed
ĠB AD
ĠC ind
Ġch ases
if ting
Ġj ew
ĠL I
aw s
ru cted
Ġinc o
Ġdec l
Ġnow adays
Ġstr anger
gg ing
Ġexpl icit
Ġbor row
Ġless er
Ġmon th
Ġopp osed
Ġpersonal ities
Ġconcern s
ĠBob by
in ent
Ġm ont
Ġp ush
Ġd ump
ĠI d
ĠB all
Ġch oos
ĠP age
red ict
Ġen semble
ment ioned
aw a
ĠV irgin
Ġra in
Ġdark ness
Ġthrill ing
AN T
iel berg
Ġmad ness
Ġident ify
Ġbroad cast
Ġthous and
Ġmiser ably
ĠOl iv
Ġbatt les
Ġunfor gettable
F inally
c ut
t oo
u ke
Ġs ail
re p
Ġth read
st one
ad o
ell ar
Ġqu ote
Ġgu ilt
Ġbeing s
rill er
Ġbu cks
empt ion
Ġimport antly
Ġul tra
Ġaf ford
Ġoutrage ous
Ġade qu
1 3
g ra
Ġw reck
at a
Ġto w
Ġst yl
Ġst iff
ra el
ĠH BO
Ġpoint ed
Ġstru ck
ĠGerman s
ĠCom edy
Ġdoll ar
Ġkidn apped
T om
U S
i ently
v an
w hy
on se
Ġu pper
ĠH ome
Ġsu its
Ġv irgin
ĠL em
ack ed
ĠAl t
Ġcons pir
Ġless ons
Ġdra gs
Ġlar ger
Ġmet al
Ġprofess ion
Ġunin spired
ĠFran co
Ġt ax
br ick
ĠT op
ĠM id
Ġnot ch
Ġat tend
Ġal b
ĠR ic
Ġspe nding
Ġgr ows
r ase
Ġw ra
Ġact iv
Ġk icks
ĠG reg
ĠJ amie
ĠK iller
Ġkn ife
Ġag ed
ĠRe g
Ġhope fully
Ġsw itch
Ġaccept able
w ater
Ġc itiz
Ġd are
Ġin accur
Ġhe ist
ĠM itchell
Ġnew sp
Ġstri king
Ġincomp et
Ġunbe ar
ĠArn old
an c
ĠW OR
Ġsu p
Ġr ushed
Ġtr icks
Ġinc ons
Ġem br
Ġsm ooth
Ġdialog s
ĠTr ue
Ġign ored
ĠPol ice
Ġincre asingly
Ġf aced
Ġh ill
Ġe cc
Ġbe ating
Ġch asing
if ying
ĠR es
Ġun ple
.... ..
ĠDe finitely
Ġtalk ed
Ġbrief ly
Ġcolor ful
hand ed
onest ly
le e
Ġmo on
Ġre b
Ġse lect
ĠM et
ak a
ag an
ĠF ro
um ents
ĠG ill
ograp hic
Ġsuper fic
Ġabr upt
G r
Ġh ung
Ġg ain
ĠA T
ĠS uch
ĠB urt
ĠW ould
ist ically
ĠR ep
ĠN et
ig an
ere lla
Ġ4 5
orm al
ps es
Ġstrange ly
Ġamb itious
Ġcompet ition
Ġdro pped
---- ----
Ġrepeated ly
Ġda ily
S POILERS
ic ing
Ġch ap
Ġr hy
ĠG en
Ġun h
ud os
Ġsp read
Ġatt raction
Ġsex ually
Ġdra gged
Ġrid ing
ĠSome one
Ġhop ed
Ġreve aling
ĠAct ing
Ġfol k
Ġinevit able
Ġrepet itive
ĠRac hel
ĠMatth au
p se
Ġs ize
Ġf ianc
Ġto ss
Ġd omin
Ġg uts
ĠA lf
Ġsh all
ĠD ri
ĠD rew
act ed
Ġcom fort
ĠK en
Ġqu een
Ġche st
Ġsub plot
ĠWe nd
Ġed itor
Ġcor ner
Ġthrill ers
ĠIs rael
Ġdest ruction
Ġlim it
Ġwestern s
Ġdisappe ar
ser ies
Ġende aring
ĠKore an
ĠOb viously
R ich
b al
g ain
Ġb ott
at isf
ĠL iving
ĠL ugosi
ĠHe aven
Ġrem aining
Ġrele vant
Ġexp ensive
oil ers
ĠInd ians
**** ****
ĠPr in
Ġghost s
Ġcuri osity
Ġmelodram atic
âĢ Ļ
Ġcring e
Ġportra it
at ched
ĠM ach
ĠF ather
man n
ĠBr id
Ġhand ful
ĠSp ielberg
Ġeas ier
ĠJess ica
Ġs and
Ġg ather
all o
ke l
ĠD E
ĠD i
ĠD al
ĠR alph
Ġr uth
ĠN ational
Ġlo cked
ab les
we ight
Ġexpl ore
Ġpat ri
Ġimport ance
Ġattract ed
ĠJon athan
Ġelect ric
Ġcharism a
! .
Ġ ***
Ġth rew
on ly
Ġto m
Ġl ur
ic op
Ġse lling
ĠH olly
ĠP ower
Ġr at
ĠK han
ne w
Ġapp alling
Ġele g
Ġbra nd
AN D
Ġnon etheless
Ġfour th
Ġrequ ires
ĠLau rel
Ġvul ner
7 0
B r
F r
b ook
Ġn ail
ie u
ce nd
ĠB ros
ĠM other
Ġsh y
Ġtr ite
Ġsub urb
ris on
Ġpres ident
Ġcame os
Ġele v
Ġstud ios
Ġself ish
Ġhon or
Ġinf amous
Ġbus y
Ġeng ine
ĠAust en
Ġresp onse
ĠChe ck
Ġstret ch
T r
Ġc andy
om ic
Ġst ated
ĠS ur
ĠN elson
pt ic
Ġfe ars
pl ane
Ġbl ows
ertain ly
Ġ2 4
Ġter rifying
Ġill eg
Ġjud g
Ġdubb ing
Ġintent ions
Ġphen omen
h i
v ia
Ġf inger
Ġe erie
ut ch
ĠM iy
ĠC us
el a
Ġde pe
Ġar gue
ang ing
Ġstr ing
Ġadapt ed
ĠNor man
Ġindividual s
Ġsophistic ated
Ġbackd rop
P e
u gh
Ġn uts
Ġst aff
ĠS POILERS
Ġsh out
em ents
Ġab ys
ĠR and
Ġwat ches
Ġmy st
ĠU l
Ġcreat ors
Ġgl ob
Ġ200 5
ĠNe xt
Ġspl it
Ġreact ions
ĠSid ney
i ar
Ġa fore
is ation
Ġm es
ĠT em
ĠA z
ĠB ac
est on
ĠP ot
Ġcl own
av or
ĠCh urch
Ġreason able
Ġelse where
olog ist
Ġdem ands
Ġreturn ing
Ġeng aged
Ġprog ress
St ar
ĠAngel es
Ġcommercial s
Ġlif est
Ġexplos ions
Ġbre asts
Ġtoile t
Ġterrit ory
Ġinco herent
E LL
S ee
Ġp a
Ġl ust
Ġfe ed
ab s
Ġhapp ily
iv an
Ġrest ra
Ġbas ement
unk y
Ġdev ast
Ġmist aken
ana gh
ĠMat rix
Ġhy pe
Ġinvestig ation
Ġoccur s
Ġcard board
ĠHud son
Ġunple asant
O ther
is ions
or a
on i
Ġh ood
Ġh orses
Ġst ood
ĠH urt
ag g
Ġun e
Ġgo al
Ġim it
ere my
Ġcr imes
Ġpres um
Ġcheck ing
Ġpack ed
ĠRog ers
Ġrevel ation
Ġtremend ous
r d
r ink
Ġc ig
Ġp in
Ġd ub
le ton
Ġe tern
ĠM itch
ĠH ug
ĠJ er
Ġreal ise
oil er
Ġobs er
Ġprofess or
Ġble ak
Ġrepl ace
Ġmotiv ation
Ġrestaur ant
Ġecc entric
Ġm aker
Ġp iano
Ġre li
ĠC ur
ul oid
us ions
ĠR ome
ĠG RE
Ġpre cise
ip es
Ġkill ings
Ġbrill iance
vent ually
bb ing
ĠLu cy
Ġmedi um
Ġrap ed
Ġwond ers
Ġlibr ary
ĠChic ago
d og
i pe
n ic
Ġw icked
Ġcl ues
... .<
ĠHe art
Ġacc used
ograp h
Ġinter action
ex istent
ier ce
Ġcapt ain
ĠOsc ars
Ġdan cer
Ġobs erv
Ġintern et
Ġphotograp her
Ġwid ow
Ġhorrend ous
G reat
e z
y c
om s
id el
ĠC ont
Ġare as
ab lish
Ġhor rid
Ġexpl od
ER S
Ġple ased
19 5
Ġrap id
ĠSer iously
Ġbeat en
Ġbur st
Ġinex plic
' .<
l ines
s uch
Ġo il
an ing
Ġd ent
ĠM A
ĠK irk
Ġpre cious
It s
Ġdocument aries
Ġpull ing
Ġgrand father
ĠSec ret
Ġphilos oph
Ġassoci ated
G e
ĠI ce
Ġ/> '
ĠB art
ĠC ub
Ġshow er
Ġper pet
Ġdis plays
Ġcharacter ization
Ġmess ages
Ġcount less
19 4
Ġ200 0
Ġdetail ed
Ġmer it
ĠAlex ander
amb ling
ĠSand ra
Ġsymbol ism
Ġencoun ters
ĠZomb ie
Ġelder ly
writ ers
S e
c orn
r im
he im
Ġw ann
om it
Ġg ee
ie re
ĠH as
ĠH ind
ag in
Ġr anks
ĠF ire
ĠG ive
Ġthrill s
ĠInd eed
che st
Ġ200 6
orth y
ĠRuss ia
Ġsurround ed
Ġseg ments
Ġcow boy
Ġfif teen
ĠDian e
Ġjeal ous
sch ool
K E
m it
o ven
t an
it chen
ĠT it
ĠS orry
Ġall owing
Ġal ike
Ġme chan
Ġtim eless
ob ody
Ġhel icop
ĠAn im
Ġreturn ed
ĠCon n
Ġarri ve
Ġrepres ents
min ute
ĠPict ure
A ct
j ointed
v ideo
he y
Ġw ake
om y
ĠM ars
ĠM arsh
ĠH y
ĠH ot
op hy
ĠR ee
ĠF R
ĠJ osh
ĠK ath
ull ivan
Ġgu ide
Ġperfor ming
Ġsl ick
velop ed
Ġprov iding
Ġforg ive
Ġlos er
Ġwall s
ĠEm ily
Ġfort un
ĠLes lie
Ġresol ution
ĠLeon ard
ĠKu brick
Ġhyster ical
Ġhol iday
Ġarg ument
C om
Ġc ried
id al
Ġab ilities
ĠR ow
Ġout come
Ġr ow
Ġdis miss
Ġdirector ial
Ġreason ably
Ġlik ing
Ġpleas antly
Ġadv ance
Ġmer c
ĠSci ence
Ġphotograp hed
Ġaccompl ished
mind ed
Ġmans ion
Ġsubsequ ent
Q u
on ne
Ġto y
Ġn ine
ĠS U
Ġch ain
Ġch amp
ĠW itch
Ġwhe el
Ġ2 1
Ġrel uct
Ġfar ce
ĠBr uno
Ġdet ract
Ġheart s
Ġdr own
Ġmot or
Ġflaw less
Ġspoil ed
Ġrece ive
ĠPro bably
ĠII I
Ġaffect ion
Ġwond ered
Ġlandsc ape
Ġsplend id
E n
t te
Ġt ons
Ġc ared
Ġe con
il ted
oo ges
ir a
ri or
if ically
ĠP oor
ans on
Ġent ers
Ġant ics
Ġnear by
ĠJul iet
Ġidi ots
OM E
Ġinsult ing
Ġescap ed
ĠNaz is
Ġresemb les
ĠOw en
Ġvir us
ĠS C
ĠB ry
Ġwe bs
Ġatt ached
Ġgot ta
ord s
Ġworth less
Ġfan cy
Ġdefin ite
Ġcompl aint
cher s
Ġimm igr
Ġtort ured
Ġburn ed
ĠWalk en
V ery
c ingly
e es
i h
Ġp ushed
al so
th ink
ĠG un
ort ion
ep ing
Ġaud io
ĠTh anks
Ġgener ous
Ġsad istic
Ġstrong er
ĠFrank enstein
On ce
Ġjump ing
Ġcharism atic
ĠCinem a
N ight
c ul
p ieces
Ġm ic
Ġex tended
ĠE mma
ĠK a
pl o
... )
Ġbelie ving
ER E
19 6
Ġswe ar
Ġang el
Ġca using
Ġmeaning less
Ġhighlight s
Ġfort une
Ġpossess ed
Ġunw atch
m ovies
Ġt all
Ġh unt
Ġp sy
Ġbe ast
Ġst icks
ĠS ex
ĠB aker
Ġbut ton
Ġal beit
Ġwor ried
ven ile
ĠG al
we red
Ġri ve
Ġres our
Ġsm oke
Ġinv is
Ġins ist
ism s
ĠFr iend
ec ess
Ġdem ons
Ġcomb at
Ġsuspect s
Ġcontinu ed
Ġaffect ed
ĠCanad a
Ġcris is
Tw o
" ;
r ict
u ity
Ġh itting
ĠI ng
ĠT en
Ġst ead
ra w
ty pe
Ġcomp assion
Ġperson a
Ġposs ibility
Ġdist ance
Ġlist ed
Ġpolit ic
Ġplan ning
Ġsurv ival
Ġproject s
Ġdiscuss ion
Ġcell uloid
Ġaim ed
__ __
Ġbath room
ixt ure
ĠIre land
Ġsuperfic ial
S u
T it
he w
Ġb old
it ches
Ġh ire
Ġp ig
Ġd aring
Ġg if
se en
ĠB uddy
Ġwe b
ĠC ow
ĠC all
ĠC ould
ĠH opper
ĠW oman
Ġfr ustrated
Ġwho ever
ol n
ĠP en
ĠP ersonally
per or
be cause
Ġimp erson
Ġbu ried
Ġco vers
Ġmen acing
Ġdri vel
ony m
Ġir on
Ġsent ence
Ġresp ond
ĠFilm s
Ġtravel s
Ġdeliver ing
Ġachieve ment
Ġcal m
Ġunint entionally
Ġing red
I nt
c row
d ated
f act
Ġ ;
Ġs af
Ġw ack
Ġf itting
Ġg ut
ĠC IA
ĠH anks
Ġpl ague
Ġcom fortable
ĠR oll
ĠF our
ĠF urther
ĠE N
Ġlo ad
Ġbl ast
!! !!!
Ġdif f
Ġcare ers
ĠCar ter
ĠCar rey
ĠGe or
Ġsubject s
Ġinsp iring
ES S
Ġsoul s
ĠStan ley
Ġloose ly
Ġoffe nded
Ġassass in
Ġobsc ure
Ġmagaz ine
b ury
h our
j o
er ning
Ġd iver
ĠA ud
Ġv enge
ĠR ing
Ġman iac
Ġdis jointed
av al
Ġchild ish
Ġcons um
ĠRe ed
Ġconc erning
ĠWill is
arth a
Ġridiculous ly
Ġstri p
Ġred emption
rif ice
ĠTra in
Ġdraw s
Ġgold en
Ġbirth day
Ġinvolve ment
A IN
S ec
i per
k ish
l ers
m aybe
s l
Ġ **
it udes
ĠT ru
am eless
ĠC ivil
ĠW ow
Ġr ural
ĠG host
Ġshe l
ass es
ere k
Ġhor rors
Ġabs orb
use um
Ġtyp ically
Ġbuild s
uri ous
Ġprison ers
ĠMur ray
Ġlog ical
ĠGoth ic
J ames
b ox
l ove
p aced
Ġw est
Ġf ired
Ġd ire
Ġn ut
Ġbe ats
ĠS ister
ra ce
ĠC atholic
ak s
Ġr amp
icul arly
Ġcor pse
oub ted
Ġpick ing
Ġdev oid
Ġsuperb ly
Ġble nd
ĠMat thew
Bl ack
Ġmetap hor
Ġaston ishing
Rich ard
p ut
r ation
Ġs en
Ġs ill
Ġf ed
Ġc ere
Ġd ict
Ġg ift
ist an
ĠR iver
ĠF ield
Ġsp ort
Ġfl u
Ġscript ed
gg er
ĠTh ink
bs olute
ĠStre ep
Ġinvestig ate
ops is
Ġgrad u
ĠNE VER
ĠWall ace
ĠCus ack
c ont
i ors
Ġhe ight
ay e
oo ge
ort al
for ce
Ġsp ooky
Ġdiffe rences
Ġgl ory
ĠDe v
Ġmor ality
inc oln
Ġslight est
Ġlab or
Ġimpl ausible
AC K
ĠLind a
Ġing en
Ġprostit ute
Ġexagger ated
ĠVamp ire
Ġpseud o
Ġafore mentioned
Ġunwatch able
K e
g al
Ġs am
Ġw ard
Ġd re
Ġd uty
ic ations
ke ys
ĠP o
ĠF ore
ĠF oster
ĠJ ake
ĠE X
ĠV ideo
Ġmain t
ĠUn cle
Ġass ault
ey ed
Ġtechn ically
Ġer rors
ĠHigh ly
Ġdefe nd
ĠNever theless
ĠLaw rence
ĠCamp bell
ĠBrand o
Per haps
Ġinstall ment
ĠAlt man
g ot
s es
y a
Ġn erv
al ed
Ġre ached
ĠM ed
Ġdo z
Ġde ar
ĠF onda
Ġoff ering
Ġwhere as
Ġrem oved
Ġgr asp
Ġtra cks
ĠShe p
Ġdist ant
ĠUn ion
ĠSe ason
AT CH
ball s
ĠNe ed
Th ough
Ġimpro ved
Ġlab el
Ġlif etime
Ġconvers ations
Ġstink er
Ġproceed ings
Ġtick et
ĠArgent o
redict able
Ġruth less
E l
O ST
w are
Ġw ave
Ġb ust
Ġp atter
ar is
Ġin her
Ġst ole
Ġas p
ĠS ub
Ġme asure
Ġno ise
ell er
Ġpre jud
iz z
Ġkid ding
ĠBl ake
ĠRe al
Ġconc lud
Ġsad ness
Ġpop corn
Ġdisco very
Ġsign s
Ġrequ ire
Ġdrunk en
Ġbene fit
rehens ible
z el
Ġs ons
Ġas se
ur istic
Ġnot es
ĠC our
ĠD ays
ĠF OR
ĠF iction
Ġun re
hat tan
Ġhum ili
ĠWh atever
aster n
Ġhero ic
Ġgrou ps
Ġdev oted
Ġmark s
Ġscient ific
Ġoffic ers
ĠAngel a
ffe e
ĠON E
Ġisol ated
Ġstrict ly
t own
Ġ âĢ
Ġh unting
Ġsh oes
ag n
ĠR oss
ĠL ang
ĠN avy
Ġpre tend
Ġdis li
Ġdis ease
Ġdialog ues
ortun ately
Ġhead ed
Ġtal es
gr ade
Ġtrans port
Ġpred ecess
Ġill ustr
Ġtre nd
Ġtravel ing
Ġoccur red
ĠCass ave
Ġtor ment
Ġded icated
Ġoverlook ed
" -
d ri
f ight
Ġ ..
Ġc roc
ĠI ra
Ġbe friend
se x
ĠC ase
ĠD own
Ġv icious
ĠG abr
ĠE le
Ġgood ness
Ġcl osed
ap h
Ġpo ison
Ġbr idge
Ġ19 2
ah l
ĠFor ce
Ġmove ments
Ġunf air
St ill
af ia
ĠTra cy
ĠMad onna
Ġcurrent ly
ĠSpe cial
ĠTe chn
Ġju venile
Ġlyr ics
n est
Ġm ixture
an cing
Ġp ir
ĠI mp
il arly
ĠA W
ĠB ol
ĠB oll
ĠB ates
Ġsh irt
um sy
ĠK at
Ġsp are
ob ic
ĠAl most
Ġtri o
ov ich
Ġside kick
Ġopin ions
ĠGr ade
Ġdisturb ed
Ġinflu enced
ĠLuc as
en es
Ġto ol
Ġl it
ĠI ron
Ġst aged
ter day
em ark
Ġal together
ĠR ight
ĠF el
Ġag ents
Ġcons erv
Ġcoll abor
Ġwind s
Ġrecogn ition
Ġintri gue
Ġgrad ually
Ġinhab it
ĠGriff ith
Ġdign ity
Ġelabor ate
E d
at ures
Ġg imm
ĠT ot
Ġre h
ĠB al
ĠB ach
ĠC andy
ul arly
ĠD irect
em ies
ĠL incoln
Ġcon vol
Ġover done
Ġro ot
Ġbl ank
Ġdec isions
oc ative
Ġind ul
Ġadm itted
Ġcomment ed
Ġstay ing
ĠNe il
Ġconv entional
Ġprim arily
ĠDor othy
Ġunbear able
Ġmes mer
Ġw ont
on ing
Ġh un
Ġh unter
Ġp unk
ion e
Ġdo ors
ĠP retty
Ġsl oppy
Ġhard er
Ġgener ic
Ġste am
ĠAm anda
Ġrecord ed
Ġterror ist
Ġintrigu ed
Ġord ers
Ġhat red
ĠSil ver
urp ris
ĠSwed ish
A v
G od
L ook
d es
k et
Ġp itch
Ġin ject
ĠS en
ĠB ook
ĠM un
ol ves
ĠG arb
ne ver
Ġperfor mer
Ġra cial
Ġrel ies
ĠCl aire
Ġadm ir
Ġbra ins
ik o
Ġmot ives
Ġmurder ous
Ġcur se
Ġscream s
ĠDra gon
Ġthreat ening
Ġdu o
Ġredu ced
Ġrub ber
Ġthro at
ĠLOV E
O S
e very
m ail
Ã ¡
Ġa ck
Ġo ught
or ic
ou p
ou ch
Ġin app
st ars
im a
am an
ĠC re
ĠH ood
un ior
el and
ĠR ather
ort on
Ġcl iff
Ġset t
ons on
Ġhard core
ĠBe ck
Ġpop ulation
Ġsecret s
Ġgrand mother
Ġrecogn ized
rel ated
Ġbull et
ĠSy d
ĠTod d
ĠAra b
ĠPlan et
oubted ly
H ey
T oo
Ġs ales
it ched
Ġc ure
al o
Ġre aches
gh an
ĠB rend
ĠM o
Ġdo omed
ĠP red
ĠR ub
ĠL ake
ĠG il
res p
ĠN ed
Ġro cks
Ġafter wards
Ġgen res
Ġins ert
ĠBr ook
Ġco ffee
Ġart ific
ĠCl ub
Ġtit led
Ġsad d
Ġnarr ator
Ġsubtle ty
Ġfra g
Ġfrustr ating
Ġarrest ed
Ġencou ra
Ġparall el
Ġnewsp aper
T e
Ġt ie
Ġf ro
Ġf oul
Ġb og
it led
Ġh o
Ġp ubl
Ġst ro
ĠA BC
Ġnot ably
Ġnot orious
ĠH ust
Ġk itchen
Ġpl anned
ĠL ots
ĠJ u
ind er
ĠE ri
Ġno ble
Ġag ing
Ġprodu cing
Ġco herent
Ġabs ence
Ġmiss es
Ġdark er
Ġsusp ic
Ġpolit ically
Ġexist ed
ĠFrank ie
ĠCra w
Ġsac rific
Ġsimpl istic
Ġcaptiv ating
ĠNat al
Ġarrog ant
wor ks
Ġlifest yle
Ġack now
v ity
Ġw rap
Ġb in
it ual
Ġc ards
Ġp ants
ver ty
ent in
ĠM ann
ĠH unt
and ra
ĠR aj
ĠL en
ell i
Ġpass es
Ġsat ir
ik a
Ġpsych otic
Ġodd s
Ġsil ver
Ġstri ke
Ġstereot ype
ĠQu inn
Ġexplain ing
Ġmod els
Ġunbelie vably
ĠCra ig
Ġclot hing
Be fore
Ġdig ital
ĠDu ke
Ġphilos ophy
Ġdistract ing
Ġinvent ive
ĠMass acre
Ġenorm ous
Ġilleg al
H ING
Y e
a ith
Ġa x
Ġs ag
Ġc up
ed er
ĠS qu
ri p
ĠD ill
est ic
Ġtr ade
Ġpo verty
Ġfun eral
Ġsl im
Ġinc est
Ġacc laim
Ġhand ed
Ġimag ined
ĠBl ock
ĠSp ring
sh ot
Ġunf olds
ĠMor ris
Ġest ablish
ĠGl enn
Ġsucceed ed
ĠEVER Y
Ġsole ly
Ġcamer as
Ġscr atch
Ġpsychiat rist
Ġconspir acy
Ġconvol uted
m akers
es is
ot te
ĠT ob
Ġnot ion
Ġch ances
ĠD erek
ist en
ick ing
Ġcl umsy
ip ment
Ġap olog
Ġsm oking
ane ously
Ġexp osed
Ġgra b
com p
sh i
?? ??
Ġintrodu ces
ma res
Ġcat ches
ĠMon ster
Ġtrad emark
Ġdepict s
war ming
Ġdescrib es
Ġhig hest
Ġexplos ion
Ġfil th
Ġbudd ies
' )
h s
r il
Ġf rench
Ġth ief
on er
Ġl ake
ch ild
ĠA cc
ir ts
ĠB urns
Ġcom ics
Ġcon ve
ci ating
Ġsp aces
Ġrec ru
ĠBr anagh
Ġdep ressed
Ġhope less
Ġprov oking
ĠGod father
Ġclim b
ĠJul ian
Ġporn o
Ġwitness ed
ĠSand ler
Ġsyn opsis
Ġsche me
" ...
S er
g reat
r un
u able
Ġp ays
Ġd ust
ĠT al
Ġst one
ĠB uck
ĠB ald
ĠP oint
Ġun sett
ep s
Ġfact ory
Ġthought ful
Ġmon ot
ĠSp ike
Ġfant as
ON G
Ġcountry side
Ġhonest y
Ġfat al
Ġsac rifice
Ġchore ography
Ġcab in
Ġblat ant
Ġpoet ry
Ġcha os
Ġmont age
C he
l an
Ġs arc
ĠC D
ĠD om
ĠJ eremy
ĠSh ir
ĠRob b
ĠMan hattan
Ġmis under
Ġpsych opath
Ġbuild ings
Ġodd ly
Ġsecret ary
Ġamount s
pro v
ĠCent ury
Ġimmense ly
ĠCind erella
Ġdoz ens
H igh
f oot
l a
p in
Ġw et
Ġo cean
Ġf art
at hetic
Ġc ats
Ġg all
ad get
ĠB ett
ĠD in
ĠF at
ĠN in
ci ence
Ġcl ic
Ġag reed
aw are
ĠSt ra
ru ciating
Ġcons istent
Ġinst ant
Ġcar n
Ġneg lect
Ġsymp ath
Ġest ate
Don ald
ĠGl over
ĠBoy s
Ġthank fully
Ġinnov ative
P S
U M
b ow
Ġ =
Ġm al
Ġm aid
Ġb es
Ġb one
ic ient
Ġn ause
ĠT R
ĠS ummer
Ġsh adows
ag ney
Ġv oy
ĠL ow
ĠJ ord
Ġup s
Ġim pe
Ġad oles
Ġag g
ction al
Ġclass ical
Ġexpl ored
Ġel im
ommend ed
ross ing
Ġequ ipment
Ġdam age
Ġsatisf ied
Ġbull ets
Ġprim ary
miss ion
ĠGirl s
Ġpupp et
Ġcas ual
Ġwrest ling
D r
S POILER
Ġt ires
is and
Ġm udd
or al
ĠI an
Ġe go
ĠT alk
ĠM i
ĠH ung
ĠR uth
ĠE ver
od ge
Ġen emies
Ġover t
Ġshort ly
Ġform s
Ġsn akes
Ġconst ructed
Ġru ins
Ġstri kes
ĠHam ilton
Ġblock buster
Ġunint entional
Ġconsist ently
Ġmiser able
uls ive
Ġcann ibal
Ġrobber y
ĠTurn er
ĠCurt is
ĠPrin cess
P lease
Ġt ame
Ġo w
ll o
ver ted
ad ine
ĠB ush
ĠB UT
ĠC ong
el ing
ol or
ĠF X
ci o
for ms
Ġgu itar
Ġbl ess
Ġpr ay
Ġmain tain
Ġcop ies
ĠMar io
Ġsmall er
ĠMy ers
Ġterror ists
Ġeight ies
Ġdesp air
Ġwra pped
Ġwann abe
Ġinvis ible
Ġe ars
Ġst ellar
ĠB ourne
ĠL um
ĠF alk
ĠG rey
Ġjust ify
Ġag rees
iz ations
Ġche ating
Ġrel ent
gg y
Ġ3 5
fin ed
sych o
rib ute
ĠDam me
Ġfinan cial
ĠVeg as
ĠFro st
L a
i our
l on
Ġw ine
Ġh ates
ĠC ox
ĠW AS
Ġsc ores
Ġex otic
Ġex hib
Ġun even
Ġwork ers
ens ions
the n
Ġinst r
Ġgl or
land s
Ġdet ect
Ġfail ing
Ġconvin cingly
Ġrespons ibility
Ġfool ed
Ġur ge
Ġburn ing
Ġdefe at
Ġarch ite
Ġpurch ase
Ġdynam ic
Ġirre le
plo itation
D an
b urn
m aster
Ġt ail
Ġp ale
ĠT rom
ĠM acy
ĠM artha
ĠH ack
Ġj azz
ĠE ventually
ight y
Ġlo ads
ĠCh ase
Ġaw e
Ġgr otes
Ġset tle
Ġcomp osed
ĠSh aw
Ġmon olog
Ġhome less
ĠUn less
oke y
Ġconsider able
Ġsimilar ities
Ġill ness
Ġut il
Ġkick ed
Ġsty les
Ġteach ing
Ġemphas is
ĠScar lett
Ġwebs ite
, ,
P eter
f le
Ġb oun
Ġin ane
Ġe ch
Ġre bell
ĠB ab
Ġsh ine
ĠP R
ĠL in
Ġun original
Ġend ings
per fect
az aki
wh ite
Ġroom s
Ġadv ise
Ġexplo it
Ġcru cial
ĠNor ris
ĠSteven s
Ġresemb lance
ĠEv a
Ġaltern ative
Ġbott le
ĠGRE AT
9 0
B ad
O r
g le
g ling
Ġt ank
Ġs outh
Ġd iamond
Ġg ro
Ġg est
le ading
ĠA part
ĠS yl
ĠS ullivan
ĠB ak
ĠB and
ĠC agney
Ġsu ited
ĠR ita
Ġpro ps
ĠE p
Ġshe lf
ass ed
ĠV iv
ĠU N
Ġres ur
Ġenjoy s
oss ibly
Ġuse ful
Ġexc ruciating
ival ent
Ġsurv ived
Ġregard less
Ġbene ath
ĠREA L
Ġhen ce
ĠWhe ther
ĠIntern ational
ĠFlor ida
Ġadequ ate
Ġalb um
Ġnerv ous
Ġs ab
ĠC old
ĠF all
Ġint im
ab out
Ġdis played
Ġus er
Ġbl ur
iz able
Ġnever theless
ĠSt ooges
Ġtra ined
Ġinst it
ok ed
Ġprom pt
Ġsil ence
Ġrecord ing
ĠPro fess
Ġcontr ary
Ġpassion ate
Ġaccompan ied
Will iam
Ġtransform ation
( ..
Ġd ys
Ġst abb
pe l
Ġpl ausible
ĠP y
ĠR E
ĠF ant
The se
ĠK er
ne red
Ġam use
Ġte nds
Ġhor rifying
ĠSt ate
Ġcons cious
ograp hed
Ġcra w
Ġmention ing
Ġtrans p
Ġsn ake
Ġcinemat ographer
ĠKe ith
Ġspec ifically
ĠMus lim
Ġvul gar
Ġw ig
Ġf o
Ġbe ars
Ġst ress
Ġan x
ĠS ay
ĠM ason
ĠC row
ck ing
ĠW ard
ant om
ĠP am
Ġor chest
ĠG and
au x
ĠN ice
Ġpart ly
Ġcharacter istic
ĠSt u
Ġdown hill
Ġcreat ivity
ann els
Ġlack l
Ġpain ted
Ġmaster ful
Ġpot entially
Ġble w
Ġarri ved
ĠAdam s
ĠEll i
ĠNic ole
ĠChild ren
Ġoverwhel ming
iffe rent
ĠGarb o
M any
b idden
Ġ [
Ġt aught
Ġs its
ie ve
ĠA w
am era
ĠS ong
ĠS ound
Ġex ter
Ġout s
pl ed
Ġcl iche
ĠHe y
Ġsub plots
ĠShe riff
Ġabs ent
Ġmon key
Ġdevelop ing
Ġtre es
Ġbrut ally
Ġpers u
Ġspl atter
Ġdisappe ared
Ġhide ous
Ġcompan ion
ĠFrancis co
Ġdinosaur s
bsolute ly
. .<
c ult
w ind
Ġa id
Ġl av
ĠT imes
Ġst ark
am ber
ĠS ing
ĠM ount
ĠD awn
ant ee
ĠR andy
ĠR oche
ĠL uck
ĠG os
Ġover rated
iz ard
Ġche ated
Ġhel pless
Ġport ion
ument ary
Ġfoc using
Ġprog resses
ĠStre isand
Ġdro ps
Ġdivor ce
ĠAlf red
Ġphilosoph ical
f ree
r ome
or i
Ġst aring
ce ived
ĠA my
ĠB us
ĠH ist
ĠD oll
ick er
ĠK r
te nds
Ġdirect s
Ġpart ies
Ġte a
Ġunder lying
Ġclass es
Ġdist ingu
Ġguess ed
Ġpar an
AR D
Ġcamp a
Ġwrit es
Ġuns atisf
ropri ately
worth y
Ġhen ch
ĠNichol son
Ġnostal gia
ĠMarg aret
Ġdeliber ately
onsider ing
Ġcitiz ens
" !
4 0
f unny
at tered
ou red
Ġh ouses
Ġd ating
Ġe ase
ĠM ade
ĠM eg
Ġch ased
ĠW id
ĠD irty
Ġj e
Ġdo ct
ant is
ĠG ib
Ġpre c
Ġad orable
Ġfl ies
Ġcont ained
ever al
iv able
Ġres ort
Ġcou ples
Ġstr ang
ks h
ows ki
Ġref lection
ĠDav ies
19 3
Ġhilarious ly
Ġ200 4
Ġpri v
head ed
cl ub
ĠGra ham
spect or
Ġast ron
ĠHam let
ĠStr ange
Ġtroub les
Ġadvert ising
Ġglass es
Ġjournal ist
Ġabys mal
Ġingred ients
ĠCassave tes
A ST
C an
g ate
re et
Ġw ished
at ics
Ġth umbs
ĠT erry
Ġhe at
oo by
ur ance
Ġsh ake
pe red
Ġint r
ĠN iro
Ġle ague
Ġup l
per a
Ġbl owing
Ġdes ired
Ġinter rupt
Ġtreat s
Ġill ogical
Ġgang sters
Ġpract ice
ĠYe ar
ĠYe ars
ĠGar field
Ġunderst ated
Ġformula ic
Ġproceed s
Ġearn ed
ĠCarr ie
Ġguest s
Ġliber al
Ġhelicop ter
Ġirrele vant
G o
f u
f aced
Ġt ad
Ġs ust
Ġs outhern
re r
re ll
Ġw ore
er ic
Ġe gg
Ġst ir
Ġst ilted
ĠA ge
ĠC uster
Ġch annels
Ġsee ks
Ġend ure
Ġpre tending
ont o
ph ant
ery l
ĠAt t
ug ust
ĠMc K
Ġmount ains
Ġtransl ation
Ġeduc ation
Ġfund ament
Ġexch ange
Ġvi br
Fr ank
ĠMiy azaki
Ġrive ting
ĠShir ley
ĠTrom a
9 9
H ouse
S pe
b ird
n ame
w as
ic ism
Ġwh im
ĠS P
th riller
Ġar c
ac ies
Ġpo etic
ĠShe en
ĠAs ide
Ġnight mares
ĠJust in
Ġsuggest ed
Ġcond itions
yl an
Ġsuit able
ĠRobin son
Ġpupp ets
Ġprinci pal
Ġrend ition
ĠRad io
ĠUl tim
Ġunsett ling
z ing
Ġf ought
Ġf ighter
ĠM TV
art s
est y
op les
ous ing
and on
Ġr am
Ġint imate
ang es
Ġatt itudes
Ġsince re
Ġsch lock
ier re
ĠMy stery
ric ia
ĠEd gar
ĠPr ot
Ġroll ed
Ġmat ches
cons cious
Ġguar antee
Ge orge
A ng
h uman
Ġs ung
Ġw is
Ġc e
Ġp ad
Ġd ivers
Ġy a
Ġli p
ĠM iles
ĠC ertainly
ĠH op
ĠH ills
Ġpl at
Ġal ter
qu el
ĠG ore
Ġtr ashy
ars on
li k
Ġalong side
ĠMar c
Ġpat ients
Ġinf erior
Ġsle aze
Ġund oubtedly
ĠEx cept
Ġembarrass ment
str ong
Be ing
ĠWat son
Ġfrustr ation
Ġborrow ed
Sec ond
ĠHust on
ĠCraw ford
ĠBald win
, <
I P
L ove
P h
p re
is ons
Ġm ile
Ġre ck
Ġy elling
ĠB ette
ff ic
Ġrec yc
Ġlaugh ably
Ġph rase
OR E
ĠPer ry
Ġavoid ed
Ġprison er
Ġdraw ing
Ġjo ined
Ġcorrupt ion
ĠCarr adine
ĠRem ember
Ġwound ed
ĠKarl off
b oth
p ion
p rise
Ġl un
ĠT own
Ġfor ty
ĠA bb
ĠB a
ĠB ible
Ġli ps
ĠR ating
Ġr itual
ĠN orm
Ġman kind
ĠK ap
are r
Ġrem ained
ĠBr onson
vent ure
Ġprom ises
Ġweak est
omp son
ĠNOT HING
ĠPr ice
ĠWood s
ĠBra zil
Ġcontr ad
ĠCor man
Ġmarket ing
Ġopt im
Ġrevolution ary
Ġconce ived
ĠTy ler
ĠLem mon
Ġinapp ropriate
Ġgrotes que
B as
N ever
l en
l am
Ġto pless
ĠT ry
ĠA ff
ĠS outhern
ĠB ow
ĠB uster
ĠR ead
ĠL ine
ĠL OT
ĠE li
ap ing
Ġad ul
Ġra ge
Ġcomp ens
Ġcomp aring
Ġposs ibilities
uff y
yp se
ys is
ĠEl vis
Ġtrail ers
Ġdim ensional
Ġcontem pl
Ġhint s
Ġmotiv ations
Ġens ues
Ġchalleng ing
Ġnin ja
ĠCast le
ocal ypse
hett i
char act
f an
h ile
m aker
in ers
Ġm und
or se
ĠT am
id y
ĠM as
ĠH an
ag ues
ast ically
ĠU nt
Ġco ast
ĠSp ain
Ġlow est
ĠSc ot
ĠSc ream
Ġbeh ave
ĠMar ion
Ġcapt uring
Ġbackground s
Ġcond em
TH ING
Ġremark ably
ĠDou g
ĠRo ad
Ġbelief s
plic ity
ixt ies
Ġincompet ent
ĠIra q
A LL
M e
d a
Ġ _
Ġt act
Ġs appy
Ġd ile
im agin
ur ai
ers h
ĠD aw
Ġpl od
ĠJ oy
ell ig
ob s
ĠV ar
Ġsl ave
Ġtri pe
Ġworld s
ĠTh ompson
ĠSp ir
Ġtrans ition
Ġsens es
Ġpurp oses
Ġclos est
Ġdesper ation
Ġleg it
Ġleg al
De ath
Ġwarm th
Ġhyp not
Ġfrequ ent
Ġcust om
Ġsurviv ors
Ġjew el
) ...
P ro
b orn
b reak
d is
es c
Ġp ushing
ĠA uss
ĠM iddle
ĠC a
ĠH oll
if i
Ġex quis
Ġal as
Ġout fit
Ġcon vent
ĠN obody
int s
Ġfl op
!! <
!! !<
Ġpr ide
Ġnew ly
Ġrel ation
ĠSh ort
Ġunderstand able
Ġwa ited
Ġpop s
che ck
eng ers
Ġauthor ity
Ġbuff s
Ġic on
ĠWat ers
Ar thur
ĠComm un
Ġflo ating
Ġreun ion
Ġnom ination
Ġbon us
ĠFel ix
Ġartific ial
r in
w ill
Ġ {
in ch
Ġf aster
Ġp ub
ar ity
Ġg h
Ġre n
se ct
ĠS et
ĠS upp
ĠW alt
if ully
ess a
ĠF ortunately
Ġsp oke
Ġaw hile
ĠAl i
Ġsim ult
Ġview ings
Ġtra vest
Ġbu ck
Ġcare ful
Ġgl oss
ĠNew man
AT E
Ġsol ution
Ġphot o
Ġpopular ity
Ġunex pl
Ġbehav iour
ĠJew s
Ġcand id
Ġvulner able
Ġpresum ably
Ġdys fun
1 5
c reen
Ġb anned
it able
Ġth ugs
ic eless
ĠS N
ri pp
ĠM orm
ĠL ive
Ġdis m
Ġfl ood
ens ical
Ġinst inct
ix on
Ġref uge
Ġ200 7
Ġclaim ed
Ġhy per
Ġfault s
Ġeat en
Ġminim um
Ġpurch ased
Ġswim ming
Ġnostal gic
ĠThrough out
Ġincor por
Ġhes it
Ġasse mb
D id
h ist
h um
Ġa ka
Ġc ode
ot o
al a
st age
ay ed
ĠD omin
un ts
ĠF inal
Ġint ric
Ġcon qu
ĠO p
Ġshow case
ĠK n
aw ful
Ġgr anted
Ġtri be
Ġperson s
ann on
Ġgl im
ĠLe igh
Ġequ ivalent
Ġappreci ation
over n
Ġclim actic
Ġund ert
Ġyes terday
Ġdepict ing
ĠCra ven
ĠJeff rey
Ġcompos er
onel iness
ĠBor is
Ġvague ly
aust roph
ĠBull ock
ĠPhill ip
Ġdre ary
Ġcampa ign
b ig
b ased
m ill
m ake
Ã ¨
Ġa est
Ġw ars
Ġw ishing
Ġb umbling
Ġc ens
Ġd irt
Ġin du
il ight
Ġmo de
Ġre in
ĠB ay
ĠC art
Ġat h
Ġsc ope
Ġdo d
Ġv ig
ĠL y
Ġgreat ness
Ġfun ction
cc er
ark er
ions hip
Ġperfor ms
Ġsuper hero
Ġpass able
ĠHar vey
sh ine
ĠGr anted
Ġeng age
Ġcur s
Ġcorrect ly
ĠKid s
ĠIm agine
Ġpit iful
iser ies
Ġsevent ies
Ġsaf ety
ĠPred ator
L ast
b et
d id
f ly
f ront
u ated
y re
Ġa pt
Ġc ake
ct ic
Ġwh is
ch a
ĠC ode
Ġsh od
ĠL ar
Ġcan cer
Ġar med
Ġpr iceless
Ġra bb
Ġmusic ians
ash a
Ġread s
Ġvers us
ĠDe ep
Ġph ony
ĠChrist ie
ĠIs ab
Ġwin ter
Ġfut uristic
Ġland s
Ġclever ly
erv ice
Ġhistor ically
Ġbed room
On ly
Ġarri val
ĠIr an
Ġfool ish
Ġsubst it
ĠVal ent
Ġseve re
Ġignor ant
Ġexecut ive
Ġeleg ant
ĠMarsh all
Ġtires ome
H is
Ġb aff
ĠS POILER
ro be
ĠW omen
act s
ag ain
est ed
Ġwor n
ĠR O
ĠR ings
Ġne p
Ġr ul
ĠF ish
ind ing
ack s
ook ie
Ġthr u
Ġte aches
pect ing
ĠV o
Ġmin iseries
ram er
ĠSp ock
ĠSc r
Ġrep ort
Ġref used
ĠWar ren
vol ution
Ġintrodu ce
ett es
Ġjud ging
ha ust
Ġdef ense
ĠHam mer
ĠFox x
ano ia
ĠPict ures
Ġtun es
ĠLat in
Ġgif ted
ĠJord an
H er
S ure
f ast
n umb
v ation
Ġa unt
Ġw ow
Ġf acing
Ġm ouse
Ġm useum
Ġc os
ĠA M
ĠA ctor
ld om
ĠD iv
ĠD ee
Ġr ude
fe rence
ind s
our ney
ac ity
ac les
urn ing
Ġsur g
az ing
oc aust
Ġrel atives
Ġlead ers
ret ched
ĠMc D
Ġpat ience
AR N
udd en
Ġincomp rehensible
ĠNY C
. (
I m
S ince
b u
e ff
g ers
re ens
Ġp onder
ĠA ugust
ĠH alf
Ġsc hed
ag hetti
ĠE ither
ĠK h
ap ers
ĠAs s
Ġlast ed
Ġsense less
Ġsecond ary
Ġdefin ed
Ġgener ations
Ġind ic
Ġval uable
Ġadapt ations
Ġ199 9
Ġtast es
Ġwild ly
Ġwand ering
ĠCharl otte
ĠVen ice
Ġcorpor ate
ĠCharact ers
Ġunh appy
prov oking
m un
o ad
o cc
Ġt ies
Ġo ri
Ġb ang
Ġl oneliness
Ġbe ll
Ġre ly
ĠW ag
ĠD ON
ĠP ick
ĠG us
ĠG OOD
Ġpro l
ĠE xt
ĠK l
Ġaw ake
ĠSt ars
iss y
Ġgl orious
ĠBl ade
Ġexp ressed
IN E
Ġsusp icious
Ġprom ised
Ġdan cers
ĠNight mare
ĠPro ject
Ġsatisf y
ĠSer ies
Ġ**** *
ĠRom ero
Ġpress ure
Ġintegr ity
Bra zil
Ġmund ane
1 2
B ig
H H
v ial
Ġf i
Ġm ax
en ch
Ġl am
ĠR anger
Ġr ush
ĠN ov
ĠN athan
od ile
Ġover acting
Ġpart ners
Ġfl ag
Ġra ises
Ġsound ing
de veloped
Ġac id
Ġsk ate
amp ed
ĠWell s
ĠHar old
ĠMc L
Ġconst ruction
Ġang st
OU S
Ġund en
Ġrock et
Ġprop erty
Ġrepres ented
ĠAnn ie
Ġdim ension
ĠSee ing
ĠEr nest
Ġalcohol ic
Ġrot ten
ĠNol an
Ġglob al
Ġtravest y
A li
I ST
d ra
h ar
t alk
Ġw arr
Ġm ate
Ġc ul
le x
ĠS aw
ĠS old
ĠS now
ĠThe ater
ro b
ĠC ool
Ġsh ameless
ĠP an
ĠP ay
ĠK ent
ĠK az
Ġcl austroph
Ġpre v
ens on
up ert
ĠTh us
Ġ3 000
ollow ing
Ġgl amor
ĠBe yond
ains aw
Ġheart breaking
ĠCon f
ush i
Ġlim its
ĠQu aid
Ġcompe lled
Ġexception ally
inn ie
Ġdiscover ing
ĠJes se
Ġstink s
Ġner d
Ġeduc ational
Watch ing
Ġmethod s
I F
g om
p o
p ol
he ars
Ġw ax
Ġl oos
ĠM Y
ĠD utch
ess ion
Ġcom mend
ĠP ink
ĠR ud
ĠL iz
ĠG iven
Ġme and
Ġtr oops
Ġres on
iss ion
li ed
rill iant
Ġrom p
Ġresult ing
ĠPl ot
Ġcompl aining
ĠNe ither
Ġcheck ed
Ġliter ature
ĠScott ish
Ġrece ives
Ġdisg race
Ġpack age
ĠBar ney
Ġdisappe ars
ĠSpace y
Ġhur ts
Ġappl aud
Ġeth nic
Ġdisli ked
M art
R ed
U E
u z
Ã ¶
it i
Ġd ances
Ġre el
Ġan aly
ĠA br
ro ck
ri en
ĠD ylan
Ġj er
Ġj aw
ĠR itter
ĠL one
Ġor phan
ĠG ere
ĠJ une
Ġun it
Ġen light
Ġqu it
Ġdis h
Ġwork er
ang el
Ġtri vial
ann ah
Ġrele ases
Ġmen ace
ĠSe a
Ġ200 3
Ġstraight forward
Ġcomb ine
Ġband s
Ġcatch y
ĠPart y
Ġtem per
J ul
in ity
in ations
Ġw ides
Ġh okey
om n
Ġmo ody
Ġst ale
et a
ĠS ab
ĠB R
ĠH omer
Ġch o
ĠW orth
if etime
Ġpl ight
ĠP in
ĠP ie
ĠR h
Ġun imagin
Ġent r
Ġrec over
Ġsm ell
Ġlet ters
ott a
Ġmess ed
ĠSe ven
Ġclose t
Ġmis ery
Ġpur s
Ġcent ers
Ġant agon
Ġage nda
Ġspir its
Ġ199 5
Ġconflict s
Ġreach ing
ĠCent ral
Ġmanipul ative
Ġchalleng ed
Ġhall uc
Ġactiv ities
Ġcig aret
onym ous
Ġwack y
ĠProfess or
A P
S I
z er
Ġf ingers
Ġd resses
Ġl ately
Ġan th
ĠS ave
ĠB ugs
ĠD uck
Ġv on
th m
op ic
Ġde af
ĠP ur
ĠR oth
ĠL ie
Ġr ant
ĠE is
ig o
ĠK yle
Ġtw in
Ġreal izing
ile y
ĠCh amp
Ġrec on
Ġri ot
Ġexpl oration
Ġhead ing
Ġed it
Ġvis ible
Ġhouse hold
ĠPet ers
Ġmist ress
Ġrespect ed
Ġquestion able
Ġbox ing
ĠQu ite
Ġfasc inated
ĠTim othy
ĠON LY
ruct ive
ĠEll en
Ġcounter part
ĠBern ard
Ġbetray al
ĠWid mark
lik able
gom ery
U ST
l ined
u ary
z illa
Ġs an
or ney
Ġin herent
ic able
Ġha bit
ĠH ugh
ĠW el
ĠD ig
Ġr oof
os ing
ĠK ay
Ġgr ass
Ġhum ble
Ġsm iling
Ġinv ited
Ġdifferent ly
Ġexper iments
Ġpar anoia
mp ire
Ġphot os
ĠPet e
ĠCon rad
Ġprem iere
uri es
ĠEx cellent
ĠAf ghan
yl um
ĠMur der
Ġobject s
Ġwide ly
Ġaccompl ish
Ġexperiment al
itiz en
ĠWor st
Ġseve rely
ĠTur kish
Ġresour ces
b one
j i
r r
Ġg reed
ot a
ĠA k
ĠW y
ĠD ec
Ġex haust
act ors
ol k
Ġr um
Ġor dered
ĠJ ol
Ġshow down
Ġcl oud
Ġpre ced
Ġam id
ĠThere fore
Ġsub l
Ġbas ket
dy s
Ġswe at
ĠPe ck
Ġland ing
Ġoccas ions
Ġmod est
Ġjump ed
Ġsqu are
Ġkick ing
ĠST AR
vir a
Ġcelebr ity
ĠSk ip
ĠVirgin ia
Av oid
ĠRoche ster
W r
r um
u eless
v i
Ġf og
ĠB ud
ĠM ake
Ġr ings
ĠE st
Ġcl ip
Ġqu otes
Ġaw fully
Ġsl ice
Ġche ss
iss a
li x
ane ous
uck er
Ġnight s
Ġvis its
Ġass igned
Ġdefin ition
Ġexcept ions
Ġval id
Ġbar gain
ĠAust in
Ġcatch ing
Ġcomplex ity
Ġobject ive
ĠInt erest
Ġenthusi asm
Ġpursu it
Ġexpos ition
Ġton ight
ĠClass ic
Ġdent ist
Ġsag a
Ġastron aut
I TH
J im
m us
he ll
Ġw olf
Ġm ish
en ger
ic idal
Ġe ats
ĠT an
ĠA aron
ĠM ajor
ĠC her
ain es
Ġab used
Ġab usive
ĠN BC
Ġun st
ĠE ye
Ġcl ock
Ġpe ak
Ġsim plicity
ĠJo el
ĠSh a
ug ene
gu y
go ers
Ġsecret ly
Ġsens ational
Ġtast eless
Ġment ions
Ġrob ots
ĠDra ke
ĠBer lin
AM E
ĠBarry more
ĠHart ley
Ġexcess ive
Ġsurf ing
ĠBeaut iful
Ġchoos es
ĠTit anic
ĠFurther more
Ġvenge ance
ĠGabr iel
Ġmudd led
Ġdoct ors
Ġupl ifting
ĠAuss ie
Ġsimult aneously
? '
A B
A W
H ollywood
Q ue
b i
r ows
Ġf ist
Ġb ite
ll i
Ġd ud
Ġl ic
Ġg am
Ġst ream
ĠS everal
ri ors
ĠM ah
ra vel
ĠC ore
ĠH onestly
ĠH eston
em esis
Ġint entionally
ĠG one
ĠE yes
ge on
ĠK in
ert o
urn ed
Ġdes ires
Ġcr ush
Ġob st
ĠCl ay
ĠCl aude
sh ow
Ġmyster ies
EN D
ĠCol onel
Ġtrack ing
ĠBet ter
ĠSar andon
Ġder anged
ĠMont gomery
Ġcompan ies
Ġcomplain ts
Ġalleg ed
heim er
Ġconserv ative
ĠBrook lyn
- )
M ur
d rama
f elt
h oe
m ons
w an
Ġt ent
Ġc ripp
an other
Ġin ability
br ow
ĠB IG
ĠM E
ul ations
ĠW ATCH
em ic
Ġr ates
ĠF arre
ind ul
Ġfe e
our ke
Ġreal m
we ar
Ġra il
Ġsim ilarly
Ġcomp rom
Ġvis iting
Ġdem ise
ĠCol in
ĠMart y
ĠEx p
ĠEn joy
Ġpun ishment
Ġprep are
ĠDick ens
ĠMag gie
Ġdeb ate
Ġcivil ization
Ġobl iv
Ġharm less
ĠSE E
Ġneighb ors
ĠBrid ges
ĠBett ie
ĠWag ner
Ġsubl ime
R ating
c ol
m atic
p ower
u ation
Ġt ang
Ġb ump
Ġd azz
Ġon line
Ġwas hed
ĠS ell
ro ad
ĠC ris
Ġsh if
ĠF isher
Ġun aware
Ġshow c
Ġpe oples
Ġgu ards
Ġaw a
ans ki
ĠSt ock
Ġ2 3
Ġmay hem
Ġins anity
Ġmusic ian
Ġbo om
als h
umb o
arent s
Ġdep ression
Ġexc l
ĠSc ooby
ĠCl aud
Ġbeh old
Ġret ired
Ġname ly
ĠCar men
Ġmis leading
rib utes
Ġpsych ic
Ġnarr ow
Ġcompl iment
upp ets
ĠSim p
ĠPat ricia
Ġmass es
Ġaccur ately
Ġaccur acy
Ġroll er
Ġjo ins
Ġwitness es
Ġbi ography
Ġnons ensical
ĠMag n
Ġchick en
ĠJud y
Ġfle e
Ġsne ak
Ġunivers al
ĠMach ine
Ġprecise ly
Tit le
ĠMi ike
Ġwis dom
Ġnep hew
ĠVo ight
E m
S im
d ies
h ot
n i
r ings
x ic
Ġc ities
Ġg ym
Ġ/> ***
Ġre nder
ĠH uman
Ġsh ips
ul ating
ĠW ong
Ġso ccer
ol ate
ĠG ame
ĠO s
Ġshe d
irst y
Ġcr ook
ĠTh under
Ġcre am
sp ir
ĠZ one
ĠLe o
Ġfem ales
Ġprot est
OU LD
Ġstun ned
pend ence
Ġimmedi ate
Ġsqu ad
Ġfashion ed
Ġrandom ly
ĠBel ushi
Ġlength y
ĠAp ril
ĠAnton io
Ġambig uous
ĠDal ton
Ġfantas ies
B en
c a
Ġt v
in ist
Ġw retched
ĠS oph
ers ed
act or
ĠF ive
ĠG re
ĠG ang
os is
ĠN aturally
ĠO R
Ġ- --
Ġdirect ions
Ġfl air
ber gh
ĠSh ah
Ġadd iction
Ġed ition
not ch
ĠHer o
Ġdoub ts
Ġadv anced
Ġbusiness man
Ġrese mble
Ġdesign s
Ġconcept s
Ġremark s
ĠJud ge
Ġconfront ation
Ġban al
ĠDian a
Ġimprove ment
Ġencou rage
ĠPhill ips
ĠRet urn
Ġsup reme
Ġshout ing
Su per
urpris ingly
ĠBlock buster
B est
S am
Y et
u ate
ra cy
ĠH at
Ġch icks
ĠD all
ist ol
and o
ĠO rigin
Ġno ises
ci p
ap able
Ġim itation
Ġrec re
ĠU r
Ġinterest s
Ġsm ugg
Ġinv ented
ĠSh ame
ĠTh ird
ĠBe an
Ġexp and
Ġpass engers
Ġcomed ians
cl aim
Ġrepe ating
Ġcirc le
Ġregard ed
Ġchore ographed
Ġrefer red
Ġpolic eman
Ġhipp ie
orc ist
ĠStud ios
Ġanal ysis
Ġgimm ick
Ġlackl uster
ĠHist ory
ĠSimp son
G u
b able
Ġd arn
Ġl ord
Ġst atic
am ount
Ġse ar
ĠM u
ill ian
ĠC omb
ĠW alsh
Ġsc reens
Ġde le
ĠL oy
ĠG le
Ġun le
Ġreal ised
ĠHe ad
Ġown ers
Ġapp ropriately
ĠSh ar
Ġass ign
ps ons
off s
Ġsurv iving
bl ood
Ġmach ines
Ġsed uct
Ġevol ution
Ġunp redictable
ĠCry stal
Ġstumb led
ĠHug hes
! '
! ,
I V
o qu
y o
Ġm ast
Ġg olf
Ġfor cing
ĠA h
ĠS F
ĠM eryl
ra in
Ġch at
Ġsu s
ag ement
ĠL as
pt ion
ab led
ĠV in
rap h
Ġgr ate
Ġdec or
ft en
Ġcomple ted
xt on
Ġrecommend ation
ph one
Ġdram at
Ġed gy
Ġexp ed
Ġlive ly
Ġdem ean
Ġtown s
ik er
mm m
Ġ200 2
ĠPe arl
ID S
Ġsubst ant
Ġsymbol ic
Ġbi ased
spe cial
Ġaltern ate
Ġlandsc apes
Ġlift ed
ĠUs ually
ĠWonder ful
Ġinteract ions
Ġsill iness
ĠâĢ ĵ
ĠRobb ins
ĠDaw son
) !
f illed
m ber
Ġ +
re he
Ġf urn
Ġc aut
Ġp ages
ic y
Ġn omin
ĠB enn
ĠM ind
ĠH OR
th rough
Ġde gr
ast ard
ort hern
Ġlo aded
Ġar ist
ĠSt all
Ġunder water
old en
Ġrest ored
.... ...
Ġnight club
Ġsk ull
Ġcount s
ĠHer z
Ġsubject ed
Ġsign ed
Ġve in
ĠAng els
Ġgem s
part icularly
Ġteacher s
pro bably
Ġquiet ly
Ġtack y
Ġdistribut ion
Ġcoinc idence
Ġinj ured
ĠRep ublic
Ġchap ter
Ġmotor cy
ĠCour t
F l
H A
M ovie
b ust
w yn
Ġm ap
an im
ut ers
Ġsh ares
Ġat roc
ĠD oc
ol er
ĠP ut
um ing
os ition
Ġun ravel
Ġcl ueless
ass y
Ġam used
Ġsp ring
ĠV era
ĠV alley
ĠIn ter
ĠJo ey
ney ed
Ġcreat or
ident ally
ĠCl ose
Ġgener ated
Ġgra iny
Ġportray als
ĠDon na
Ġz oom
Ġpar ad
Ġstra nded
vol ta
Ġpri ze
Ġcontro lled
Ġ197 2
Ġpositive ly
Ġmer its
ift ies
Ġprim itive
Ġsumm ar
ĠHarris on
Ġassum ed
Ġyell ow
Ġadop ted
ĠAst aire
Ġfianc Ã©
ĠStu art
ĠKap oor
Ġdysfun ctional
e em
k o
v ance
v oc
Ġa pe
he ld
ad dy
Ġst im
ĠS el
ĠThe at
Ġli bert
ĠM ild
ĠM olly
ĠH U
ĠW AY
ĠR ourke
ĠF ell
um ar
au er
od er
av ed
ish a
ip id
Ġent itled
ĠIn spector
Ġsl aughter
ĠU nd
Ġche es
ĠDVD s
Ġpol ished
atter ing
Ġcred ited
ony o
by e
Ġmor onic
Ġmurder ing
Ġpost ed
ĠTr ans
Ġfasc ination
Ġbrut ality
ĠRay mond
Ġaffair s
ĠFe ar
Ġsignific ance
ĠKenn eth
omed ay
ĠBeat ty
Ġignor ance
ĠEgypt ian
D ark
T W
b eth
m otion
er ness
Ġc her
en cer
ĠI F
Ġg or
Ġst er
ĠA D
ĠH ank
Ġact ive
ĠL or
Ġout ing
Ġno d
ĠV is
ĠV on
ĠV ol
Ġmin us
ĠU we
Ġche w
Ġadd ress
Ġconf idence
ĠChrist ians
Ġstrong est
Ġtrans formed
Ġste el
Ġfill er
ipp er
Ġdrink s
Ġlif eless
ĠRo oney
Ġrepresent ation
Ġfif ty
Ġrend ered
Ġemp athy
Ġdemonstr ates
mod ern
ĠRec ommended
Ġargu ably
Ġoblig atory
ibl ical
Ġdestro ying
Ġjudg ment
ĠCub a
ĠHind i
Ġpredecess or
ĠNatal ie
Ġfundament al
b ast
e ur
f et
l ins
z es
Ġ ~
Ġt unn
in ter
Ġthe rap
le ans
Ġn arc
ĠS op
ĠS hat
ĠB ed
Ġbut cher
ĠC y
ĠC rit
ĠH ick
if fer
ĠD ID
em et
ĠR ex
um in
ĠN ative
ĠO pera
oy le
Ġro ots
ost erous
ian a
ĠSt iller
Ġ2 2
Ġstart ling
Ġconf ir
Ġheart ed
ĠSe pt
Ġcor pses
Ġ9 9
oil ed
Ġprom inent
!" <
Ġliter ary
Ġlos ers
Ġoper ation
Ġhom es
Ġcirc us
ĠOther s
Ġexplo res
Ġinvestig ating
oop ers
Ġauthor ities
Ġindust rial
Ġder iv
ĠSal man
Ġincons istent
C R
g ian
l ay
m ain
w right
y our
at man
Ġe c
al i
ĠH arr
Ġsh ared
ĠD ance
ĠD ia
Ġwho lly
th ought
and al
Ġr ising
ĠF al
ĠF unny
Ġun likable
ple x
ne ath
Ġpre y
Ġcont aining
Ġcr ashes
ub by
Ġcons cience
ĠCl o
Ġsw allow
Ġsupport ed
rench ing
ĠIMD B
Ġunlike able
Ġamb ition
Ġopportun ities
war f
reg ard
Ġdro ve
Ġspec ies
ĠDu v
Ġprin cess
ĠWH Y
Ġgre edy
Ġchuck le
ĠLore n
ĠOliv ier
ĠNeed less
ĠLuck ily
Ġshod dy
Ġwides creen
ĠHerz og
E E
M AN
l ength
v als
y ll
Ġs ixties
Ġf ox
Ġm ute
Ġd reck
Ġl iners
Ġhe ars
ĠM uppet
Ġch oppy
art y
ast ed
ĠG ard
ĠN ap
Ġpr on
ĠAl m
Ġke en
Ġtri angle
Ġins ipid
Ġart ic
Ġdel icate
Ġmem or
ĠFor get
Ġgra bs
com ings
Ġwa ves
Ġmaster pieces
Ġdem ented
Ġprov ocative
ĠGer ald
Ġprof anity
EA SE
ĠSim mons
Ġthreat ens
Ġchalleng es
Ġhack neyed
Ġpuzz le
Ġloyal ty
Ġvent ure
Ġinaccur ate
ĠFriend s
1 6
d ead
h ind
p erson
Ġs or
is y
en berg
or us
Ġd ow
Ġd rill
Ġe g
ie ves
ĠS ara
Ġse ldom
ĠM os
ĠD EAD
Ġsu ms
Ġab du
Ġv ain
Ġv ice
Ġv ocal
Ġout fits
ĠG overn
ĠJ enny
ge ant
ĠCh ief
iz er
ip ed
Ġsomet ime
Ġgr ief
Ġown ed
Ġexce ed
co vered
Ġdel ic
Ġloc als
ĠMar ch
Ġhope lessly
vent ures
ĠLe gend
ĠSome how
Ġdev ices
Ġteam s
Ġrespect ive
Ġbar rel
Ġsens ual
ĠSim psons
bl own
Not hing
ĠCor b
Ġdescrib ing
Ġinsight ful
ĠNic ol
Ġreject ed
ĠHope fully
Ġdom estic
Ġincor rect
ĠTem ple
Ġdevast ating
ĠRee ves
ĠEri ka
Ġadoles cent
/ /
A b
N ew
V EN
c il
m et
r ating
Ġ .<
re ally
is k
nd rome
Ġm ummy
Ġl ush
ĠI ll
br id
ic olor
ce l
Ġse nding
ra h
ĠC ary
ĠC ze
Ġsh orter
Ġdo pe
ant ha
ĠP u
ĠG iant
Ġpro spect
Ġun su
ab h
ĠK itty
Ġtw ins
Ġbr ood
Ġshould er
ever ly
Ġco pe
Ġloc ated
ĠLe ague
Ġmor bid
Ġinf ant
ĠPer fect
Ġdifficult ies
Ġinsp ire
ĠRichard son
lor ia
Ġrout e
Ġscare crow
Ġenth r
Ġassass ination
Every thing
Ġscrew ed
Ġexpos ure
ĠBog art
ĠNichol as
ĠOff ice
Ġguar ante
Ġfulf ill
Ġpreach y
Ġhung ry
Pe ople
Ġrecyc led
Ġsurg ery
H or
I nd
m n
p ing
y et
Ġf ren
at i
Ġd un
ed ge
Ġl ens
ve ll
ro e
ĠB ox
ĠB eth
ĠC ook
el ic
ĠL up
ĠG h
ĠO uter
Ġpo em
ne ck
per haps
Ġrem ove
Ġshould ers
oc aly
ĠBr ady
its ch
ĠSh ould
Ġconf ident
ount y
Ġmar gin
Ġtop s
Ġheart warming
Ġref use
ĠWill ie
Ġmor als
Ġvict ory
head s
Ġmark ed
Ġmil k
Th ank
Ġcommun icate
Ġball s
Ġintern al
Ġfright ened
Ġknock ed
Ġprefer red
Ġpreview s
Ġfirm ly
Ġdece ased
ĠAcc ording
ĠUnt il
A G
D ead
b les
d aughter
d irected
l est
Ġw akes
Ġb ones
Ġh oot
ot al
ch i
Ġan s
ĠB ost
ĠC AN
ĠC opp
ĠC OM
ust in
ood oo
Ġchar ged
ĠE arl
ĠO t
ound ed
od der
ĠK now
ap se
Ġtw elve
igh ters
Ġche ek
Ġsupp ly
ash i
Ġexpl oring
Ġwar rior
ah am
Ġmind ed
Ġsing ers
het ically
gu ided
Ġconsider ably
ĠDan es
ĠCon ne
Ġpost ers
Ġ199 7
bb ie
ĠNight s
ĠDark ness
Ġdesert ed
Ġserv ant
Ġmat ched
Ġreflect s
tw o
ĠCare y
ĠMitch um
ksh ay
Ġsus pend
B ack
d ays
d irect
f ashion
p an
Ġw ing
Ġw oe
Ġb arb
Ġh itch
ll ie
Ġto ys
Ġp ill
ar se
il ation
et ing
gh ter
am iliar
ur ation
ĠH ogan
ĠW oo
ĠD ow
Ġab und
us p
Ġint ro
ci ously
Ġpe cul
Ġover long
Ġser ving
Ġbr at
Ġinv ites
ec hes
Ġshort comings
ĠBe ast
Ġstud ying
olog ically
use y
Ġpresent ing
ĠSam uel
Ġble ed
Ġ196 8
ĠCra zy
Ġprep osterous
Ġdim in
Ġunexpected ly
Ġge nder
Ġopt ion
Ġpet ty
Ġimagin able
elve t
ĠCru ise
ĠKurt z
ĠMU ST
Ġrhy thm
Ġcontrad ict
Ġderiv ative
E AR
J ean
J oe
M ore
P r
b ar
c reat
e or
f lu
r uns
s ay
Ġ ....
Ġb reed
at oes
Ġp ie
ch or
ĠS ix
ĠC ut
ĠC arly
ĠC ON
Ġpl ag
ag le
ĠP rest
ĠL ifetime
Ġr ational
ĠJ os
pt on
are st
ĠSt orm
Ġview point
Ġcomp uters
Ġread er
ov a
ative ly
ins ki
play ing
Ġcontin ually
Ġfill ing
work ing
St r
ĠMon ty
Ġhistor ic
Ġconv iction
Ġcruel ty
Ġbird s
Ġdemand ing
Ġcaric ature
ĠBros nan
ĠHy de
Ġward robe
Ġath let
dys sey
O Y
R ock
b ot
b uck
e f
h o
Ġw ander
Ġm ates
at ured
or ters
Ġp ump
ar ious
Ġn iece
ĠA F
ĠA unt
Ġse lection
ur st
Ġwe ather
Ġsh red
Ġch ronic
ain ted
Ġso ci
Ġv ign
ĠP ig
ĠR ent
ĠL ance
ĠL ily
Ġshe ll
ick en
Ġsp an
Ġfl am
Ġfl ashes
Ġsl ip
Ġown s
Ġlast ing
Ġunderstand s
ĠBl ond
ĠSc reen
Ġheart felt
Ġblack mail
Ġhero in
Ġdri ft
gu in
Ġdeal er
Ġsol o
**** *
ĠRich ards
Ġ198 3
Ġemb ark
Ġdesign er
Ġwild erness
Ġaddition al
Ġsurround ings
ĠWW E
Ġhyp oc
Ġresol ved
ĠMont ana
Ġemer ges
ĠPort ug
ĠDun ne
ĠAmaz on
Ġweakness es
Ġinexplic ably
Ġacclaim ed
Ġspaces hip
ĠScot land
Ġunexpl ained
D is
R Y
e vil
h aw
p res
w est
y ard
Ġ x
Ġb ars
at able
on ce
Ġg arden
ĠT W
Ġst are
ĠS ide
ĠM ol
ĠC ushing
ĠH o
ĠF IL
ĠE astern
Ġle ather
ĠK N
ĠK le
Ġdis ast
cc a
get ic
ĠAl iens
Ġins ists
ĠWh it
ER T
Ġgl oom
ĠCl ar
ĠMar x
ĠZ ero
com ed
Ġcol on
Ġsoon er
ĠEvery body
wr iting
Wh ich
Ġident ical
ĠFl ash
ĠGold berg
Ġvirt ual
ĠIre ne
Ġdestro ys
ĠWOR ST
ĠGib son
fet ched
emet ery
ĠCze ch
S orry
W ar
n ormal
Ġs que
re c
Ġb read
it abh
Ġp ushes
ĠA ction
ur g
ĠM am
ĠC el
ĠC ab
ĠC onsidering
ĠH ilton
Ġsh aky
Ġch ills
Ġv ital
ĠR id
Ġr ises
ĠF ool
res pect
Ġun seen
ĠE mpire
Ġwhat s
Ġro pe
ĠV ince
ĠHe nd
Ġent ered
Ġref ers
yp sy
AT H
Ġpsych ology
lo ad
Ġhost age
ĠDen zel
ĠKid man
Ġpainting s
== ==
ĠNet work
Ġrapid ly
Que en
ĠClo oney
ocaly ptic
: //
P ol
g ren
p es
it ated
ar o
ic o
Ġ/> --
ĠT ak
ĠT ele
Ġre vers
Ġre bel
ad ly
Ġst ages
id o
Ġas ylum
ĠA bsolutely
ĠB ased
ĠM ust
ĠM ess
ĠW ITH
ĠD ud
Ġsu cc
act ory
Ġr ides
ĠG ot
Ġme as
ĠO ct
ĠO UT
ĠK ings
Ġper man
ob by
Ġfl uff
ans as
Ġgr ay
Ġyoung est
Ġstr angers
Ġep it
Ġinter rog
ĠBe ach
Ġcent ered
Ġmor ally
AN G
Ġstru ct
ĠOr leans
Ġdest iny
Ġsubt ly
Ġfilmm aking
Ġair port
Ġrespect able
Ġplan es
back s
Ġ197 9
Ġaccept ance
OU R
Ġid ol
ĠSim ply
Ġment ality
Ġtest ament
ĠSure ly
Ġdisgust ed
Bl ood
Ġstret ched
ĠTer ror
ĠHay es
ĠColumb ia
ĠRun ner
ĠUp on
tt p
Ġsket ch
Ġsuburb an
Ġreluct ant
Ġstead y
ĠCow boy
Ġamuse ment
Ġvibr ant
hoe ven
ĠMild red
d ed
o vers
w er
Ġo min
Ġf ur
Ġl unch
ch air
ke es
Ġse am
ĠB attle
ĠB usey
ĠM ort
Ġsh aking
ul ent
ĠW ish
ĠD anger
Ġdo se
Ġab st
ĠP fe
ĠR at
ĠR upert
ĠL ight
ĠF ra
ĠG ray
ard om
ort ions
Ġun m
ĠK athy
Ġpo ker
ĠV elvet
Ġafter ward
Ġbr own
ru p
Ġgr in
Ġnew com
icul ty
Ġvis ited
Ġtop ics
Ġschool s
ĠMy r
Ġthrill ed
che ster
ĠCon an
Ġrespect ively
Ġsurv ives
bo at
Ġprogram me
Ġstreng ths
ĠWestern s
Ġcal iber
ĠDam on
ĠDaniel s
Ġdisgu ise
Ġelev ator
Ġdiff iculty
ĠSN L
B ill
D VD
b ie
b ound
re ction
er man
Ġm ort
ion i
ĠA RE
un less
ast ing
ĠG ay
ĠG inger
ack ing
ĠO dd
Ġscen ar
pl aced
Ġpart ially
Ġrem akes
Ġbr ide
ĠSt upid
Ġatt orney
ail ing
ĠAl one
Ġtra its
oc racy
Ġstr ings
Ġaud ition
ĠTh or
Ġsk its
Ġmar ries
yp ical
ĠEd ge
Ġmot ive
Ġair plane
Ġeng rossing
Th ree
Ġcond uct
Ġdro pping
Ġabsurd ity
Ġdiscuss ing
Ġemploy ed
ĠHay worth
ym our
ĠThank fully
Ġinevit ably
Ġhealth y
Ġuniform ly
ĠPa xton
mitted ly
ibl ings
Ġtempt ed
Ġinfect ed
Ġasp iring
Ġadmitted ly
ĠDill on
Ġconve ys
ĠBak shi
ĠCopp ola
Ġpecul iar
D ER
I ES
M ad
R ay
U D
a cious
c op
d an
g iving
Ã ³
in ator
ar ate
Ġd uck
Ġd ressing
ĠI V
le ck
Ġre hears
ce nds
ĠA wards
ĠS weet
Ġha pless
ĠB arker
Ġsh aring
Ġsh oe
Ġch ron
Ġv oted
Ġde pend
ĠP oe
Ġne ur
ĠL ed
ĠL ess
ind u
ĠN ik
ĠE ugene
Ġen ig
Ġaw aken
Ġri pping
ath on
Ġcast s
Ġexpect s
Ġhelp ful
Ġvis ions
amp oon
Ġass ured
Ġcra zed
Ġmis guided
Ġhilar ity
uc ci
ĠGod zilla
Ġevent ual
OO OO
bl ah
Ġbomb s
Ġsto res
itz er
AC E
Ġsepar ated
ugg ing
ĠRus so
Ġla unch
ĠTer rible
Ġkiss ing
Ġconnect ions
ĠWild er
ĠVer hoeven
ww w
ĠCare ll
Ġcance led
ĠTru ly
Ġexquis ite
Ġconvent ions
Ġcens ors
, (
P ER
S l
b ul
d ep
f ish
h ole
n amed
o ard
t ick
Ġs ale
Ġw ives
Ġf uel
Ġc attle
Ġl ux
Ġn ick
ĠS hy
ĠB ert
ĠC ard
ĠH ans
Ġj arring
Ġv oc
ĠP ost
qu in
um n
ĠG O
ĠG entle
ĠG OD
Ġun related
ass ing
Ġad vers
own ed
Ġbl ues
be aring
Ġspe eches
ffect s
ew orthy
ord ers
Ġco ff
Ġrep orted
Ġmess y
Ġreg ards
OT H
Ġhuge ly
ĠEl vira
Ġlaw s
ĠQu entin
ĠGl ob
Ġuns us
ĠChristian ity
Ġsto pping
ĠPal ma
ĠWH AT
Ġjeal ousy
Ġbab ys
ĠCost ello
Ġped est
Ġarchite ct
Ġclaustroph obic
Ġdele ted
G H
J ane
L ittle
M on
d ate
g io
g ency
o is
v as
Ġm ac
at ement
Ġp ulp
ic ian
Ġn atives
al most
ri o
ĠM ain
ĠC os
ĠH ep
ĠD y
ĠR ush
ĠL und
ĠF ast
fe ld
Ġun imp
ge nds
ĠV iew
ens en
Ġra cing
Ġset up
Ġcam c
Ġhand ling
ane y
ract ive
Ġret ire
ĠSe ymour
ming er
Ġprom ote
ĠOr son
Ġunc ertain
Ġforg iven
Ġattack ing
ĠTra volta
Ġrece iving
Ġstick ing
ĠEm peror
ĠBel a
Ġkidn apping
Ġlay ers
Ġcow ard
ĠDem ons
ĠRon ald
Ġstumb les
ĠOliv ia
Ġflu id
Ġingen ious
Ġprejud ice
Ye ah
ĠHop kins
ĠPfe iffer
A nt
F E
F ilm
P at
er ve
Ġf iring
Ġm afia
ou ra
on ent
Ġto oth
Ġbe w
ĠS oul
her d
ra nd
Ġall ey
th on
ist ed
Ġr anch
Ġher s
ne ar
Ġthr ust
Ġbl ink
ĠV iol
Ġspe cially
Ġunder m
Ġri fle
Ġra ces
Ġcou ch
Ġsub mar
Ġter rified
Ġinv asion
most ly
co pe
isod e
Ġstand out
ĠSp ider
Ġav id
Ġmor on
Ġmed ic
Ġinf o
Ġconst it
Ġbreak down
Ġpleas ing
Ġ199 6
Ġrecogn izable
Ġstat ue
Ġmach o
aff y
Ġpun ches
Ġmir ac
Ġaccount s
ĠWin ters
Ġearn est
ĠSn ipes
Ġredu nd
ĠMil o
Ġvast ly
Ġcontribut ion
ĠDet ective
ĠArm strong
Ġmechan ical
dri ven
Ġinstr ument
ĠAfghan istan
Ġarist ocr
ĠDuv all
Ġans wered
ĠFIL M
L u
L ife
m el
Ġt ap
Ġw ire
Ġf ade
Ġm all
Ġd well
al ong
ut ton
il ess
ly mp
ĠB in
Ġ( '
ĠW right
Ġj aded
Ġact ivity
Ġv o
Ġv ary
Ġout law
ĠF ans
ap id
Ġqu e
Ġsl ut
Ġcont empt
Ġmin s
Ġcomp rehe
Ġsm iles
Ġhand les
Ġlast s
Ġgl owing
sy mp
ork y
ĠChrist ina
Ġind ication
Ġcoll aps
Ġmis fortun
Ġdeser ving
Ch ris
ĠSch ne
ĠRuss ians
ĠAle c
Ġclaim ing
Ġdepth s
Ġmass acre
Ġrad ical
Ġcompet e
ĠIr ons
Ġsav age
Ġast ounding
Ġdefe ated
Ġspectac le
Ġcelebr ation
ĠCarl os
ĠLam bert
Ġcris p
ĠSav age
Ġrestra ined
Ġbefriend s
Ġadmir able
Ġskate board
Ġexped ition
ĠStall one
ĠDia z
" <
C M
C ol
K ing
M at
f ig
Ġt ab
Ġs ou
Ġf oil
Ġh ides
Ġto mb
Ġp ione
Ġd ates
ĠT ok
ĠS andy
ĠB ottom
ĠM ey
ter y
ĠC and
ul se
Ġsc rap
ĠL oc
ĠF oot
ĠJ ill
Ġjust ified
ard o
ĠN iel
ĠE yre
Ġup st
ĠO llie
ĠK line
ĠK ey
iz oph
Ġent ering
Ġpr ince
Ġunder neath
Ġbu gs
ov sky
ont i
ĠNot e
Ġret ros
Ġpass age
Ġfem me
Ġfa br
Ġdesc ent
ĠSam antha
Ġwait ress
Ġ199 3
ĠBoy le
Ġball et
Ġhang s
win ning
Any one
Ġham my
gen re
Ġblat antly
Ġautom atically
Ġabrupt ly
ĠShat ner
ĠDow ney
ĠPrest on
1 7
1 00
I RE
L es
d em
f r
g t
g les
o en
Ġt aped
Ġp ink
om ber
Ġn urs
ĠA R
ĠL ange
ĠF an
Ġup side
ci le
Ġag ency
ors ese
Ġgi allo
Ġfact ors
Ġbit ch
Ġins pect
de al
ah a
ĠDe bbie
ĠSc or
Ġblack s
Ġpain ter
Ġreg ion
Ġroom mate
Ġ197 1
Ġ198 4
Ġwit ches
Ġpublic ity
bor g
Ġimm ortal
ĠBra in
ĠAct ress
Ġ196 9
ID E
Ġener getic
With out
Ġdrag on
produ ction
Ġhomosexual ity
ĠTor onto
ĠBeaut y
Ġanticip ation
ĠBac on
Ġcroc odile
ĠSyd ney
Ġslim y
ĠDom ino
Ġtact ics
Ġbasket ball
ĠSell ers
Ġmotorcy cle
Ġguarante ed
izoph ren
' '
D S
T er
g as
g id
h ilar
k ill
m uch
m ary
Ġt urd
in ction
Ġs omeday
Ġm ales
Ġc oc
ar ters
Ġg ambling
ut ions
ĠT oy
Ġfor med
ĠS way
ĠB ird
ĠB unny
Ġab oard
ĠP owers
ĠL eland
qu ette
ĠG able
ĠJ a
ĠJ ar
Ġun att
ĠK ramer
ĠV ill
Ġback wards
Ġ19 20
Ġmay or
Ġcou pled
ub ble
Ġrest rict
iter ally
Ġcomm its
Ġass ure
Ġcomment ing
Ġunc ons
ĠAm ong
Ġaccept s
Ġsuggest ion
Ġappro aches
Ġimm ature
Ġrecord s
Ġrequ est
Ġmel anch
Ġmid night
Ġcross ing
Ġla un
Ġner ves
Ġsitcom s
ĠUnivers ity
Ġgentle man
ĠBeat les
Ġcaric atures
ĠGreg ory
Ġinhabit ants
Ġdile mma
ĠSept ember
1 8
c at
c ool
d est
Ġt ip
Ġa er
Ġs iblings
Ġo l
Ġp ant
Ġd uration
Ġg ained
Ġn ails
st an
ie val
ter ing
ĠH aines
out hed
art hy
ĠL ena
Ġout right
ĠF ace
ĠF ont
ĠF inn
ĠG ret
Ġpro ving
Ġqu arter
Ġro oting
ep ers
ob er
Ġrem ade
Ġinc idents
Ġneed less
Ġsince rely
not e
Ġass ert
Ġdefin itive
ĠZ e
enn a
light s
Ġminor ity
pro fess
ĠPol anski
ĠRam bo
ĠCo hen
Ġrefer ring
ĠEnter tain
Ġsho pping
ĠWere wolf
Ġdepe nds
ĠTechn icolor
Ġfro zen
ĠNov ak
> >
M A
R ec
d ram
i ably
p ost
t ta
z zy
Ġm ail
or ient
ou ge
Ġp enn
Ġl ion
om ing
Ġbe lly
ad or
se xual
ĠA IDS
ĠS OME
ĠC L
Ġfr ames
Ġk udos
Ġv otes
ĠP ulp
ĠP iper
ĠP onyo
Ġwor ship
ĠR el
ĠJ od
Ġme al
Ġ' '
ĠFr ances
Ġbo asts
Ġ10 1
Ġgl ance
Ġgl ued
ax y
Ġexam ination
Ġbudget s
OR Y
Ġcomb ines
Ġsuit ably
Ġapproach ing
ĠMore over
ĠSecond ly
Pl an
Ġtoler able
Ġassum ing
Ġaddict ed
ĠPri vate
Ġtoss ed
Ġlimit ations
Ġsatir ical
Ser iously
Ġsarc astic
charact er
Ġdisast rous
B ottom
B ecause
N A
b est
h as
p a
st in
ie g
am o
ĠB am
ĠB everly
ĠC ou
ĠH um
us ively
Ġv en
Ġv omit
ĠP le
ĠP ix
ist y
ĠL iv
ĠF un
ab by
ink y
Ġdis in
Ġad vis
gin s
Ġsp ree
ĠV isc
Ġback s
Ġunder wear
ĠU P
ĠAl ive
ĠJo h
ĠShe ll
Ġco at
Ġentire ty
Ġrep orts
Ġtrans pl
Ġdem onic
Ġsusp ension
Ġspir ited
Ġmet eor
Ġer ror
ĠMe nd
Ġpract ical
Ġthreat ened
Ġoffe nd
ĠVictor ian
Ġpil ots
Ġmir acle
Ġbi opic
ĠEv ans
Ġtransl ated
Ġemer ge
mo ving
Ġlink ed
ĠTod ay
ĠWr iter
ĠJac ob
Ġwand ers
ĠAmaz ing
ĠWend y
Ġdub ious
Ġpatter n
ĠHep burn
Ġcamc order
G et
b ourne
d ig
h art
u ber
Ġc ro
es que
or ous
Ġh arr
Ġh ollow
Ġst ardom
ke eper
ĠA S
ĠS a
ĠS udden
ĠB S
ĠB oo
ĠB ug
ĠH K
ul ously
Ġfr amed
ĠL ib
Ġout er
Ġint entional
qu ire
Ġun em
Ġfe ast
Ġdis ci
Ġtri als
ank y
Ġco hes
ex ter
ĠÂ ĳ
sh ock
Ġcult ures
ĠGr udge
Ġ197 3
Ġ198 2
Ġwind ows
Ġinform ative
Ġprogram s
Ġcontinu ing
ĠMac beth
ĠSand ers
Ġdepart ure
Ġic onic
ĠInc red
Ġfemin ist
Ġphenomen on
Ġfortun ate
Ġdiver se
Ġmesmer izing
Ġrebell ious
Ġexter ior
ĠTheat re
fashion ed
Ġunsus pecting
! ".
1 4
h igh
h ave
w ide
Ġt rop
Ġf ishing
Ġh ust
Ġin just
Ġin formed
ic er
Ġg lee
st ru
il ia
Ġst airs
ro it
ĠB ard
ĠM ath
ĠM ask
Ġsh ining
ĠD oo
un ks
pp ers
ĠP oll
ĠF ay
ort ant
Ġany ways
Ġcl in
Ġcl one
te c
Ġpe e
Ġcharacter izations
Ġsp ine
Ġfl im
Ġfl ashy
Ġunder world
Ġres idents
Ġra ve
ĠAs ia
Ġexpect ation
ition ally
sc ar
Ġmon ument
ĠSp encer
ĠSc orsese
att on
Ġexp ose
Ġexp ense
IN K
Ġreg ularly
Ġinf lict
Ġconsider ation
Ġconvin ces
Ġinsp ir
Ġsens ible
ĠEx orcist
Ġaut obi
Ġmanner isms
Ġstunning ly
Ġresc ued
ĠLau ren
Ġdesp icable
ĠFull er
Christ opher
ĠCann es
ograph ical
Ġech o
Ġpriv ile
ĠSpir it
Ġcho pped
ĠFarre ll
" :
T F
T ake
f irst
g ener
s n
w ic
Ġ !!
Ġt apes
Ġm asc
Ġb illed
at um
or ia
as se
Ġn it
Ġn aught
ĠT IM
ĠA way
ir lfriend
ĠC op
ĠH ulk
op ard
ĠP C
ĠP ose
Ġne o
Ġcon j
ĠG ate
os al
ard ieu
Ġle nd
Ġgood s
od a
Ġend lessly
Ġpre tends
Ġad just
av in
Ġsp ont
Ġfl es
Ġcont ribute
Ġcr ashing
Ġsub text
Ġscreen writers
ĠBr on
ros awa
Ġcop ied
Ġstud ied
ĠSe bast
ĠNew s
ik es
ĠEd ie
Ġsle e
ĠGr inch
Ġ197 8
Ġ198 8
Ġdecided ly
Ġmix ing
Ġappro ached
ĠMon roe
RE E
Ġcolle agues
su per
ĠHor rible
Ġmer cy
Ġsqu ee
Ġleg acy
IT Y
?! ?!
Ġimpl ied
Un like
Ġclean ing
Ġtend ency
Ġner ve
Ġconfront ed
ĠCass idy
Ġprinci p
Ġenthusi astic
Ġbab ies
girl s
Ġreward ing
Ġadop t
ĠNol te
Ġconven iently
Ġconvict ed
Ġphenomen al
Ġpolitic ians
Ġiron ically
Ġconclud e
ĠCase y
Too le
Ġbes ide
ĠBost on
. ),
b on
c ar
c ript
c het
c ules
d oor
d oes
f are
Ġw ounds
Ġb ent
at hing
Ġc emetery
Ġh ires
an gh
Ġp omp
Ġl ing
Ġst umble
id an
ĠA ven
ĠS oder
Ġbut ler
ĠC ross
ĠC ron
pe ople
ant on
Ġv ile
ol t
ĠR hett
Ġout line
Ġr ug
um ming
ĠG all
ĠJ ed
ĠE than
Ġgo als
ick y
Ġdis mal
Ġdis abled
av ia
Ġreal ization
Ġhor ny
Ġsl ack
Ġche e
Ġtra ce
oc key
Ġfar mer
Ġmon keys
Ġfather s
Ġrep ulsive
Ġret rie
ĠRe volution
ĠÂ £
ĠÂ ħ
sh adow
ĠGer ard
ĠJust ice
Ġang els
Ġunc ut
Ġrespect s
Ġer r
ĠTw ilight
Ġest r
Ġaffect s
ĠLes ter
Ġfif th
RI BLE
Ġcontrovers y
Ġauthentic ity
produ ced
Ne xt
Ġcook ing
ĠAnton ioni
Ġtremend ously
Ġconcent rate
ĠBon nie
Ġisol ation
Ġmas ks
ĠDirect ion
Ġclic hes
Ġintric ate
B oy
H O
b ly
d am
l ord
m ad
v ability
Ġf aint
Ġc age
Ġh uh
Ġin sec
ur ous
ur ring
ĠM all
ĠH ou
Ġat tended
ĠD est
Ġj et
Ġdo om
ol ved
Ġr ats
ĠJ uly
ĠN a
ĠN aked
od ox
ĠK iss
ĠK umar
ays on
Ġpre quel
be fore
Ġold est
Ġdec ap
Ġsm ug
arr ot
Ġac ademy
not hing
ĠSc ary
ĠChrist ine
gu ard
che ek
Ġair craft
Ġremind er
Ġbel t
Ġporn ography
Ġ193 9
AS S
ĠAg ent
abb it
Ġham mer
Ġden y
ĠEr rol
ĠPal ance
Ġfund ing
bur ne
ĠPre minger
ran os
Ġcommit ment
Ġenh anced
ĠFR OM
Ġstro ke
Ġsympath ize
Ġresur rect
Ġunsatisf ying
ĠMorm on
Ġgrate ful
Ġnomin ations
bust ers
Ġpron oun
Ġmisfortun e
! ?
F UL
O ur
T Y
b ach
h al
l iest
m ers
s ub
Ġf ierce
Ġb iol
Ġb ulk
Ġc ue
Ġc urt
Ġh ij
Ġp als
Ġd rew
Ġwas h
Ġy ard
ĠW R
act ually
Ġal tered
ĠL ans
qu er
ard less
Ġpro s
Ġqu ant
int age
Ġdis regard
Ġseem ing
cc o
ĠV augh
vers ion
Ġinc apable
Ġmus c
Ġread ers
Ġart work
ĠRe agan
Ġcra z
ĠZ h
het to
Ġpos ing
ield ing
Ġ198 1
!) <
OU N
?" <
ĠPar amount
kn ow
Ġdoll s
Ġcritic ize
Ġ194 5
ĠHol ocaust
Ġescap ing
Ġmedioc r
Ġmouth s
Ġyouth ful
ĠMaster s
Ġvehic les
bur g
ĠCle arly
Ġpursu ed
Ġdemonstr ate
ĠPort man
Ġdisgu ised
Ġconven ient
ĠAtl antis
Ġselect ed
Ġfianc Ã©e
ĠKa hn
Ġpsy ched
ĠGil bert
Ġpubl ished
ĠGand hi
Ġparan oid
Ġvig il
ĠValent ine
ĠDall as
ĠBenn ett
Ġbrood ing
Ġabst ract
symp athetic
! ",
) ?
D ra
F inal
G l
M uch
d oc
r idden
u v
w itted
Ġb ike
at ile
es ar
es se
Ġp imp
as i
Ġl oop
ic ia
ut en
st ood
Ġit ems
ve re
ĠT CM
ĠA CT
Ġha voc
ĠB rilliant
ĠM ing
ĠM ouse
ĠM alt
ĠC ob
em pl
Ġfr uit
Ġso rely
ag s
ĠP ierce
ĠL im
ĠL ives
ĠF ree
ud ed
Ġman if
ĠK ansas
are ly
Ġover bearing
Ġad ore
Ġus ers
Ġbl unt
Ġhor rified
Ġins uff
oot s
Ġhand ic
Ġinter ior
Ġcomm ander
Ġremem bers
Ġsw itched
oul ies
Ġquestion ing
Ġaccept ing
ĠTr ust
Th ose
Ġliter al
Ġcartoon ish
ĠTra il
ĠBra vo
Ġdelight fully
Ġfat ale
ĠMel ville
Ġprep aring
ĠBel ieve
ĠGar land
IC K
Ġpossess ion
Ġgrow th
ĠMcC oy
Ġsell s
Ġpath os
Ġtour ist
Ġge ar
Ġtransl ate
uk h
Ġcrack ing
ĠZomb ies
Ġneat ly
ĠComp any
Ġunivers ity
ĠMod esty
Ġchoos ing
ĠBrend a
Ġinstit ution
Ġstabb ed
ĠMount ain
Ġunimagin ative
indul gent
Ġomin ous
Ġcomprehe nd
ĠSway ze
stin ov
ĠVisc onti
M en
P P
R et
l ucky
Ġw ider
Ġc ries
Ġto ken
Ġp ic
ot ional
ut ive
ve t
ow ed
im um
Ġse edy
ess ed
act ive
ĠL ogan
Ġor g
ĠN on
Ġen chant
pl ing
Ġper ception
our ing
Ġpo le
ass ic
ish op
ru g
Ġra iny
Ġlong ing
Ġapp ly
Ġart sy
Ġdel icious
ĠCl ive
Ġhouse wife
Ġreg ister
Ġprom oted
ĠDan ish
Ġdisc ern
Ġdest ined
Ġund ead
Ġappro x
erm it
onic a
Ġdelight ed
Ġexplo its
ĠLou ise
ĠST ILL
Ġobsess ive
IT E
Ġpra ised
ĠLau rence
ĠWH O
Ġsafe ly
Ġscar iest
ĠEnter prise
Ġcontribut ed
Ġdivor ced
ĠHA VE
Ġdeliber ate
ĠRic ci
Ġdepe nding
ĠPot ter
idel ity
Ġexplod ing
Ġsuspic ion
ĠElli ott
A LLY
M ark
N OT
O ut
d in
f man
f lix
l ake
m ath
m und
Ġt ire
Ġf ires
Ġf reaking
Ġf ifties
Ġb ul
Ġb ully
Ġb ald
Ġb ounty
as per
le ased
ent al
Ġwas tes
am i
am med
ĠB le
ĠM ob
ĠM oe
ĠC BS
ĠH ir
ĠH app
ĠW ait
ĠD ixon
Ġj ock
Ġwho les
ĠP ra
ĠP alt
ĠL ad
Ġout dated
ĠG R
ĠG loria
ĠN IGHT
ĠE bert
Ġlo ck
ĠK ell
so red
ass in
Ġro se
Ġent ries
Ġbit ing
Ġinv ention
Ġappe als
Ġbu zz
ĠSh o
ĠRob ot
ĠRe id
Ġind ifferent
Ġz one
iam i
ĠAm ir
Ġbox er
Ġmeant ime
erm inator
with out
OO K
roy d
Ġbrain less
Ġground s
ĠBas inger
Ġdeg ener
Ġbal anced
ĠRoy al
Ġboo st
Ġens ure
ĠJan et
Ġcolour s
ĠCount ry
ĠGi ov
Ġenh ance
Ġetern al
Ġreli able
Ġinexplic able
ĠIng rid
ĠSister s
Ġhun ters
Ġacknow led
Ġrelent less
Ġmonolog ue
Ġcharacteristic s
Ġrabb it
Ġpurs ue
ĠEis enstein
Ġneur otic
. ).
B ased
C r
E ng
E ST
M ay
N iro
U RE
o i
p rom
r ary
s orry
Ã ¼
Ġa kin
Ġs ession
Ġw are
Ġb im
Ġb abe
it ors
Ġc ents
es on
ou st
Ġp oo
as co
Ġ/> **
Ġbe g
ĠT iger
et ed
ĠA kshay
ĠM ack
ĠM uppets
ĠC orn
ĠH im
ĠW rest
Ġsu gar
Ġsc ored
Ġpl ate
ĠG adget
Ġchar ms
ig e
ab el
ĠK nox
Ġover blown
for ming
Ġreal ities
Ġreal istically
Ġdon t
ĠCh amber
Ġmin ister
ĠU stinov
Ġob tain
iss ance
aut iful
Ġapp lied
Ġbu g
Ġbu ys
Ġext ensive
sp ot
Ġrele vance
Ġdist raction
ount ered
Ġstud ies
ĠNo ah
Ġcent re
Ġsn uff
Ġpat ron
Ġswe aring
Ġfill s
Ġexist ential
Ġsoc iet
Ġ199 4
Ġrese ar
bor ough
ĠGood man
bl ack
Ġinterview ed
Ġrepl ies
Ġcompar isons
ĠStr ong
Ġkidn ap
AC T
Ġhook er
Ġexplos ive
Ġmut ant
Re ally
ĠLo is
Ġadvert ised
ĠYOU R
ĠPac ific
ĠKu rosawa
Ġsink ing
Ġparall els
ĠWes ley
Ġobserv ation
Ġpsy che
ĠJu an
Ġsab ot
Bas ically
ĠAff leck
Ġaest hetic
ĠScr ooge
ĠAbr aham
Ġvign ettes
Ġscenar ios
stan bul
Ġmediocr ity
ĠPalt row
J eff
M el
W H
i ate
u fact
v entional
w ick
w olves
Ġs ought
Ġb itten
on ents
om ination
ĠI Q
ĠT ale
Ġre ign
ad vert
ce nding
Ġan c
ĠS ame
Ġha unt
ri z
ur rent
ĠM oh
ĠM ummy
us sy
Ġde em
ĠF ried
ĠF itz
ĠE arly
ĠO k
ĠO lymp
Ġper cent
av a
Ġrec reat
ĠSt ay
Ġunder cover
ĠU t
ath om
Ġdec line
Ġins urance
Ġins omn
Ġcinem as
Ġext rem
ĠCl aus
com es
Ġmaster s
Ġmor ons
Ġpos es
ĠPaul ie
Ġsick ening
Ġenc ountered
Ġsatisf action
no ir
Ġsuspect ed
ĠGl en
Ġuns ure
IT T
Ġdiv ided
Ġwise ly
Ġdeb t
ĠEv an
Ġaband on
ĠHaw k
ĠColl ins
Ġconvey ed
ĠLook ing
Ġstalk ing
ĠAsh ley
ĠPL EASE
ĠLion el
ĠCharact er
Ġetern ity
ĠRub y
Ġimpe cc
Ġow es
Ġdetect ives
ARN ING
Ġlic ense
ĠCore y
Ġshif ts
ĠClar ke
Ġmedic ine
F our
I VE
N Y
T im
d ance
g ence
u a
Ġt a
re nder
Ġc aps
br al
Ġg aps
Ġn un
Ġit em
ilm er
ĠW ee
Ġex empl
Ġv oodoo
ĠP sycho
ĠG or
ĠG ersh
Ġun sc
ure au
av an
Ġsp aghetti
Ġplot ting
ĠHe ck
az ard
Ġlong est
Ġinter tw
Ġhead ache
ĠSp oilers
Ġdra b
Ġmed ieval
ĠDan a
inc arn
Ġland mark
Ġavoid ing
Ġ195 9
Ġcollect ive
ĠTra vis
Ġstat ements
Ġimpro bable
ĠAct ors
ĠRock y
Ġnotice able
Ġaim ing
Ġsour ces
Ġinsight s
Ġfield s
Ġdeterm ination
Ġexperien cing
Ġeduc ated
ĠDar win
Ġassoci ate
ĠMal one
Ġbre ast
Ġcy cle
ĠMU CH
Ġaccess ible
Ġstyl ized
Ġembr ace
ĠHot el
Ġwheel chair
Ġax e
Ġgest ures
ĠPy thon
Ġunden iably
Ġdazz ling
ĠHU GE
O ver
S il
T ra
U p
f iction
r ust
Ġ 00
Ġs anity
Ġw agon
Ġo k
Ġm im
Ġth ieves
Ġg oo
Ġmo ld
ĠT ogether
et c
Ġse as
ĠM alk
ĠM inn
Ġsh rink
ĠW ol
ĠW yn
ĠW ILL
em en
Ġsc andal
Ġk arate
el ope
ood le
Ġr ic
Ġint oler
qu est
qu ality
red ited
ĠG und
Ġany time
ab re
ink s
Ġar che
av ier
Ġfl avor
Ġinc lusion
ĠAl ison
Ġtra ffic
Ġel ite
Ġconf use
Ġsch izophren
ĠSte phan
Ġgra bbed
Ġpain ts
Ġ9 5
ĠLe ft
unk er
Ġir res
cl im
OU SE
Ġsens ation
ĠJul es
Ġdam aged
Ġmid st
kin son
Ġphotograp hs
Ġpen al
ĠMen cia
200 1
Ġban ter
Ġprinci ple
Ġfra ud
Ġorgan ized
Ġdistract ed
Ste ve
Ġvide ot
Ġarg uments
ĠCann on
Char les
Ġinher it
ĠSupp orting
Ġharr owing
! ).<
C ont
D uring
F T
T T
c oll
f amily
m ical
Ġthe ories
re ne
Ġo o
Ġo st
ĠI stanbul
Ġbe gging
ve z
ĠT ER
ent on
ĠB arn
ĠB rig
ĠH on
un a
Ġab ound
ĠP ak
Ġlike wise
Ġor ange
Ġcon co
Ġpro b
iz za
ĠV oy
Ġatt ach
the llo
Ġres ume
Ġnew er
Ġhard ship
Ġclass y
Ġwar ming
Ġdram atically
sc ene
Ġreview ed
Ġrep ressed
Ġsent ences
Ġ198 9
ĠCol or
Ġdam ned
Ġcommun ication
imp y
ĠMad sen
Ġinsult s
Ġdef ine
Ġdemon st
Ġqual ify
ĠPol ish
Ġgri p
Ġpossess es
Ġemploy ee
ĠDor is
Every one
Ġsword s
Ġvol ume
Ġestabl ishing
Ġcompos ition
ĠKore a
ĠEve rett
Ġargu ing
Ġfest iv
Ġdump ed
Gr ade
ĠIsrael i
Ġabsorb ing
Ġpir ate
High ly
ĠLow e
ĠSchne ider
Ġinspir ational
A pp
B et
H ara
L ost
O ld
S n
b od
d espite
h op
n ice
t it
it ure
Ġh ats
Ġin mates
Ġl ol
al ented
ĠT oni
ent h
ĠB an
ĠB ee
ĠC arson
Ġsh ift
Ġch orus
if ty
ĠD J
ĠD iet
Ġsc ant
el ia
ant i
fe ll
ĠG ree
ĠG oes
ĠK au
ĠK ung
Ġper verse
Ġpo pping
ber ry
be y
be ing
Ġold s
ect ion
Ġres erved
Ġra ising
ign ific
Ġexpl ode
Ġty r
Ġpol ar
ĠDe Niro
Ġdet erior
Ġsk illed
ĠSte fan
Ġtit ular
Ġmother s
Ġsw ing
Ġcrit ique
Ġste er
Ġhusband s
Ġweak er
ĠKe ep
Ġseason ed
Ġ198 7
Ġ199 8
ĠWho ever
Ġachie ves
Ġembarrass ingly
ĠRed ford
ĠLet ter
Ġdin er
Ġintense ly
ĠCarl a
Ġresemb ling
Ġveter ans
Ġbik er
Ġsurviv or
Ġsail or
Ġnause ating
Ġglamor ous
Ġcripp led
Ġmast urb
Ġgor illa
ĠSop ranos
Ġdow nt
B oth
F red
H alloween
P R
S et
W as
b ill
c al
f ull
Ã Ń
in ian
Ġs unk
Ġb ree
it ivity
at hered
ou ri
Ġp atch
Ġd warf
as ia
Ġin sect
ĠI van
ut t
Ġfor bidden
ĠS W
ĠS ue
Ġli qu
ĠW ing
ĠD ame
ĠD iamond
un te
Ġj unior
Ġso ber
and ro
ĠR aw
ĠL est
Ġint act
ĠG ram
Ġag on
Ġag ony
Ġafter math
Ġsl aves
Ġsl apped
ail ed
Ġbelie vability
Ġright ly
Ġhand y
Ġgl aring
Ġsy nt
Ġstuff ed
Ġcheap ly
Ġunf amiliar
Ġtheat res
Ġadapt ion
Ġcolle ague
Ġcond u
Ġdef ies
Ġmillion aire
Ġver bal
Ġsentiment ality
Ġscrew ball
Ġpeace ful
Ġtick ets
Ġreward ed
Ġhipp ies
ĠRand olph
Act ually
Ġlav ish
bird s
Ġlegit imate
Ġseduct ive
ĠLund gren
ĠEntertain ment
ĠShell ey
Ġestr anged
B arb
B esides
H ell
f ights
j ah
u f
Ġt in
Ġh ott
an za
Ġp ause
le vel
Ġn orth
Ġre vis
ad el
ad venture
Ġu m
Ġu pt
Ġan gu
ĠS irk
Ġse ats
ĠB un
ĠM em
ĠM AD
Ġnot ices
Ġnot eworthy
Ġab ortion
ĠP ir
Ġlike able
ĠJ et
ate red
res a
Ġun sympathetic
ĠE ste
ĠK o
ĠK inski
ĠK ermit
Ġper il
ian e
Ġbl amed
Ġpoint ing
ĠAl vin
Ġfin ishing
Ġsub way
ĠSh ot
ph ia
ien nes
Ġele ven
ĠSc he
Ġloc ate
gr at
Ġremember ing
Ġ7 5
Ġmaster fully
ĠGr anger
Ġshock s
ĠAm itabh
Ġ197 4
Ġexist ing
irt ies
ĠFrank ly
ĠMon kees
Ġhy brid
Ġrap ist
Ġmir rors
Ġrout ines
Ġround s
ĠSpe aking
Ġunderst atement
ĠShow time
Ġbene fits
Ġdi ab
Ġadvert is
Ġinex per
Ġcamer aman
Ġprofound ly
ĠDep ardieu
Ġfet ish
Ġgar age
Ġjack et
Ġtraum a
Ġimmigr ant
ih il
ĠField s
Ġacknow ledge
Ġagg ressive
ĠLum et
Ġprompt ly
ĠAw ful
Ġcigaret te
Ġcaut ion
Ġpedest rian
Ġflim sy
angh ai
B atman
D el
M ary
b our
c or
d ict
e ous
m ith
m oil
s im
in stein
Ġs ane
Ġw oo
er otic
Ġb illing
Ġp istol
Ġd il
Ġg ate
Ġg hetto
Ġ/> ****
Ġn emesis
st ill
Ġwh ining
oo o
ĠB OR
ĠM ick
ĠC urse
ĠD olph
ant a
ant h
Ġal ert
Ġv intage
ĠR usty
ast ly
ĠF L
ĠG ro
ig ious
ig ning
ĠO cean
ĠK ra
ull er
we e
ute ur
az ar
Ġsub du
Ġexce ll
Ġorigin s
ĠJo anna
ris ing
ĠBr ide
Ġmight y
osed ly
Ġfan atic
sp iring
Ġmon k
ĠSp ade
omb ie
att i
ĠAr k
Ġconst ra
Ġtele phone
Ġve get
Ġcat al
Ġjud ged
Ġarri ving
war z
rid ge
ĠHol m
vey ard
abr ina
Ġsuck er
Ġfreak s
Ġgig antic
Ġtoler ance
ĠVamp ires
ĠSun shine
fall s
Ġinj ury
ĠKnight ley
Ġtom orrow
Ke vin
Ġtorment ed
Ġglim pses
ĠIsab elle
Ali en
Ġmeand ering
ĠKin near
Ġsubstant ial
ĠLup ino
blah blah
Ġbew ild
Ġredund ant
ĠSoder bergh
Ġdemonst rated
$ $
A h
C ar
M eanwhile
S em
e on
g ang
p op
s aw
t ale
w ord
in ently
Ġw art
er ner
Ġm elt
or ical
Ġth under
Ġp ans
Ġwh iny
am er
ĠS leep
ĠS ervice
ĠB ess
ĠB os
Ġli ghter
ĠC reat
ĠW ang
out ing
ain ts
el ed
ĠP S
ĠP op
ĠP oir
ĠP rison
ĠL ist
ĠL ass
ĠF aith
ĠN orton
pt ical
Ġun rem
Ġpo cket
ian ist
ĠAnd ers
ĠV s
Ġpr ow
ĠAl as
Ġres ident
Ġev okes
Ġcomple t
Ġide als
xt ap
ĠSh aron
ĠWh oop
Ġadd ressed
ĠWe aver
Ġmur ky
Ġsk it
Ġexc uses
Ġass umes
ĠAr quette
ĠMar ine
Ġadm ired
Ġnovel ty
Ġmot if
ump y
Ġresult ed
ĠGr omit
Ġvar iation
Ġ200 8
ĠPh antom
Ġspir al
Ġ198 6
ĠPar ad
Ġer upt
oman iac
Ġphys ics
Ġexplo ited
OW N
Ġaffect ing
Ġinvestig ator
ĠEm il
Ġinflu ential
Ġartist ry
De finitely
Ġtur moil
ĠDar ren
ĠWor se
ĠAz tec
ĠJer sey
Ġramp age
Ġconscious ness
cult ure
Ġsust ain
ĠJoy ce
Ġassemb led
Ġwarr ant
Ġexcl usively
Ġassign ment
ĠVaugh n
A dd
B rien
C arl
E M
F O
J on
d ro
f ers
i i
m ony
v ention
w he
in ness
in feld
Ġs oooo
Ġb um
Ġc ad
Ġin advert
ut ure
st reet
Ġre ar
Ġhe els
Ġst ake
ĠC ec
ĠH ers
ĠW edding
ĠD oyle
Ġv ic
ĠR oe
ĠR oom
ĠJ ob
ard e
Ġle ap
Ġle nds
ell ow
ue nd
Ġdis order
Ġsp rink
ĠCh ucky
ĠCh ainsaw
Ġfl ames
Ġplay ful
ĠV CR
be cca
Ġinc on
Ġgoing s
arr ow
Ġinst ances
ĠTh row
ĠThat s
ĠDe M
Ġimag inary
Ġgener ate
Ġdra ft
Ġrom ances
IN D
ĠSe gal
itch ie
Ġadm ission
Ġmyster iously
ĠRobert son
ters weet
Ġland ed
ĠEl m
Ġcamp us
Ġaut o
Ġine ffect
Ġproduct s
ĠLyn n
Ġreflect ed
Ġuncon ventional
ym ph
ĠCinem at
Ġacqu ired
ĠCost ner
Ġbetray ed
Ġuniform s
ĠSwed en
Ġcha otic
Ġchamp ion
____ ____
Ġsett led
resp ons
Ġneglect ed
ĠJol ie
ĠExp ress
ĠNicol as
Ġcoff in
Ġsubmar ine
ĠTok yo
Ġunatt ractive
Ġprincip als
Ġpsyched elic
P oor
S aw
g ore
m oon
n or
u ing
w ich
Ġf aded
Ġm our
ing le
ou ement
Ġd ashing
le ader
ad ers
Ġst air
ĠA de
ĠB att
ĠC ort
ĠW ork
Ġcom a
art ing
Ġv oid
ĠF il
ĠG ames
ĠJ en
ĠJ unior
Ġpro claim
ĠN ame
ĠN iven
ĠN umber
Ġun cover
Ġle an
od d
od es
ell we
ĠK udos
ĠK ilmer
ap le
ac ation
Ġfl ows
ĠY u
Ġyour s
Ġdes cend
up ac
Ġap es
Ġtra ins
ĠSh ark
wood s
Ġsch ol
ien na
ĠZ ane
ĠChrist y
vis ible
tern al
Ġadm iration
Ġdeal ers
off erson
ik ing
Ġswe pt
Ġswe eping
ĠOr der
ĠCon c
head le
Ġinn uend
Ġcompl ained
ĠNe v
ĠPh oen
IL D
ĠGu ess
Ġcat ast
ye ah
ĠMon key
Ġcover ing
Ġcap acity
con f
Ġslasher s
ĠBur g
Ġdiscuss ed
Ġunw illing
Ġemploy ees
Ġskin ny
Ġpupp y
Ġorgan ization
ĠMir anda
Ġtax i
Ġpolitic ian
Ġsen ior
Ġfrag ile
ĠNin ja
Ġintim id
Ang el
ĠKN OW
ĠLans bury
A X
A ir
T S
U P
a ise
f ighter
g one
n ity
Ġf odder
Ġm ud
Ġb ible
es quire
Ġh ttp
Ġp ound
Ġd ut
Ġd ominated
am in
ĠB reak
ĠB ishop
ĠM ul
ĠM aj
ĠC ro
ĠC ros
ĠH ollow
ĠH awn
ĠD R
ĠD exter
Ġj oint
el er
th ank
ĠP rom
ĠR ory
Ġout cast
Ġr idd
ĠF ight
Ġle gends
Ġlo an
ĠK as
ĠK ind
ment ed
Ġqu int
ry n
Ġtw ent
Ġad s
Ġcharacter isation
ob ia
Ġfl ip
ĠV ance
ber lake
ĠAl ways
Ġcam ps
Ġ3 00
Ġlet down
ten borough
ann ibal
sc enes
Ġdep ra
Ġreview ing
Ġdist ress
Ġind icate
Ġstar ters
Ġpar ag
Ġsn ipp
Ġfore most
AR K
Ġvar ied
Ġdisc onne
Ġpay off
Ġintrodu cing
Ġdumb est
Ġcirc les
Ġdepict ions
Ġground breaking
Ġcru ise
Ġcross ed
ĠIndian a
Ġwitness ing
Ġcell s
Ġtight ly
Ġju xtap
Ġnin et
ĠLuc ille
ĠFar ley
ĠDog s
Ġbatt ling
Ġsubsequ ently
ĠLOV ED
ĠBL OOD
Ex cellent
Ġvivid ly
Char lie
ĠLen o
Ġfilth y
dra wn
spir ited
Ġunsu ccess
Ġenig matic
ĠSudden ly
ĠCron enberg
uten ant
ĠMalk ovich
" --
* <
2 5
J ason
L ou
S adly
b its
j ack
m ust
r ates
r ases
w it
y ers
Ġ ).
Ġt aut
Ġp iv
ic iently
Ġe ast
ĠT een
Ġre verse
im ately
ay ne
ĠS ke
ĠM oses
ĠH E
ĠD er
ĠD uch
ĠD irected
Ġfr antic
Ġso cially
art ed
ol o
ĠP ope
and ing
ĠL ead
Ġr ambling
ĠF o
ĠF ew
ĠF ollowing
ate ll
ĠN OW
Ġun ans
Ġun natural
ud er
Ġman ic
Ġen list
Ġcl erk
Ġcl unky
Ġar ray
ĠV e
Ġ2 8
ia h
ath a
Ġdec iding
Ġcou p
Ġfact ual
ĠFr ont
ĠBl ues
Ġele phant
ĠCl iff
ĠMar low
ĠZ u
Ġsw amp
Ġpar odies
Ġmoment um
Ġmot ions
Ġunc anny
Ġnone x
Ġsuggest ing
ĠTim on
ĠMad ison
Ġpack s
Ġfool s
Ġunus ually
Ġround ed
ĠBo one
Ġboo b
OL D
ĠHaw ai
aa aa
Ġsnow man
Ġmyth ology
Ġcaptiv ated
Ġevident ly
Ġbik ini
ĠRet urns
Ġeager ly
ĠBac all
Ġimmigr ants
Ġcere bral
ĠShep herd
Ġvoy age
Ġlun atic
Ġplod ding
ĠMcL ag
Ġtunn el
Ġflam boy
ĠTele vision
Ġvo iced
Ġanc est
H ome
b reed
b inder
l ies
Ġt att
Ġw ings
Ġc unning
on ous
Ġp anic
le g
ĠT est
ĠT enn
ent ertain
Ġst reak
ĠA B
ĠS lo
ĠB U
ĠB ou
ĠB elle
Ġsh ades
Ġch im
em ale
ĠP BS
ĠL ex
ĠF O
ĠG rier
ĠN an
ĠN ero
Ġup coming
Ġthere by
Ġqu asi
Ġover shadow
Ġro yal
Ġdis respect
aw ned
ĠCh aney
Ġfl owing
Ġgr is
Ġcr own
alk er
Ġmus cle
Ġprodu ces
Ġbit tersweet
Ġsm ash
Ġcons iders
ĠSh ining
ĠSh adow
Ġwar ns
Ġday light
ope z
omb ard
ĠMar lon
Ġlight ning
Ġpar ade
ĠEd ison
ĠGe in
ones ome
AR E
Ġill usion
Ġremind ing
Ġ197 6
An ne
ĠSim ple
ĠBen ny
Ġvillain ous
Ġrob bers
Ġ193 6
Ġbreat hing
ploy ed
IC E
Ġcelebr ated
Ġfreak y
Ġstret ches
iy a
Ġking dom
Ġparticip ate
Ġsedu ce
Ġambig uity
Ġexplod es
Ġsales man
ĠUltim ately
Ġreck less
Ġoptim istic
ĠOrigin al
Ab out
Ġgloom y
Ġware house
ĠDiet rich
ĠKau fman
Ġsubdu ed
ĠPhoen ix
4 7
M id
P L
V ictor
c re
d ream
m ut
m ite
m ph
t ry
z um
Ã ¤
Ġs au
Ġf urious
Ġb astard
at ers
en ry
Ġh oly
ar med
le en
ot ch
ot ten
Ġbe ware
Ġre incarn
ad ium
im i
Ġst ations
id ences
oo ke
ri a
ĠB ul
ĠB ody
ĠM au
ĠM oney
ill usion
ĠC ell
ĠH ig
ĠD ress
ĠD ante
Ġpl ants
Ġde ft
ĠR itchie
ard on
ĠN as
od ore
itt ingly
Ġcl ash
Ġpo ll
Ġoff beat
ens ed
ĠIn s
ĠIn st
ild a
Ġsl ide
Ġri vals
Ġche mical
Ġshot gun
sc ape
Ġcomm itting
ier ney
ĠZ o
ĠZ ellwe
ĠWill ard
Ġtrans vest
Ġtrans cend
rop he
ĠWith in
ĠHer bert
Ġconst ruct
ĠGr ayson
oe be
An im
St ory
upp ert
Wh ite
Ġmix es
Ġund e
ĠSm all
Ġextra v
Ġconv ention
Ġsleep s
ĠLu is
ĠVan essa
Ġmel ting
Ġcontrol s
Ġsum med
ĠSer gio
ĠEm my
Ġboard ing
Ġden ouement
Ġknock s
ĠDO ES
ĠApp le
Ġresol ve
Ġsyn ch
Ġsoph om
Ġhyster ically
ĠCount y
Ġcook ie
Ġpolic y
Ġnu anced
ĠProdu ction
Ġofficial s
Ġfemin ine
Ġlur king
ĠCur ly
resp ond
Ġexcruciating ly
ĠAbb ott
ĠHoll and
Ġentr ance
Ġantagon ist
Ġfee ble
Ġnarc iss
Ġuncons cious
ĠFont aine
Ġnaught y
adel phia
Ġwart ime
Ġnonex istent
# #
E r
H am
J ennifer
N ote
b ber
e ating
h alf
l ar
l ad
m outhed
n ce
Ġt ant
in son
en cies
an u
an es
ar ound
al ike
st eps
ĠT ales
ĠT erminator
Ġre ci
ow ered
Ġst ab
ĠA V
am our
ĠS ig
ĠB oss
ĠC obb
Ġch ill
Ġat tending
ĠD rey
ĠP ars
ĠP ass
ĠL opez
ĠF ass
ĠF ever
ĠF irth
ĠF UN
qu et
ig ans
Ġman ne
Ġup dated
od o
itt e
ab ilities
pl us
Ġcl ut
Ġim per
Ġsp ies
ĠCh ip
ĠV ent
me aning
Ġinc lined
Ġcomp rehens
Ġob t
ĠFr itz
fin ished
Ġfollow ers
ĠBe hind
ĠSc enes
Ġconc l
Ġblood s
Ġsn aps
ik i
rop ol
Ġtele g
ĠWar hol
cer ity
ĠAd rian
Ġcompl ications
An na
wr ite
OU T
ĠSch warz
erm aid
boy s
Ġbomb ing
ĠBer ke
lo ving
Ġcompar able
Ġver ge
Ġhint ed
Ġtarget s
Ġprotect ion
ache lor
Ġdesp ise
Ġpark ing
tw ist
produ cer
Ġnu ances
ĠKrist offerson
Ġsket ches
Ġpreach ing
Ġreb els
Ġmyst ical
Ġgee k
Ġmaint ains
Ġreh ash
Ġinsert ed
Ġincest uous
ĠPam ela
Ġhench men
Ġinterrupt ed
ĠCommun ist
Ġamid st
ĠGovern ment
Ġnewcom er
ĠCob urn
Ġunans wered
A V
F e
S H
b ed
e v
g i
g ud
m at
m art
n ik
z or
Ġt ones
in arily
Ġs alt
Ġw oven
is cher
Ġf ence
Ġb urd
it an
it ical
Ġth ug
on ies
Ġp ier
le man
Ġn ymph
il ot
ĠT un
ĠB uff
ur man
ur assic
ĠW ax
ĠD ern
ĠR angers
ĠL ola
ĠF ab
ĠF ern
Ġor deal
Ġpro sec
Ġtr amp
Ġper ceived
Ġbad dies
Ġpo se
for man
Ġwhere ver
ĠSt op
Ġunder developed
Ġyoung sters
app reci
Ġread ily
Ġfound ation
ah mer
Ġday time
ues e
cept ive
ien ced
ĠAt tenborough
Ġ8 5
com plete
Ġreg ime
ĠJack ass
oid s
Ġsw itches
Ġadm its
Ġadm inist
Ġcent uries
ĠEd wards
ĠGe off
Ġpredict ably
Ġdest ination
Ġunc lear
Ġhate ful
angu age
IS S
Ġ193 3
ĠMac Arthur
ĠMel issa
Ġbi as
uh i
Ġincre ase
Ġhyp ed
Ġsal v
Ġconsequ ence
Ġcourt room
Ġreject s
ĠSher lock
ĠWr ong
Ġconfess ion
Ġdistinct ive
ĠDet roit
Ġexecut ives
Ġannoun ce
gra ve
anc a
ĠNet flix
ĠEN D
Ġsam urai
ĠSpring er
Ġcustom ers
ĠGund am
ĠCros by
Ġgris ly
H ar
T ar
V ito
e xt
Ġo ct
Ġb ubble
or ity
Ġp ains
as qu
Ġl aser
le ts
ĠT iny
Ġhe ights
im o
se ts
Ġst ating
Ġst oned
ĠS or
ĠM ond
ĠC headle
ĠH em
ĠH ands
ĠH annah
ĠW AR
Ġex it
ol i
ĠP itch
ĠP rem
ĠP orter
ĠR ukh
ĠL on
ĠL augh
Ġr ousing
ĠF iennes
Ġcon fined
ĠG ig
Ġman ufact
itt o
ĠK ol
Ġqu ot
Ġpo ke
Ġover weight
ass an
Ġsp it
Ġpr ank
Ġri ps
ning s
Ġter min
Ġsm arter
Ġep ics
Ġmean while
ok o
ok er
Ġexcellent ly
Ġdist inction
ĠBe eth
Ġgra vity
chn ically
Ġbus h
Ġforget s
Ġprog ressed
Ġcamp ing
EA M
ĠMon ica
Ġimpro vis
ha ired
Ġmid get
Ġroll s
Ġjo ining
Ġdad dy
Ġserv ants
Bl ue
Ġclub s
ĠLi u
Ġscar ier
ĠRick y
Ġboot s
Ġcontest ants
walk er
Ġcheer ful
Ġfac ility
ĠIntern et
Ġinaccur acies
Ġpatri otic
Ġnuts hell
Ġecon omic
ĠJuliet te
ĠGeor gia
aval ry
Ġmisunder stood
Dan iel
ĠFant asy
Ġce iling
Ġcompens ate
ellig ent
Ġcos m
Ġcul m
col m
Ġrender ing
Ġcrook ed
ĠSoph ie
Ġfurn iture
Ġdelic iously
Ġtab oo
? ".
A lex
G ary
R em
R ose
e ge
s upp
w all
z ie
Ġ !!!
Ġt ub
in qu
re te
it arian
Ġh ills
Ġd umber
ut ing
ut cher
il o
Ġbe gs
Ġst ubb
Ġst agger
ĠM andy
ĠC irc
ĠC amb
ĠC reek
ĠR ice
ĠR ath
Ġne ut
ĠL ock
ĠF ort
ĠG ust
ĠG ov
ĠG ina
Ġpe ers
Ġpo pped
Ġoff ense
ull iver
Ġsp orting
ĠV ic
ens es
ens ibly
ru ly
be c
ĠAl icia
Ġche ering
Ġscreen ed
Ġcome back
Ġph ase
Ġele cted
Ġopen ly
Ġgra veyard
ize k
ĠMc N
ĠIs lam
Ġocc ult
Ġshoot out
ene z
ene gger
Ġpsych ologist
Ġshock ingly
ĠPl ace
ered ith
Ġforget ting
Ġprog ression
You ng
ĠTr uth
Ġ199 1
Ġlim p
Ġgirlfriend s
ĠGold ie
Ġhost ile
ĠHen ri
mar ish
Ġaware ness
abr a
Ġver b
Ġmut ual
ĠDid n
Sp oilers
ĠAp ocalypse
ser ious
Ġexpert ly
........ ........
sec ond
Ġobsc urity
ĠSund ance
ĠWhe never
ĠCas per
Ġdynam ics
Ġfet ched
ĠTur key
vo iced
Ġanticip ated
Ġfeed ing
Ġobser ve
Ġfortun ately
Ġclimb ing
Ġclic hed
Ġanx ious
Ġorchest ra
Ġcandid ate
Ġhesit ate
Ġsched ule
Ġmax imum
Ġartic le
Ġretros pect
Ġinspect or
Ġdisci pl
Ġfles hed
Ġpomp ous
Ġmanif est
Ret urn
Ġenchant ing
Ġirres ist
Ġfestiv als
Ġexcell ence
ĠMcLag len
) '
D anny
E P
K O
O b
S ur
f ive
h in
j im
s k
t ake
t akes
w one
z i
z ard
re ement
er able
en zo
Ġth umb
Ġh arb
om on
Ġn ations
Ġhe ap
Ġst aging
Ġfilm ography
ĠS ond
ĠB ri
ĠB rent
ĠB iko
ĠM aking
ĠM iami
Ġ( ?)
ĠC ube
ĠH OW
ĠH ooper
ĠH enson
ĠD ol
ĠD AY
Ġfr aming
el f
ĠP atter
ĠP OW
ĠR ig
ĠR osen
Ġpro long
Ġ1 000
ci ble
Ġcl ad
Ġcl arity
Ġend uring
Ġte ch
ĠCh ang
Ġfl our
ĠSt ella
Ġ2 7
Ġinc arn
Ġdown s
oss ip
Ġscript ing
Ġstr ung
ĠShe mp
Ġext ract
wh ose
Ġsuper flu
Ġmiss ile
land ish
Ġdist aste
ĠSte ele
ĠAr ch
ĠRe venge
ĠZ or
Ġlight hearted
ĠSe ems
off ice
As ide
ĠHer man
Ġdev otion
RE D
ĠPat ty
Ġbother s
Ġstereotyp ed
Ġdraw ings
Ġauth ors
ĠRed grave
Ġsymbol s
ĠTe am
Ġsin cerity
Ġmob ile
Ġboo bs
ĠCent er
ĠHaw ke
Ġvol unte
urp rise
ĠMill ion
Ġresist ance
Ġvi be
ĠBrid get
Ġpatri ot
ĠRome o
Ġmerc iless
ĠPen elope
isten cies
ĠStra ight
Ġdod gy
bet ter
ĠInterest ing
ĠLor re
Ġinjust ice
Ġmasc ul
ĠFass binder
? ",
A K
D Y
H ave
H onestly
N N
a o
a verage
f ty
j okes
s ized
u ve
v iol
Ġh oney
Ġp ounds
Ġp apers
Ġg rey
Ġe h
ĠT one
ĠT ierney
ĠS ounds
ĠC ons
ĠC arn
ĠC itizen
ĠH appy
ul ars
ĠD ale
art ment
Ġv ault
ĠP ere
Ġout set
Ġr oughly
our se
oll o
ach ron
Ġdes k
Ġgr ind
Ġimp ris
oc ation
ib be
Ġacc ord
Ġco ke
ĠZ eal
Ġbas hing
Ġhope ful
Ġcor rid
Ġpop ulated
Ġpred ic
Ġprof it
ĠGod ard
Ġ197 7
Ġinte nd
Ġcap er
Ġinvest ed
Ġcommun ist
ĠTim berlake
Ġcritic ized
ĠHor se
Ġcross es
Ġfavour ites
Ġpun ct
ĠBur ke
Some one
Ġsight s
Ġrip off
ĠBar on
Ġlad der
ĠGreen e
Ġmanipul ation
Ġobsc ene
Ġenvironment al
Ġpal ace
Ġmurdere rs
Ġprostit ution
Ġmas och
ĠFin ney
Ġrelax ed
Ġtransfer red
Ġthread s
ĠReg ardless
ĠDri ve
ĠDri ver
Ġgather ing
Ġjudg ement
ĠBry n
Ġtransport ed
ĠBrend an
ĠSqu ad
Ġrecru it
Ġcarn age
ĠHack man
pion age
ĠDomin ic
ĠFish burne
ĠSold ier
ĠUr ban
Ġlibert ies
ĠAlm ighty
ĠOt to
Ġcoc aine
Ġpenal ty
Ġpiv otal
A w
C ra
E CT
O k
S ometimes
T AIN
W W
h appy
m ir
u ire
u elle
w ow
Ġs orrow
Ġb ats
Ġb iblical
Ġb orders
it ous
Ġc ulp
Ġto days
ar ingly
as ily
Ġg ap
st ep
Ġbe ard
Ġbe gun
Ġbe ef
Ġre ception
ĠA ld
ĠS ty
ĠS aint
Ġse vered
ĠM ot
ra ged
ĠH and
ĠH ob
ul pt
ĠW izard
Ġab omination
ĠP az
ĠP ierre
ĠL og
ĠF ors
ĠG wyn
os uke
Ġpro ced
Ġun ner
Ġun just
Ġup beat
ĠO dyssey
Ġpre par
Ġplay boy
iz on
ĠV ader
ark able
Ġrem orse
Ġres erv
Ġdown fall
ib a
ris ed
lud ed
Ġrele asing
Ġnight marish
ton es
ĠÂ Ĺ
ĠTHE Y
Ġsle pt
Ġsol ved
aged don
real istic
Ġforg iveness
Ġpleas ures
ĠFrank lin
ĠGu ard
Th anks
Ġprop ortions
ĠCom plete
Ġign oring
Ġlangu ages
Ġrevol ving
OM B
ĠCr im
mark et
Sc ream
Ġcivil ians
RA P
Ġbear able
Ġhur ry
Ġemphas ize
Ġtoler ate
Ġstalk ed
ĠRain es
Ġyell s
ĠGi allo
Ġincons istencies
Ġreplace ment
Act ing
Ġrelent lessly
Pro bably
Ġprol ogue
ĠPortug uese
ĠShy lock
Ġmac abre
ĠNiel sen
profess ional
ĠPose y
ĠBun uel
ĠNas chy
ĠBerke ley
, ...
B ru
I OUS
N orth
S omething
c as
c iting
c ount
d el
i as
m ess
o ves
r ine
t ar
Ġs ang
Ġm and
Ġm um
ing e
Ġd v
ie ving
ĠT urt
ĠT OO
ĠT yr
Ġy awn
ĠB udd
ĠB rett
ur u
Ġbut ter
ĠH uppert
ĠD ustin
ess ential
ag gy
Ġne arest
ĠL ombard
fe el
Ġcon n
ĠJ ungle
ĠJ aws
Ġchar ges
Ġun ion
Ġshe ep
ĠK am
Ġcl an
og en
ple ase
Ġam ple
Ġfl ock
ily n
Ġsl ower
Ġres ent
Ġra ging
Ġem peror
Ġtri via
Ġrel ating
Ġcons p
Ġinst ruct
Ġac ad
Ġcra cks
atur ity
ĠInd e
Ġnarr ated
Ġperiod s
ĠMor i
Ġsuff icient
Ġfront al
Ġund ers
Ġ195 7
ĠLu ci
Ġident ified
Ġamb itions
appe aling
Ġprogram ming
Ġspot ted
ĠWay ans
Ġserv ices
ĠCo ast
Ġcelebr ities
Ġpath s
Ġtarget ed
Ġens ue
Ġprinci ples
Ġcyn icism
Ġnin ety
Pl ot
ĠSH OW
Ġbab es
Ġske ptical
Ġfu zzy
Ġdistribut ed
Ġsink s
Ġtun ed
Ġunfold ing
Ġoccup ied
ĠAtl antic
-------- --------
Ġengine er
Ġobserv ations
ĠAnim al
Ġdict ator
ĠIron ically
Ġmonot onous
Ġfo resh
ĠNorm a
Ġcurs ed
Ġsubstit ute
ĠPick ford
Ġobst acles
Ġobliv ious
Ġtherap y
indu cing
Ġmelanch oly
ĠTIM E
ĠSebast ian
doc umentary
ĠStephan ie
A re
A part
A GE
J ones
M att
M oon
O H
c ow
f ant
h anger
i ator
j ay
l ittle
Ã §
Ġa uteur
re ality
is p
Ġm aj
it als
it ives
Ġh unted
Ġp izza
ar my
Ġd ia
Ġin forms
Ġg ent
ĠT our
ĠT illy
Ġre ass
ĠB re
ĠM afia
ĠH ence
ĠH ale
ĠH oly
ĠD ur
Ġsc ulpt
Ġwho re
art e
ag ging
ol ini
ous ed
ĠP ry
ĠP ee
ist on
ist ant
ĠR aim
ĠL OL
ig el
Ġle cture
ab ul
av our
Ġsp ray
Ġbl oss
ob ile
ĠCh in
ĠCh ow
Ġplay wright
Ġsur geon
Ġdec ad
Ġra zor
Ġhard ened
ĠSh in
ĠSh annon
Ġwar riors
ah an
iter ate
Ġmar vell
ĠRe gin
Ġfail ures
Ġcount ing
unch y
Ġlist ened
Ġfair ness
Ġmag ically
Ġeffort lessly
Ġsimilar ity
Ġdisc ount
Ġgang s
ĠAny ways
ĠGu est
Ġsens itivity
Ġrepe ats
Ġign ores
Ġoffic ially
Ġimpro v
Ġstep mother
aus ibility
ĠBoy er
Ġpair ing
Ġachieve ments
Ġder ived
Ġcraft s
Ġinterpret ations
ĠRod ney
Ġappl ies
Ġprostit utes
ĠRun ning
Ġabr oad
Ġacqu aint
Ġded ication
Ġcust ody
Ġcand le
Ġbow l
Ġarr ang
Ġdomin ate
Ġecon omy
Ġscratch ing
Ġimpe nding
ĠViv ian
Ġcraw l
Ġhench man
Ġgh astly
Ġanth ology
Ġcloud s
ĠCorb ett
Hor ror
Ġsoci opath
ĠKings ley
Ġwholes ome
Ġsynt hes
ĠDuch ov
ĠZellwe ger
ĠRath bone
ĠMori arty
B rian
D irected
E Y
F F
M us
V IL
a very
b ians
g irlfriend
n on
o j
r owing
s a
s usp
u u
v ous
Ġt ube
Ġthe sp
Ġb od
Ġb ubb
en heimer
es ter
Ġd orm
ed uc
Ġn ifty
ut o
Ġbe aring
ĠT ow
ĠT ara
Ġre form
Ġhe ter
oo ve
Ġan achron
ĠS elle
ir ling
ĠB oring
ĠB ava
ur able
ĠM ik
ra iser
ĠH il
Ġsh ar
Ġj ury
Ġv apid
th irsty
ĠP uppet
ĠL enn
Ġout landish
Ġme ga
Ġper plex
Ġcl ient
man uelle
ves ter
Ġpre st
Ġro bbed
Ġsp ider
ng er
ĠCh and
pect ives
Ġrec urring
les h
Ġcr ushed
Ġche at
Ġev oke
Ġinv ite
Ġhard est
Ġhigh way
Ġins ignific
Ġes pionage
Ġsec ure
Ġsex ist
ĠSh op
stand ard
Ġart if
Ġhappen ings
lud e
ann i
ĠDe f
Ġstupid est
ĠCl ara
Ġdra gging
Ġ5 00
ĠCar re
Ġdead pan
Ġsw inging
ĠMc Queen
Ġstra w
Ġmot el
ĠCon st
Ġcontro lling
Ġ197 5
ĠSam my
ĠPaul a
iel gud
Ġtre as
ĠGu inness
Ġtrad itions
Ġhom o
Ġ193 4
ĠFl oyd
Ġspot light
Ġbomb ed
iver ance
Ġinsult ed
ĠStr anger
ĠRam on
ĠSpe ed
ĠMcC arthy
Ġassist ance
Ġmob ster
Ġincre asing
Ġconfront s
Ste phen
Ne ill
Ġpursu ing
ĠAL ERT
Ġreluct antly
ĠEp isode
eric an
Ġwhim s
Ġhypnot ic
Ġinstinct s
Ġatroc ity
Ġvigil ante
ĠChamber l
ĠLest at
Barb ara
ĠPoir ot
ĠWhoop i
atell ite
ĠPatter son
Ġsuperflu ous
ĠBryn ner
" (
S us
S ex
U s
W he
c ross
f olk
g or
j erk
n el
p en
p acked
Ã ł
Ġa ided
Ġthe ft
Ġs unny
en cing
es sel
or is
an or
Ġp ac
Ġp add
Ġg adget
Ġg athered
al in
al beit
ĠT iff
Ġre runs
im mer
ch anted
Ġwas t
Ġan ts
Ġse ctions
Ġha ird
ĠM eredith
Ġ( !)
ĠC O
ĠC ain
ĠH om
ĠH ELL
Ġsh aped
ĠD ent
ĠD ene
th in
ĠR io
ĠN AS
ĠN orthern
Ġun appealing
ĠE ight
Ġwat ers
Ġfe ud
oy a
ĠK y
ĠK ris
Ġover tones
Ġdis illusion
per ing
ors ki
Ġfl ashing
ĠY an
ĠY ep
ĠV acation
ĠHe ath
vel t
Ġcont ributes
ave z
Ġcr ooks
Ġbig ot
ster ix
ord e
Ġbu cket
ĠSh awn
ER O
Ġph ones
Ġtit ill
Ġdra in
ax ploitation
cess arily
Ġtrans forms
ĠIs n
Ġsn appy
ĠHer cules
ĠDan cing
ĠWar rior
ĠGr im
mb lance
AR T
AR Y
ĠPe ggy
ĠPh oebe
Ġear liest
oose velt
ĠMost ly
bor ah
ĠEx per
ask et
ĠGood ing
ĠBy r
ĠLu cio
Ġimpro vised
su it
?! ?
Ġqual ifies
Ġlay ing
Sc ott
200 2
aren ce
ĠCass ie
bur gh
umm ings
Ġcriticism s
ĠRoman ian
ĠRoman ia
ĠRen o
Ġbound aries
Ġadmire r
Ġwrest ler
Ġpuzz led
Ġsmooth ly
Ġchap ters
Ġelectric ity
ĠGeor ges
Ġcarn ival
Ġmonolog ues
Ġexploit ative
talk ing
Ġabund ance
ĠLoc ke
ĠPle as
Ġinadvert ently
respons ible
ĠBeeth oven
A gain
C ome
C omp
E ric
H enry
V an
b ble
d b
f ound
h r
i ot
k as
l ater
p arents
u er
v ard
y y
y an
Ġt ables
re k
Ġf ades
Ġf aux
Ġb ureau
at ized
an che
Ġd ive
om a
al ter
il ian
ĠT ad
ĠT ib
ĠS i
ĠS issy
ĠS abrina
Ġse mblance
ĠB orn
ĠB rew
ĠC ummings
ĠH av
ĠH OUSE
Ġsu ave
Ġsu spe
op us
ĠR est
ĠR oosevelt
ĠG arden
ĠG amera
ĠJ ude
ĠN ina
ĠO thello
Ġgo dd
Ġfe ver
oy ing
ĠK ru
Ġcl ay
Ġover board
Ġpre acher
ff iti
Ġreal ises
oll and
Ġfl irt
Ġsl am
Ġsl ob
Ġcr ashed
Ġsur render
iss ue
oc op
Ġbit chy
ub itsch
ĠShe arer
ĠWh ilst
uck s
Ġbor rows
ĠWe bb
sp oken
ĠDe bra
ĠDe Vito
Ġed ges
cept ions
Ġdet ached
ĠSc are
ĠAr iel
Ġawful ness
ĠLe g
ĠLe vin
Ġz any
sh ack
sh oot
Ġvill agers
Ġprof ile
Ġadv ances
wr ought
aur ie
Ġavoid s
ĠEurope ans
ĠGreat est
Ġpers pectives
Ġdig ging
Ġinflu ences
Ġboss es
Ġkidn aps
Ġden ied
Ġcrowd ed
Ġsignific antly
Ġbur nt
Rob in
Ġremain der
Ġnet works
ĠLo oney
Ġspoof s
Ġdisplay ing
uls ion
ĠRod ri
Ġcas ually
Ġideal istic
ĠAdd itionally
Ġevol ved
Ġmyth ical
ĠJac ques
Ġdistinct ly
Ġaccompan ying
Ġparticip ants
Ġbill ion
Ġannoun ced
ĠProdu cer
Ġarrog ance
Ġarr anged
ĠVeg a
ĠAud rey
Ġconsum ed
Ġshel ter
ĠTot ally
Ġegg s
ĠBrazil ian
Ġcounterpart s
ĠComb s
ĠFell ini
ĠGentle men
Ġslee ve
Ġimpecc able
Mid night
Ġstubb orn
C le
E ye
M iche
N orm
P retty
T hing
Z Z
d ad
f ting
j as
k iller
l ost
l oud
l iterally
w ed
Ã ±
Ġa ven
Ġs ly
Ġs oup
is i
is ite
ing o
Ġin finitely
Ġn ast
ie th
ent ing
ĠM urd
Ġnot or
Ġwe ary
ĠC ond
ĠC ody
ĠD w
ĠD ove
ĠD affy
Ġcon grat
red it
ĠG ielgud
Ġtr ou
Ġwere wolves
Ġper verted
Ġar ty
Ġover d
ff er
Ġbl oke
Ġfl ower
Ġfl ipping
ĠHe ather
ens itive
Ġcr ank
Ġcons ult
ĠTh urman
Ġport ions
arn ed
Ġdep uty
ĠBl oom
Ġret reat
ĠZ eta
ĠMc Donald
Ġcol ored
Ġesc al
vol ent
ĠPl enty
Ġinde pendence
Ġ198 5
Ġund es
Ġimpl ies
Ġirrit ated
Ġmarket ed
Ġpen et
abl anca
Ġknock ing
Ġtem por
Sp oiler
spe aking
ls en
Ġner dy
Ġmanipul ated
Ġtack ed
Ġcourt esy
ĠMiche al
tr ue
ĠBu y
Ġtrap s
ĠGill ian
ĠSur v
Te chnically
Ġsacrific es
Ġdivers ity
Ph il
mus ic
Ġawa iting
Ġconfir med
ĠOct ober
Ġtranspl ant
Ġconcl usions
appreci ated
B illy
C A
D es
H EAD
S ch
a is
b anks
h off
i uses
p at
p est
s ince
w a
Ġt urb
Ġt oned
at ches
Ġp od
Ġl ays
Ġg ard
ve lling
Ġre e
ow ulf
ver ts
Ġwh ist
et ically
ĠS oc
ĠS gt
ĠC ave
ĠH AL
ĠD ien
Ġsc attered
ak u
Ġde er
ĠG ee
ĠJ ourney
ĠJ UST
ĠN ope
ĠE instein
ĠO pp
ĠK ir
ĠK ILL
ine e
Ġover st
Ġad vised
ep y
omet own
Ġaw ry
iv a
Ġra id
Ġexce ls
Ġscript writer
Ġoriginal s
icul ate
Ġserious ness
ĠRe becca
In stead
Ġdevelop ments
Ġcapt ive
Ġdr um
Ġstra ined
how ever
ĠAd ventures
St an
Ġspoil ing
ĠTr uman
af oe
Th ink
Ġadvent urous
cent ered
Ġbreat he
ĠST ORY
Ġburn s
Ġelement ary
Ġdiv ine
Ġphotograp h
ĠPhil adelphia
John ny
ĠPal est
Ġdeg rees
Ġsuck ing
Ġtem ple
ĠAp es
Ġdeterm ine
Ġexpert s
Ġnecess ity
Ġscar red
Ġmask ed
Ġincident al
Ġfix ed
Ġsche ming
Ġske leton
Ġoverwhel m
Ġchuck les
ĠMod ern
Ġtraum atic
Ġune asy
ĠBry an
Ġsarc asm
Im agine
Ġgym n
Ġaer ial
Ġhandic apped
Ġdeem ed
Ġupt ight
ĠSchwarz enegger
Bru ce
ĠSelle ck
E ddie
G reg
H el
P ar
P art
R ex
b us
c ape
i ations
j amin
l und
n ames
p un
r ice
s pl
t aker
t urned
v ill
w estern
Ġt urt
Ġf ile
it ier
at hed
en sored
ar ming
ent ions
Ġwh ale
Ġwh ites
ce mber
ĠA G
ĠS EA
ĠB ax
ĠM ama
Ġ( *
ĠH our
Ġch ock
ĠD ue
Ġsu icidal
act ica
ant ically
ak is
ĠP as
ĠP ant
ĠP olly
ĠR A
ĠR hys
ĠL t
ĠL ampoon
ĠF ry
Ġcon g
au g
Ġtr ump
Ġgo at
Ġen force
ink le
Ġper ce
Ġkn ees
man ship
for mer
Ġsp oon
ĠCh ap
Ġfl owers
ĠIn f
ĠSt ack
Ġsl avery
Ġgr ating
oc olate
Ġke ys
Ġapp et
Ġneed ing
gg ie
ĠTh om
Ġel oqu
ition al
atch ing
Ġinter sp
umb led
ex pl
ott i
ĠMar ilyn
Ġcoll apse
enn ium
Ġtrans itions
Ġrid icul
sh ould
ĠMc M
Ġinf uri
rop a
Ġste aming
Ġlar gest
ĠPer kins
Al ice
ĠEl mer
An n
Th omas
ĠChe ung
ĠMe at
Ġident ities
IS H
con ceived
ĠSw anson
Ġcru c
Ġluck ily
Ġsqu ir
Ġsystem s
Ġserial s
Un less
ĠBar bra
Ġexplan ations
Ġunne cessarily
Ġcelebr ate
ĠBas il
Ġinsane ly
ĠVer on
Ġappl ause
Ġunfor g
Ġspark s
Ġcourage ous
ĠDep ression
Ġswitch ing
Ġlur id
Ġimit ate
Ġrespond s
Ġshel ves
Ġabsorb ed
Ġlabor atory
ĠShep ard
Ġlabel ed
ahl berg
ĠBach chan
aith ful
Ġunst able
ĠGle nda
ĠKle in
ĠMyr na
Ġretire ment
Ġrug by
) "
? ,
F ive
F rid
K ate
M c
M or
M iss
O CK
c amera
c urrent
m outh
u ana
v ict
Ġs ins
Ġf ier
Ġf uss
Ġf rog
Ġb ol
it el
Ġth irties
ll en
ed ric
Ġl ists
br other
Ġg au
Ġg own
Ġg ossip
Ġhe al
id or
ch ak
Ġas set
ĠM akes
ĠC ord
ĠD afoe
Ġfr at
Ġsc am
Ġcom r
Ġv essel
ol in
ĠP ap
ĠR ol
ĠR oh
ĠF a
ge red
og yn
ach t
Ġri ff
Ġcr ass
Ġdec ency
ram p
Ġrel ates
ris es
ank a
ĠShe ila
Ġkind ly
umb les
ĠZ izek
oke mon
Ġnovel ist
Ġwin ners
ĠCon roy
ili pp
Ġill um
Ġdru gged
Ġcreep s
wr ote
ĠItal ians
ĠGu ys
Ġstri pped
Th rough
Ġsick ness
Ġsleep walk
bl um
Ġaccident al
Ġporn ographic
Ġrad iation
Ġweek ly
Ġpun s
Ġlength s
gue z
ĠWhere as
ĠRam ones
ĠGar ner
osh i
Ġcoun sel
Ġris ks
ĠMaster son
ĠHall mark
ĠRom ance
Ġtack le
Ġsyn c
Ġdi pl
Ġscar ce
Ġpolic emen
ĠComp ared
Ġpuzz ling
Ġcommand ing
ĠMill and
Ġmas quer
unning ham
ĠRand all
Ġrestra int
ĠPen guin
Ġadmir ably
ĠHung arian
ĠElli ot
Ġdistingu ished
Ġparan ormal
Ġpad ding
Ġgloss y
ctic ut
ĠEst her
Ġdemean or
OTH ER
ĠScor pion
ĠHou ston
Ġ00 7
Sem it
upac abra
Ġovershadow ed
ĠZo ey
Ġsynch ron
ĠZeal and
Ġdia lect
ĠDene uve
D en
F iles
G ene
H ard
T ime
c ake
e arly
k h
l ady
n atured
s low
t ub
Ġa pl
re lease
Ġw atered
is se
Ġb er
ing ton
Ġc ath
Ġh ometown
Ġp y
Ġp up
Ġd ang
ic ial
le te
st ore
ve heart
ay er
Ġan chor
ĠA x
Ġha irc
ĠH ospital
Ġch ops
Ġat omic
un ters
Ġj am
ĠL ill
ĠL oved
ĠL ubitsch
ĠF aye
ĠN ove
ort ure
ig ley
Ġman ners
ĠK on
Ġcl o
Ġgreat s
Ġar bit
Ġdis rupt
Ġwhere in
Ġback ed
Ġback woods
we gian
Ġbr un
ual ity
Ġsl aught
Ġsl ips
Ġche f
Ġtri gger
ib i
gg s
Ġlet hal
ĠSo x
Ġmiss ions
Ġmon str
uff ice
Ġdist orted
ĠSte p
Ġret elling
Ġline ar
Ġviol ently
Ġsupport ive
ĠEd ith
ĠEd mund
ST ER
AT ION
Ġpredict ed
ield s
ĠKe anu
Ġpay check
ĠAny thing
aur ice
Ġcomb ining
ĠMon a
Ġoper ating
ĠMart ino
Ġment or
Ġ195 5
Ġhom oph
Ġhom icidal
Ġsweet heart
Ġjud ges
Ġcontinu ous
Ġtest ing
Ġspect rum
ĠAngel ina
Ġconflict ed
ĠCal ig
ĠRam sey
Ġfort ies
ĠGo ing
Ġwise cra
ĠDen is
Ġmotiv ated
Ġsubtit led
ĠWin ter
Ġrepresent ative
Ġrecall s
Ġkiss es
bur st
Ġmarry ing
class ic
Ġcas ino
Ġshut tle
ĠEve lyn
sm ith
ĠAir port
ĠCap ote
ocr atic
ĠRow lands
Ġdrown ed
got ten
ĠSyd ow
Ġestablish ment
ĠFant astic
Ġstir ring
Ġcondem ned
Ġindu cing
Ġori ented
Ġcommend able
Ġsear ched
icy cle
ĠNap ole
ĠDud ley
Ġling ering
Ġbim bo
ĠGersh win
App arently
ĠEste vez
ĠDeM ille
Ġflamboy ant
ĠDrey f
Ġunner ving
Ġslaught ered
A cc
B el
C ast
D oes
F ull
R ead
S uch
T ony
W or
d ain
m ur
m ash
r ational
Ġa venge
re el
Ġw re
Ġw iped
Ġb io
Ġb ench
ou ching
Ġth o
an ne
Ġp ressed
Ġd awn
Ġd uel
Ġd angers
ed ed
Ġl ac
ic key
Ġe ld
ut a
st ra
st orm
ĠT rap
Ġre lying
Ġst aple
ĠA y
ĠS G
ĠS ieg
ĠB land
ĠB ET
ĠM ast
ĠC hen
Ġ" ...
Ġch ip
Ġch oir
pe lled
ĠW E
ĠP ure
ĠL il
qu ite
ĠG ET
ĠN ag
ĠN urse
ĠO ak
ick ering
ĠK atherine
ars cape
Ġqu ib
Ġover acts
Ġover wrought
for k
ty p
Ġsp awned
Ġfl ame
Ġyour selves
Ġpr one
Ġ2 6
ĠU ma
Ġinc ess
Ġbefore hand
Ġacc us
Ġkind ness
Ġreason ing
ash ions
ĠTh ief
Ġmind set
Ġinter play
ĠDe anna
uff s
Ġsch m
Ġsk ipping
Ġcount ed
Ġpass ive
reme ly
Ġcor respond
olog ies
yn es
Ġbra w
Ġdr ool
ĠMichael s
ON D
Ġshock er
ĠAm en
Ġru ining
Ġsuff ice
Ġobs erved
af fe
Ġred neck
ĠKing dom
Ġinvest ment
ĠPat ient
Ġclos ure
Ġcompet ing
Ġterror ism
ĠMac Donald
ĠGold blum
Ġamateur s
Ġdefe nding
Ġlif el
Ġkidn app
ĠMcC l
Ġloving ly
AM P
Ġmut il
ĠSil ent
terest ed
Ġaccomp any
IR L
ĠRick man
Ġconcent ration
ĠCole man
ĠLore tta
ĠFair banks
Ġadequ ately
Ġpa ired
Ġpredecess ors
child ren
Ġconve ying
Ġgro an
ĠSyl via
ĠKr ue
Ġdistingu ish
ĠSold iers
Ġastronaut s
Ġrail road
ĠHarr iet
Ġstruct ured
Ġpenn ed
ĠPix ar
Ġcohes ive
ĠWR ONG
riz ona
Ġschizophren ic
ĠSche ider
Ġparag raph
Ġreci pe
asqu atch
ĠCamb od
enez uel
ĠVeron ika
' -
C itizen
D og
F ar
G ive
H appy
P D
P sycho
T E
b omb
c ould
c ap
c inem
h aving
h olland
l oe
t ail
Ġ >
in ous
Ġf ighters
Ġb ash
Ġb ills
at omy
Ġc ott
Ġp ipe
Ġg ypsy
Ġe er
Ġn ihil
ĠT on
Ġst ance
ĠS ic
ri ages
ĠB il
ĠB EA
ĠC im
ĠC AR
ĠC unningham
ĠH IS
Ġch au
ul u
ĠW a
ĠD aughter
Ġj ar
ess ions
el come
Ġso ck
act resses
ak able
Ġal arm
Ġde ception
ĠL aurie
ĠJ agger
ĠN ash
ook er
Ġup date
ĠO m
oy ote
ĠK i
ĠK el
Ġper t
te gr
Ġend ured
Ġover se
Ġpre val
Ġthr one
ĠCh avez
Ġunder go
ĠU FO
Ġem ail
ĠSh anghai
co at
." )
ex p
Ġrep air
Ġrep rodu
Ġwrong ly
Ġlight ly
ĠSe attle
Ġtalent less
Ġmis ogyn
Ġsw ift
Ġcol umn
AN K
Ġfore bod
Ġdream y
any on
Ġcool est
Ġdest ructive
work er
work ers
!!!! !!
Ġtruth ful
Ġshame ful
Ġmad man
ĠChe vy
Ġamb iance
Ġrap es
Ġball oon
you ng
AS H
ĠSci Fi
ĠAnt wone
Ġvirt ue
Ġtrust ed
Ġsurreal ism
ĠWal ters
ĠIm per
ĠMer chant
ĠRose mary
ĠSher idan
Ġsche mes
ĠKar ate
ĠStud io
Ġincompet ence
ĠGill iam
Tr ue
ĠHug o
ĠRee ve
Ġcompassion ate
ĠPo itier
Ġpir ates
ĠImp act
Ġgest ure
ĠRud y
ĠPur ple
Ġrecre ate
ĠGh oulies
Ġhypoc ris
Ã³ n
Ġlux ury
Ġvary ing
ĠNon etheless
Ġinsomn ia
ITT LE
ĠMinn elli
ĠWyn orski
ĠCec il
Ġtatt oo
ĠGov inda
Ġimpris oned
ĠSoc iety
2 000
C ap
G ener
H ead
I Z
L aura
M ovies
P al
U l
U nder
b ay
d isc
i ard
l ene
n ell
v yn
he ard
Ġs atellite
Ġf ashions
Ġp arrot
Ġd ial
ĠT owers
ow a
ver b
Ġst al
ch ange
Ġy arn
am ple
ĠS inger
ĠB irth
ĠM ae
Ġnot ing
ĠH ur
ĠH ag
Ġsh ady
Ġch op
ĠW TF
Ġpl acing
Ġv ag
ĠP E
ĠP ros
and re
Ġwor m
ĠR ide
ĠF uture
um i
um acher
Ġgood bye
Ġman aging
Ġup ro
ĠO men
Ġtr im
Ġtr icked
ĠK ies
Ġfun ctions
ĠCh op
Ġsl ot
Ġatt ic
Ġunder used
Ġunder dog
Ġinc om
Ġra pt
Ġche wing
Ġfin ishes
ĠSh ore
Ġco aster
Ġcre ations
ĠSp y
ĠAr kin
Ġexam ine
play er
ĠSe uss
Ġimpress ions
ĠMc Int
AT ING
che red
Ġbreak fast
rit ical
ĠPe gg
Al ong
Ġca f
Ġsuggest ive
iment al
ĠMor an
Ġtre acher
ĠFilm ed
Ġoper ate
ĠIr win
ĠAlex andra
At t
mon ster
ĠDen ver
Sc ar
Ġcateg ories
Ġles bians
ĠDem on
ĠSn ake
Ste ven
ĠComm and
ĠKill ers
ĠDoes n
cr ows
ĠTri er
ĠCarol ine
Ġdom ain
Ġcoinc idences
Ġsophistic ation
Ġpsychiat ric
Ġenorm ously
ĠLI FE
Ġresour ce
Ġcere mony
Ġunre c
ĠAW AY
ĠKat ie
Ġcollabor ation
Ġencoura ges
Ġencoura ged
Ġmisunder stand
Ġinstr uments
Ġdiamond s
mill ion
Ġfi asco
ĠKaz an
ĠChamp ionship
Ġdope y
ĠConne cticut
Ġplag ued
Ġmirac ulously
Ġlaun ched
dram atic
orient ed
Ġautobi ography
Ġretrie ve
Eng lish
ĠLetter man
Ġconstra ints
Ġquint essential
Ġdisconne cted
ĠFors y
Ġmarvell ous
ĠLenn on
Ġwhims ical
4 5
B ar
D irty
L aw
L ater
L ord
L ewis
a ft
b es
b ag
c ou
d ark
h ome
h iker
j or
l it
l owski
o ving
r at
r ion
he rence
Ġs aint
Ġo we
Ġb ay
it ially
on c
Ġh ooks
ic ating
Ġg ust
al ent
il k
ĠT ome
Ġon going
Ġst ag
Ġst able
Ġst akes
Ġst ern
ke e
ĠA rizona
ĠB erry
Ġbut chered
ĠM P
ĠM ut
ĠM ans
ĠM abel
ĠC R
ĠH ost
ĠD ist
ĠD umb
Ġex hilar
Ġk inky
Ġall ies
us o
us ually
Ġal a
th ood
Ġde ed
ĠR KO
Ġout door
Ġr ay
ĠF E
ĠF aw
ĠF anny
qu ake
Ġcon tend
ĠN ar
Ġun finished
ĠE cc
ĠO VER
ĠO mar
ĠK eller
Ġqu arters
Ġover used
Ġover night
for ced
Ġdis par
Ġus age
Ġam nes
Ġfun ky
ep id
Ġbl iss
ens ively
ĠSt ri
ru ctor
Ġimp ly
iv ated
Ġra vis
Ġsub s
Ġentertain s
apt ure
ok ay
sc ript
Ġtalk ie
Ġmon ks
Ġyear ning
ove red
ĠSe infeld
Ġwa ist
ister s
ger ald
Ġsupport s
ĠIs a
Ġannoy ance
Ġsn oo
Ġinf ilt
ĠBrit ney
urb in
ole mite
Ġdisc l
Ġpot ent
ĠAd venture
Ġbox es
ĠSam urai
Ġmil it
ĠMor ning
Ġfree ze
Ġru gged
aling rad
Ġsens ibility
uro pe
Ġexpress es
Ġcirc a
Ġrevol ting
Ġhair y
Ġidi oc
Ġ196 7
appe ar
Ġgod s
amb les
Ġdef y
Ġhost s
ĠCo en
Ġelect roc
Ġblock busters
do ing
ĠLind say
rad er
Ġbot ched
Ġarch ae
ĠWild e
ĠMic hel
Ġspin ning
Ġgig gle
Ġincident ally
ĠVinc enzo
Ġworry ing
ĠDun can
Ġcous ins
Ġmagaz ines
Ġprofession als
ĠMid ler
Ġvulner ability
Ġvenge ful
every thing
ĠTob y
ĠFall on
ĠKer r
Ġrul ed
ĠClay ton
Ġshowc ases
Ġathlet ic
Ġperman ent
ĠGlob e
ĠJod ie
Ġdiab ol
Ġunrem arkable
Ġbloods hed
ĠHil ary
ĠChamberl ain
ĠRodri guez
Thing s
ĠKrue ger
Ġpreval ent
Ġforebod ing
' ).
2 4
D am
D ick
E vil
N G
O ID
W onder
W ARNING
c amp
g ame
m id
p ah
t i
t ies
u y
w renching
x y
Ġt its
Ġs way
Ġm aze
Ġm aturity
it he
en ne
Ġh ollywood
Ġh ockey
ar ine
ar ms
ar ians
as ive
Ġin ch
Ġl oner
Ġl umin
br inging
ĠT ap
ilm ore
ĠS M
ĠS unny
ĠB ang
ĠB arr
ĠB omb
ĠC rew
ĠC anyon
ĠH umph
ĠW it
ĠW ahlberg
un ce
Ġsc ree
Ġex uber
Ġv oting
th ose
ĠP ic
ĠP umb
ĠP enny
Ġout put
Ġcon vert
ĠG on
ĠG ol
ĠJ udd
Ġher d
Ġjust ification
ĠO ften
Ġfe ared
Ġtheir s
ĠK ING
Ġcl ums
ap on
ade qu
ff aut
per ate
Ġte nded
Ġaw arded
), "
Ġfam ed
Ġstr ate
Ġes p
Ġclass ified
Ġcons umm
de ath
Ġinst ructor
Ġel usive
wh atever
Ġvers a
Ġvers atile
Ġdel ve
ilar ious
.... .<
Ġvis cer
Ġsk ipped
Ġanim ators
Ġsy nd
ĠAt will
In c
Ġsmall est
ug itive
ĠLe ave
Ġstra in
ump ing
Ġpredict ability
Ġdeep est
Ġprem ises
Ġtreat ing
apan ese
Ġintellig ently
Ġve t
ĠCom ing
Ġproject ion
Ġlaw n
Ġrob otic
Ġbiz ar
Ġtort uring
Ġtest ed
Ġdig ress
Ġdread fully
Americ ans
Ġdisappe aring
Ġcrowd s
ĠEr nie
Ġprotect ing
ĠSus p
Ġrepresent ing
ĠDar cy
Ġearn s
ĠQue ens
Ġemp ath
ĠLam bs
Ġoutrage ously
ĠHad ley
aude ville
Ġnu ance
ĠDa ily
ĠCharl ton
Ġrev ive
ĠAndre as
Ġautom atic
Ġtow er
ĠMid night
ĠMet al
Ġnail ed
avor ite
Ġburst s
ĠKath ryn
Ġdismiss ed
Ġdrown ing
Ġillustr ate
Ġtool s
Ġsacrific ed
ĠSyl vester
ĠMuslim s
hist oric
ĠMcD owell
ĠConf eder
Ġjer ky
ĠLoren zo
ĠScreen play
Ġskateboard ing
ĠMey er
ĠFitz gerald
Ġcaps ule
ĠGree ce
Ġangu ish
Ġinexper ienced
Ġneut ral
Ġirresist ible
Ob viously
arte nder
ĠRaim i
ĠDuchov ny
ĠBax ter
Ġintersp ersed
Frid ay
" ).<
2 8
< <
B ey
M ac
P ersonally
S S
T ube
b red
b ath
g ive
p ass
s ur
v ice
Ġw aking
is le
er ies
Ġm am
Ġth ri
Ġp ap
Ġp udd
ar ia
om i
Ġg oth
st ros
Ġre wind
se at
Ġst or
Ġst adium
Ġas pir
ĠB ath
ĠH olden
Ġsh akes
Ġsh oved
ul ed
ĠW ANT
ĠD ialog
Ġsc ra
Ġsc ru
Ġpl ug
Ġpl ung
ĠP ossibly
ĠL ot
Ġout look
ĠF i
ĠG ulliver
ĠK or
so cial
Ġkn ee
man y
ine a
Ġqu aint
ert s
Ġro bbing
Ġsp ice
ace y
ĠBut t
ĠIn v
ĠIn visible
Ġdes olate
Ġ2 50
ĠU ll
Ġ19 0
the ir
oc ol
Ġinteresting ly
Ġbo ards
Ġmean ings
Ġstand point
Ġsuper l
Ġconf ines
Ġconf irm
Ġsit es
sc ary
Ġtalk y
not iced
ĠBe ar
Ġret ro
Ġgra in
ĠMar vin
Ġlight weight
ĠNo ir
Ġmis placed
Ġfant astically
Ġpop ul
Ġmaster mind
Ġdoc uments
ches s
Ġprom otion
Ġir responsible
yp her
Ġpsych ologically
Ġdream ing
Ġprot ot
Ġsent enced
Ġtre k
Ġtruth s
Ġ199 2
ĠPr ime
ĠMe h
zz zz
TH ER
Ġ194 4
Ġghost ly
ĠStre ets
reg n
ĠDra g
Ġden ying
Ġted ium
ĠRo ach
ĠSil ence
ĠWin ner
Ġintellect ually
Ġmanipul ate
ĠJan uary
Ġuncom prom
Ġsal oon
Ġvol umes
Ġcann on
Ġreun ite
Ġthro ats
ĠANY THING
Ġrev ival
orc ism
Ġcance lled
Ġborder line
Ġoccup ation
Ġneighb our
Ġramp ant
ĠTot al
ĠSilver man
Ġelim inated
Ġcondem n
numb ers
ĠDiv ine
Ġshameless ly
Ġalleged ly
Ġenthr alling
ĠTW O
fr ame
Ġclin ic
ĠZh ang
Ġvideot ape
Ġost ensibly
ĠCinemat ography
ĠBul gar
Ġfier y
Ġincom plete
Ġunrec ogn
- "
A p
C o
D em
L ee
M E
N O
P aris
R on
S how
c illa
g od
l ia
l ma
p ot
u ction
Ġ ),
Ġt epid
Ġw renching
Ġo mn
Ġf athom
Ġb artender
it age
Ġp ond
Ġin fin
Ġl ure
Ġg ently
ie lle
ow der
se nd
id ays
Ġu gl
Ġan onymous
ĠS ense
ĠS up
ĠThe odore
ri gan
ĠB ing
ĠM ills
ĠH els
ome o
Ġch alk
if iable
ĠD ario
ĠD assin
ĠD urbin
Ġj oking
us ingly
Ġv it
Ġv anity
ĠP ed
ĠR i
ĠR ider
ĠR idd
ĠR ene
ĠL ITTLE
Ġout burst
Ġr idden
ĠG ir
Ġme ch
Ġun av
ĠE agle
ĠO lsen
Ġthere of
Ġcl ar
Ġdid nt
te ch
Ġam oral
ile en
aw d
Ġgu id
Ġsp arse
ĠCh iba
Ġfl ed
ĠV ig
ĠBut ter
ĠBut ler
Ġrec oll
Ġbr anch
Ġpr aying
less ness
Ġtra it
az ed
Ġev al
Ġev ac
Ġev ocative
ons ense
ris cilla
Ġmust ache
ĠYou Tube
ĠSh oot
Ġco h
Ġcar pet
co aster
wh om
Ġdel inqu
sp ace
sc ale
Ġunderstand ably
ix ed
ĠAr nie
ĠMar ines
ax i
iant ly
ĠCar roll
ĠLe vy
Ġdark ly
ific ent
Ġsuccess ion
Ġpur ple
ĠHar low
Ġcheap er
Ġpos itions
Ġbreak through
unt il
ĠIM O
lin er
Ġsens ibilities
Ġstri pper
ĠBen jamin
with standing
Ġ: -)
boy friend
ĠFirst ly
Ġcontinu ously
Ġ194 7
Ġpun ish
Ġpun ished
ivers ary
ĠJeff erson
Ġsto ic
Ġoppos ition
Ġpen chant
Ġfriendship s
Ġtour ists
ĠJud ith
hero es
Ġaccompl ishment
Ġbuff oon
Ġbuff alo
Ġarm or
Ġfle eting
Ġassoci ates
Ġinh uman
fl ick
ĠBE ST
Ġemp ire
ĠRen ee
sm art
Ġoverwhel med
Ġmock ing
AA AA
Ġcorpor ation
iffe rence
van ia
bal anced
Ġpatri arch
Ġrat io
Tit anic
Ġsadd est
Ġarchite cture
Ġrebell ion
Ġtransp arent
ĠGos ling
ĠDoll s
ĠMarc us
Ġbaff led
ĠCrit ters
ĠPu erto
Ġcensors hip
Ġdownt own
ĠTun es
Ġprolong ed
Ġconn iving
Ġinsignific ant
Ġbrun ette
Ġhypocris y
9 5
B on
C at
G host
I AN
S R
V amp
V inc
c ie
h usband
h urst
j u
p y
p anic
s ometimes
w on
Ã ´
Ġa fic
in ates
in teresting
Ġm uted
an ie
Ġd ash
ed ited
Ġl ull
Ġg oose
Ġn ap
Ġn uns
ly de
ĠT s
im ated
im ony
Ġst ares
et ch
ĠA rist
ĠA sterix
Ġha ired
Ġha bits
ri ers
ĠM is
ĠC oc
ĠC rist
ĠC edric
ĠH mm
ĠH utton
ĠD C
us ional
Ġde pendent
ĠF ine
ich i
pt uous
Ġtim ed
Ġle aps
Ġwat cher
Ġlo cks
Ġthere after
Ġcl ick
Ġim ple
ne g
int o
Ġbl ames
ark s
Ġrec ount
Ġbr ick
Ġsl ang
ĠU h
Ġra ck
Ġra unchy
az i
Ġfew er
Ġsupp lies
Ġsm army
app ro
Ġwar ped
ĠAn iston
Ġepisod ic
aps haw
ĠSc ene
ĠUn iver
Ġhist rion
ĠCl arence
Ġbeh alf
ĠRe iser
ĠZ en
Ġconc rete
ung a
Ġinf at
Ġprom oting
ats u
Ġsol ving
OR D
vol ving
Ġprem ie
ĠPe ace
Ġcompl ains
Ġsign ature
Ġeng agement
work ed
Ġweird ness
sw orthy
ĠSch umacher
Ġstere o
hys ical
ett a
Ġexpress ing
cher y
Ġ195 1
Ġcollect ing
Ġsleep y
Ġneg ot
Ġbrain w
ĠPro blem
ĠFred die
Ġbull ies
ĠBer gen
Ġoccur ring
Ġcuri ously
ĠCr ime
AL K
Ġrelie ved
ĠSy ndrome
200 5
Ġprint s
Ġconsist ing
Ġic ons
Ġbond ing
ij uana
Ġwitch craft
ĠGener ation
Ġconcent rates
ĠOff icer
Ġreun ited
Ġinhab ited
Ġbutt ons
ĠDa isy
Ġmock ery
Ġcy borg
amor ph
ĠFu jim
Ġtender ness
Ġbudd ing
******** ********
Ġwidow ed
ĠKath leen
En ter
Ġprejud ices
fight ing
Ġpubl isher
ĠSqu are
Ġelim inate
Ġanx iety
ĠCrow e
ĠKl aus
Ġrant ing
Ġrecon c
Ġexhaust ed
Ġsear ches
ĠAF TER
Ġepit ome
ĠLed ger
Ġfabr ic
ĠIncred ible
Ġbiol ogical
ĠBOR ING
Ġinnuend o
ĠDress ler
ĠVent ura
Ġacad emic
ĠByr ne
Ġoverse as
Ġafic ion
F rench
H ope
K im
N ic
N ice
b by
d ent
i ress
k an
p it
p orn
p oor
w ald
Ġw ipe
Ġb arn
en ingly
Ġh i
ĠI sh
br ows
Ġn ic
st upid
Ġhe aling
et le
ch io
ĠA K
ĠS urprisingly
ir teen
ro id
ĠB ah
ĠB uffy
ĠB ynes
ĠM ong
ĠM ish
ĠM ORE
ĠH os
ĠH orn
ĠH agg
Ġsh outs
ul king
ĠW ins
ĠW ERE
ĠD ak
ĠD ubl
ust omed
ant asm
pp ings
Ġal ot
Ġv alley
th ia
ĠP O
ĠP assion
Ġwor ms
ĠR ah
ĠR ae
ĠR abbit
ĠL E
ĠN oon
ong ru
ge ist
Ġshe nan
ell ed
Ġcl oth
Ġkn ack
... ).
Ġbad ness
ert igo
Ġdis dain
ĠCh ance
ĠV enezuel
Ġback yard
ild ing
ĠSt ro
the med
Ġtra itor
Ġcomp ares
app arently
ord id
ov an
Ġext r
co on
Ġrest ore
Ġmon stros
Ġsk ating
Ġmar ch
ĠCl oud
Ġret ains
ĠRe view
ĠNo el
Ġform al
Ġform id
ĠLe one
Ġz eal
Ġpar aph
Ġtou g
Ġeff icient
Ġcol onel
Ġinf idelity
Ġir rational
Ġste pped
Ġdream ed
Ġair ing
Al an
ĠMor se
Ġfree ly
aby rin
Ġclim ate
ĠCol omb
ĠSch rader
Ġlim bs
Ġexpress ive
ask a
Ġrich ly
ĠLu kas
Ġrevol ve
Ġachie ving
cent ury
ĠSw itzer
ĠIr ving
ĠMac L
ĠGold sworthy
Ġ194 3
ĠAg atha
He aven
Ġtrag ically
Ġaim s
Ġmob sters
Ġjunk ie
Ġconsist ed
Ġbath tub
Ġfund s
Ġextraord inarily
Ġpal p
Ġcompos itions
ij ay
ĠComm ander
ĠJac obi
Ġsimpl er
Ġattend ant
Ġdisappear ance
Ġglob e
Ġmerc en
Ġmic ro
Ġmaint ained
Ġhumili ation
Ġillustr ates
Ġgall ery
ĠCong ress
Ġech oes
Ġstrang est
Second ly
ĠNorm ally
ĠIran ian
Ġbaff ling
Ġenlight en
cip her
Ġexpand ed
Ġstim ulating
ĠGard ner
Ġwoe fully
Ġbleed ing
Ġcolon ial
Ġinterrog ation
ĠViol ence
stru ck
Ġspont aneous
Ġsquee ze
ĠConc orde
Ġdut ies
Ġunsuccess ful
Ġtransvest ite
Rem ember
educ ated
Ġunforg ivable
Ġstal wart
Ġravis hing
G iven
I EN
M rs
O ff
R ight
T alk
b re
e er
l eston
r ane
y man
Ġt ensions
Ġs ack
Ġc ater
en h
Ġth wart
on st
Ġh unky
Ġp ianist
Ġd y
Ġin adequ
Ġe cl
Ġe got
ot ers
al ian
ent ation
Ġst u
Ġst itches
ĠA ck
am ura
Ġha ph
ĠB O
ĠB is
ĠB ir
ĠB ren
ur ally
ĠM I
ill es
ĠC ah
ĠH OT
Ġsh rew
Ġch amber
ĠW OW
un ge
out ed
Ġab omin
Ġde fect
Ġde vious
ĠP un
ĠP ublic
ist a
ĠR aid
Ġr anging
ĠF ingers
um ably
ig ator
ĠO cc
ab outs
ĠK utcher
Ġper me
Ġkn ight
ap ocalyptic
ac o
Ġro de
Ġdis fig
ish ly
Ġsp ared
Ġte amed
Ġhor n
Ġbr ush
Ġsl ows
Ġatt ribut
Ġgr ant
ĠU gly
Ġmus h
Ġra ving
Ġdown beat
Ġcomple ment
Ġapp alled
ĠBr its
Ġco in
Ġsurp asses
Ġsurp assed
ĠWe ird
Ġsuper market
ĠDe cember
Ġmen u
ĠAr ts
Ġret ain
ĠCar ibbe
Ġpar as
ĠHar bor
ĠSome body
Ġbra v
Ġcost uming
ĠMay or
OR T
ON S
Ġswe ep
ĠKe itel
Ġprot ective
Ġunc ont
ĠAd mittedly
My stery
ĠSam mo
Ġemb od
sw orth
Ġlaw yers
Ġ195 3
rif ically
OO M
Ġcond es
Ġ: -
Ġble nds
Ġbother ing
Ġrad ar
Ġroad s
ĠBer k
Ġmagic ian
Ġartist ically
Ġimpl ications
Ġdisaster s
Ġcorrect ness
Ġresc ues
ĠPart icularly
Ġpen is
Ġgri ps
ĠShakespeare an
ĠCam illa
Ġpriest s
ĠSy b
Ġver dict
Ġinterpret ed
Ġopt ions
Ġcivil ian
Ġgru ff
Ġconsist ency
ĠVer onica
ĠEll is
Ġskill fully
Ġda ft
ĠFre ud
199 9
Ġrevel ations
craft ed
ĠPri est
ĠScar let
ĠCann ibal
!!!!!!!! !!!!!!!!
asion ally
Ġtempt ation
ĠSol o
ĠSol omon
Ġstyl istic
Ġcitiz en
Ġreli ed
Ġchamp ionship
ĠGal actica
Ġgradu ation
ĠEle anor
ĠAW FUL
Ġsteam y
Ġapolog ize
Ġstabb ing
Spe aking
Ġoptim ism
ĠMas sey
Ġjewel ry
Ġren owned
Ã¨ re
blood ed
ĠMath ieu
Ġmonument al
Ġdiscern ible
quest ion
Ġschol ars
ĠInst inct
ĠPars ons
ĠKol chak
Ġpredic ament
ĠPry or
Ġheter osexual
Ġdipl om
ĠNove mber
Ġmonstr ous
Ul tim
Ġgust o
Ġhaph azard
+ +
B E
C ind
H a
H itch
H arry
M ike
R eg
S P
W AY
b in
k ers
l ation
t rap
w ould
Ġ ...<
in spired
Ġs ib
Ġs omber
Ġw its
Ġw oke
Ġw ires
is ive
is ure
nd ry
Ġc ert
en act
es p
on ia
Ġh ug
Ġh unk
Ġd iving
al as
ĠT omb
ĠT ai
Ġst ew
Ġst umbling
ĠS em
ĠS ort
ĠS osuke
ro ps
ur ro
ĠM az
Ġnot ions
Ġnot icing
ĠC ult
ĠC apshaw
Ġsh iny
ĠW ant
ĠD arth
ĠD ouble
ĠD irk
ĠD rama
ĠD odge
Ġdo l
Ġso cks
act ress
op atra
Ġde fic
ĠP au
ĠR u
ĠL ili
Ġout do
ĠF F
ĠF lying
Ġint ros
ĠG ut
ĠG IRL
ĠJ ared
Ġpro verb
Ġchar ity
his e
ud der
Ġlo d
Ġfe isty
Ġen su
ĠK os
Ġcl ients
Ġar row
Ġpre fers
other s
Ġag gra
gin ning
Ġbl o
ĠY as
ĠV innie
ĠHe at
Ġrec overed
ĠSt ick
Ġpr anks
Ġcr ummy
ail able
ect or
Ġche ats
Ġbelie ver
oc us
Ġscreen plays
Ġright fully
Ġhel m
Ġclass mates
Ġwar fare
Ġrun away
co very
ah on
dd ing
sp oon
ĠDe borah
Ġmar athon
Ġbeh aves
Ġdefin ing
Ġsy ndrome
Ġsy rup
uth or
ĠSe ed
Ġdri fter
Ġdri vers
Ġdri pping
Ġreg ist
Ġtrans f
oub t
Ġcomment ators
Ġpat hetically
Ġhon orable
Ġopp onents
AN E
Ġtype cast
Ġtechn o
Ġlocal es
!" )
rom antic
ĠPh ilipp
Ġexist ent
Ch ild
ĠPr ide
Th ird
Ġclever ness
Ġemotion less
Ġcollect or
ĠMe et
ĠMat te
ipp y
ĠGl ass
Ġunin spiring
Ġtest s
Ġrepl acing
ĠAlex andre
First ly
ena issance
Ġdig est
ĠAnt o
ss entially
ĠHard ly
Ġthank ful
Ġcontem por
ĠSl ater
Ġdeserved ly
Ġmagnific ently
Ġbank rupt
Ġdi ary
ĠMal colm
Ġsal vation
Ġlink s
Ġrival ry
Ġstalk er
ĠUs ing
Ġade pt
ĠBL ACK
Ġalleg ory
Ad am
ĠLI KE
Ġdecl ared
Ġsail ors
Ġprofession ally
Ġreb u
See ing
Ġpa uses
ĠConn or
Ġgradu ate
ĠFore st
Ġmaint aining
Ġpatter ns
Ġinher ited
ĠLang don
Ġgimm icks
ĠSen ator
Ġovert ly
Ġcannibal ism
Ġintim acy
Ġadul tery
ĠNathan iel
ĠWel ch
Wr itten
Ġcomprom ise
Ġatroc ities
Ġparad ise
lest ar
ĠCarly le
Ġupst airs
ĠMend es
ĠBS G
ĠPak istan
Ġscant ily
ĠGeoff rey
Ġsalv age
Ġpadd ed
Ġidioc y
Ġviscer al
ĠUniver se
" '
- '
2 2
3 7
C amp
F ire
G irl
M M
N one
P G
S A
W ould
d et
d ancing
e nding
e ffects
h ou
s ort
s ided
Ġt iger
Ġs ordid
Ġw ed
Ġw ry
Ġw arden
Ġw ielding
Ġo unce
Ġf er
Ġc ues
Ġc rop
es us
ar ling
Ġd ared
Ġd ung
Ġl aps
Ġl yn
ĠI v
ic les
le an
ie ge
Ġre new
Ġst ature
ch ief
Ġmovie goers
ĠB one
ĠM and
Ġat he
ĠD ahmer
Ġdo ses
Ġex ternal
Ġpl oy
Ġall uring
Ġde ck
ĠP av
ĠP ia
ĠR ip
ĠL ate
ĠF ur
qu eline
pt ions
Ġun lucky
ĠE asy
ond o
Ġpe arl
Ġbad die
Ġar ise
Ġim perfect
Ġad ored
Ġam ok
Ġpart ial
ĠV ers
Ġser um
ip her
ĠIn side
we igh
Ġatt ributes
Ġcr us
iv or
Ġap ocalyptic
Ġra bid
oc used
Ġbit es
Ġtri ps
ib an
aster s
uck ed
Ġplace ment
Ġpres ume
ks en
sp oiler
Ġph rases
Ġey ed
ien ne
ĠBe owulf
ĠSc ript
Ġunt r
Ġloc ale
ĠZ ep
gr own
Ġpass enger
Ġexam ined
ĠCar on
Ġpower fully
Ġdark est
ief er
ĠHar lin
Ġfine ly
ĠChar ley
Ġfore head
ĠWar riors
Ġsle eper
ĠPl ain
ĠPet erson
Ġbody guard
ĠCon nie
Ġunc redited
go er
Ġcreep iness
Ġinte nds
Ġstrugg led
ĠQu igley
ĠAf ro
ged ies
ĠWorld s
Ġsatisf actory
Ġrap ing
Ġwild life
ĠFl at
ĠMel bourne
ĠCor por
ĠST R
ĠNor a
Ġsurround s
ĠCal vin
ĠGar cia
Ġpen ny
hol m
ĠMus ical
ĠSl ow
Ġemploy s
ĠCam era
Ġlay er
ĠDam ned
ĠNorth am
Ġpu ke
ĠLi otta
Ġgross ly
ĠJess ie
Ġcolour ful
Ġbag s
Ġcompan ions
Ġrot ting
ĠCas sel
Ġlift s
ĠSon ny
Ġfulf illed
ĠDad dy
Ġlyr ical
idel ines
ĠCub an
Qu ite
Ġecon om
ĠSC R
ĠTru ffaut
Ġhumili ating
Ġtrend y
ĠEVERY THING
ĠBab ette
ĠEli jah
Ġrefuge e
Ġapt ly
Ġobliv ion
Ġflee ing
Sim ply
Ġunle ashed
Ġenthr alled
Ġawaken ing
ĠJed i
ĠParad ise
ĠHawai i
leman ia
Ġprepar ation
Ġturt le
Ġenforce ment
Wor st
Ġguid ance
ĠCaribbe an
C apt
D oo
E VER
F ran
H ot
J ose
M ake
N ick
W alter
h l
h om
k ar
k id
u i
u ki
w omen
Ġt read
Ġt ennis
Ġs ir
er rill
nd ers
Ġf rig
Ġb ickering
or o
Ġd iction
Ġd ata
Ġl ump
om odo
Ġg ren
ĠT ell
se ction
ĠA HEAD
ĠS it
ĠS erv
ĠS uffice
ir ious
ri ad
ĠB ly
ĠB ag
ĠB ere
ĠB ank
ĠB unch
ĠM J
ĠM ant
Ġsh rie
Ġsh irts
Ġch ocolate
Ġat e
ĠD U
ĠD ob
Ġdo ck
ant ine
ag et
Ġv ind
th ree
th odox
ĠP arents
Ġwor ries
Ġr ust
Ġcon form
ort ment
Ġun noticed
ĠO g
ĠO ri
ĠK il
Ġper sec
our ge
Ġwill ingly
Ġro gue
Ġam erican
ob viously
ial ity
ĠY ard
ans om
Ġbr isk
Ġspe lling
Ġinc ongru
Ġhapp ier
Ġimp regn
Ġgen etic
Ġsupp orters
Ġsm ack
Ġneed lessly
Ġfar c
Ġworld wide
ĠBr as
ĠTh in
Ġinter ven
Ġac rob
ĠBl ank
ĠAll y
ĠAll an
Ġhome work
Ġele ction
Ġass ortment
Ġcra cked
idd y
elt a
ific ations
Ġpred ator
Ġannoy s
Ġcol ony
yp o
ĠHer oes
ĠAm ber
ĠAd a
Ġeng ulf
Wh atever
ye ars
Ġgrand son
Ġgrand ma
Ġoper as
ĠEx ec
Ġrecogn ise
ĠBy ron
ĠTim my
room s
Ġpun ks
Ġloud ly
Ġthreat s
Ġoffer ings
ĠBel g
ode on
Ġdiscuss ions
Ġkey board
Ġspectac ularly
film s
ĠWin ston
Ġdu plic
ĠDem i
zan ne
Ġpit ched
Ġwarning s
Ġtor ch
ĠCast ro
Ġcring ing
Ġreject ion
Ġquir ks
ĠNE W
ĠGet ting
Ġevol ve
Ġfarm ers
Ġcust oms
ĠMill igan
ĠDie go
Ġgar nered
Christ ian
ĠArm ageddon
Ġenh ances
Ġplant ation
Ġdevast ated
Ġimit ating
Ġmic roph
Ġ; )
Ġastonishing ly
Ġconclud es
Ġindul gent
ĠTal bot
Ġouts ider
Ġcurs ing
Ġindic ates
Ġprev ents
Mur ray
yll en
Dis ney
Ġdisin tegr
Ġapprox imately
spot ting
Ġarche ty
Ġcatal og
ĠAde le
Ġsnipp ets
ĠMau reen
Ġdiscipl ine
Ġtempor arily
ĠKies lowski
Ġpremie red
Ġshenan igans
Ġformid able
abyrin th
ĠSwitzer land
Ġpalp able
( !)
6 6
B aby
D ie
E ver
L uc
P rodu
P LE
R ad
R OR
c ano
e arth
f old
g ob
h oles
i ates
j andro
l ast
n st
p ath
s pecially
w ords
Ġ ??
he ar
Ġw izard
Ġf oster
Ġf isher
Ġm ortal
Ġb ury
Ġb achelor
Ġof t
Ġp awn
Ġd ense
as ks
Ġl ap
Ġg amb
ut z
ut or
Ġmo l
ĠT at
ĠT orn
ĠT ucker
ad os
Ġst oop
Ġst abs
et ra
ce y
ld a
ĠS L
ĠS S
ĠB A
Ġli zard
ĠM O
ĠM ich
ĠM ile
Ġwe aves
ĠC SI
ĠC OULD
ĠH oney
ĠH ER
Ġsh ack
Ġsh ore
Ġsh rill
Ġsh ifting
ĠW B
un like
Ġj ig
Ġsu e
Ġal oof
ĠP ress
and ering
ĠL OOK
Ġr ushes
Ġr anges
ĠG ed
ĠG ates
ĠN igel
Ġun mist
Ġman ga
Ġman nered
Ġup bringing
Ġmy ths
ore an
itt ered
Ġkn ives
ac cept
Ġro oted
aw ning
ĠY ul
ĠV ir
Ġser geant
ang o
ach ael
Ġspe lled
Ġsl ipped
Ġmin es
Ġcr am
ock ing
Ġdec ay
Ġtra gedies
Ġcomp ound
ween ey
Ġkid die
ĠBr idge
ĠAn ita
Ġadd resses
lud es
Ġgl amour
ĠTH INK
Ġmon itor
ĠBl ob
ĠBl unt
ins ale
ĠCl if
ĠRe ese
Ġmess ing
Ġheart less
Ġdra ined
ĠZ ach
Ġind ifference
Ġcoll ar
Ġtrans cends
ĠEng lund
Ġsn ap
Ġsn ail
Ġdr astically
Ġfoot steps
Ġpos itives
Ġfut ile
Ġdisc rim
Ġsubt let
Ġmoder ately
Ġequ als
Ġquestion ed
Ġeye brows
ĠCol bert
Ġid yll
ĠGra ve
Ġunique ly
?) <
Ġfamiliar ity
Ġrequ isite
Ġtravel ed
ha al
ĠBill ie
Ġstereotyp ing
ipp i
ĠFl ore
Ġ194 2
ĠMiss ion
rem ember
ĠWW I
Ġvirt ues
IC T
Ġaim less
Ġawkward ly
Ġempt iness
Ġtur gid
ĠWin chester
Ġring ing
Ġcateg or
Ġcircumst ance
Ġgoof s
sec ret
ĠCat woman
Ġfict itious
ĠColl ege
Ġbond age
add a
Ġexpos ing
Ġstalk s
ugos l
ĠDep artment
ĠCap ra
Ġfulf illing
Ġcock y
Ġrelax ing
ĠGriff in
Ġgal axy
Ġconvict s
Ġinfect ious
ĠFair y
handed ly
ĠWould n
Ġhood l
ĠKath arine
Ġpig s
Ġimperson ation
Int erest
ĠFour th
aph ne
Ġmonot one
Ġvoy eur
Ġadoles c
Ġplat form
ĠKn owing
Ġcul min
Ġjer ks
Ġsupreme ly
Ġsummar ize
Ġchees iness
Ġmargin al
ĠBin oche
ĠVill age
Ġunem ployed
Ġprivile ge
Ġsabot age
Ġhardship s
Ġunde veloped
Ġsophom oric
Ġdistaste ful
ĠTiff any
ĠCim ino
ĠEcc leston
Ġuncomprom ising
ĠHels ing
yllen haal
' ),
( ?)
B oring
D own
D ennis
F ox
L ong
S y
S on
S ar
Y our
g age
i ated
j e
l man
l iness
n et
n ick
r uder
s ure
z man
Ġt iring
Ġa ura
Ġs ap
Ġs igh
er g
it ate
at uring
Ġc ub
Ġh iring
Ġp oop
Ġg n
Ġg ays
Ġg ull
le ine
st ud
ĠT il
Ġre ply
ent e
Ġhe ir
Ġwh ine
Ġwh ip
Ġst unk
am y
ĠS r
ĠS eth
Ġse m
ri ot
ĠB AB
ĠM R
ĠM ER
ĠM ON
ĠM aurice
ra ine
ĠH oo
ĠH assan
Ġch ainsaw
ĠW ife
ĠD V
Ġso re
ol ia
op al
Ġde eds
ĠP ert
ĠP erson
ĠP ER
ĠP okemon
and ez
ĠL uther
ast ered
Ġr ation
ĠF reak
qu ir
ĠG I
ĠG ert
ĠG ilmore
ĠJ urassic
res olved
ĠE dd
ĠE lect
Ġgo ers
Ġno b
Ġno ve
Ġper vert
Ġpe ek
Ġpe asant
av ian
Ġam iable
ish i
ere r
ian ni
Ġbl ob
ĠCh ong
iz zy
ĠV S
be autiful
Ġsl ash
Ġgi ants
Ġgen iuses
Ġsub conscious
li ved
Ġtri ple
ib als
ced es
ĠBr ooke
Ġcar riage
Ġart iculate
ĠAn and
ither spoon
Ġdel usional
Ġinter min
Ġpol ite
ph a
sp ring
Ġdep ri
ĠSc ore
Ġmar riages
Ġ4 2
ĠRe b
ĠLe ar
Ġref und
Ġside walk
Ġsn iff
Ġprom inently
Ġopp onent
ĠPl ane
ron ting
Ġ200 9
Ġdisc onc
Al most
ĠEl ton
Ġodd ball
Ġmet iculous
Ġwit less
ĠSm art
For get
zz ie
Ġformer ly
imp ortant
ĠSer ge
ĠRock ne
Ġspect ator
Ġ194 1
ĠST UP
Jo an
ĠCo bra
Ġden ial
aly st
Ġdeb acle
Ġsac red
stit ute
Ġfreak ed
Ġspeech less
ĠDem me
hearted ly
Ġju ice
Ġmarvel ously
Ġnin jas
Ġpunch line
Ġbat hing
Ġproud ly
Ġterm inal
Ġpregn ancy
Ġexagger ation
Ġexcess es
ĠMin ister
Ġupset ting
Ġconcent rated
Ġske let
Am ato
ĠAsh ton
ĠSon ja
ĠCru z
ĠKrist in
ĠRa oul
ĠCind y
Ġvirgin ity
ĠConn ors
Ġgif ts
ĠDin osaur
Ġbless ing
Ġbless ed
Ġblur red
charact ers
Ġprol ific
Ġunden iable
Ġcigaret tes
ĠInterest ingly
Mur der
ĠCris pin
ĠCab in
Ġrehears al
Ġhust ler
Ġcurt ain
Ġacknowled ged
mph ony
Tar zan
ĠMond ay
Ġdv d
susp ense
Ġsuspe nded
Ġtrou pe
Ġarbit rary
Acc ording
Ġclums ily
Bey ond
Ġmonstros ity
Ġattribut ed
Ġsib ling
Ġsubtlet ies
Ġdisconc ert
) -
; <
A bsolutely
F amily
F ollowing
H i
J ud
L au
M al
P T
Q U
S D
T ruly
V is
W orth
d i
g led
g ement
i ak
l ore
n ament
p ool
t or
v ie
Ã ¯
Ġ !!!!
Ġs not
Ġw reak
er ving
Ġf able
Ġf old
Ġb atter
at ical
Ġc ough
ou ched
Ġth irst
Ġh ating
Ġh alt
Ġto e
Ġd ime
Ġd ares
Ġl az
ĠI D
ic ates
le m
le ad
Ġn avy
Ġbe f
ĠT ark
ĠT aking
ĠT rent
ĠT ramp
ĠT orture
Ġre els
im ag
ĠA ch
ĠS tern
ĠS aud
ĠS entin
Ġse ed
ro lling
ĠB auer
ĠM ead
ĠC lyde
ĠH IGH
Ġsh apes
Ġsh attered
ĠW ent
ĠW ord
ĠD ies
ĠD ahl
ĠD olemite
Ġj an
ak o
ak in
ak ens
est ring
ĠP ull
ĠR ib
ĠL ucky
Ġr ookie
ĠF arn
ĠF aul
qu ins
ĠG em
os a
os yn
ĠN ation
ĠE u
Ġlo ony
hing ed
itt a
ĠK irst
og ram
te nder
ap uta
Ġover s
ne a
Ġpre historic
Ġsp r
Ġte ase
Ġte aring
ĠV itt
ĠV ienna
ĠHe ctor
Ġback ing
Ġdes cends
Ġunder whel
Ġri gid
ath am
Ġcast ed
ale m
Ġke eper
Ġsm ashing
ĠShe ba
de ep
Ġcle ans
ĠTh orn
Ġbo il
Ġbo ats
Ġinter iors
Ġgl ow
Ġed its
uff ed
ĠFor rest
Ġsk i
Ġele vate
Ġmar ital
Ġdisappoint s
Ġrep orters
Ġ4 00
Ġrid ic
Ġdem ol
Ġpar od
sh ots
sh irt
ĠMc B
Ġbra very
Ġannoy ingly
Ġdr ummer
ĠPl ummer
rit a
Ġforg iving
Ġtheat r
ĠMor occ
Ġappro val
ĠMon sters
ĠAng ie
ĠQu est
Ġconcept ion
Ġcirc uit
PO S
Ġ196 5
Ġ196 6
ĠSer geant
Ġpract ices
Ġuns pe
Ġthreat en
ĠHol t
Ġsoft core
see ing
Ġbene f
Ġelect ronic
Ġmut ants
Sc ary
spe ople
Ġregret s
200 3
Ġboo ze
Ġtext ure
Ġmini ature
Ġfle es
Ġorgan ic
Ar t
Ġhur ting
Ġwel comed
ĠBrand on
Ġguard ian
Ġunivers ally
Ġspell s
Ġirre ve
Ġshark s
wor st
ĠFle ischer
Ġmont ages
ĠDE ATH
abs orb
Ġconsum er
ĠEri k
Ġglor ified
Ġorchest ral
Ġlav a
pol itical
Ġhalluc inations
Ġpreced ed
ĠHOR RIBLE
ĠCel est
Ġperman ently
Ġseam lessly
ĠIrons ide
ĠGret a
OUN D
Ġinherit ance
ĠZu cco
Ġnarciss istic
ropol is
Ġmand atory
ĠChand ler
Ġgadget s
Ġbigot ry
ĠKru ger
Ġree ks
ĠDreyf uss
ĠTome i
Ġempath ize
ĠDubl in
Ġfarc ical
' ?
C as
H ello
K ill
M ir
P ierre
S ean
a unt
b illy
b oiled
c uts
f ighters
g ut
g ow
l augh
p ack
r unning
u ates
w reck
re leased
Ġw ink
Ġw imp
is ia
Ġc ooper
en co
Ġh oo
Ġto pped
Ġp es
Ġp ulse
Ġd oo
Ġd usty
Ġl as
Ġg um
Ġe ve
Ġn iche
Ġn orthern
ĠT all
ch o
Ġu h
ĠB Y
ĠB urn
ĠM ist
ĠM orton
ra ught
Ġwe ed
ill ion
ĠH idden
ĠH uh
Ġsh r
Ġsh uff
Ġch ains
ul ty
Ġpl anted
ĠR ule
ĠL iam
ĠJ enna
Ġcan on
Ġtim id
Ġle isure
ĠO d
Ġen vision
itt ee
Ġper version
Ġthem ed
Ġpo king
Ġpo kes
Ġtw e
Ġpart ying
Ġsp or
ĠCh loe
Ġplot ted
ang s
Ġbr im
Ġdown ward
Ġsub vers
Ġown ing
Ġsm itten
ib re
Ġacc ustomed
Ġide ology
Ġco al
Ġco verage
Ġbo oth
Ġsuper star
ĠAll ison
Ġdist rict
ien cy
ĠAr ound
Ġheart ily
sel hoff
ĠCar ole
Ġreg ain
Ġann iversary
ĠLe ach
ĠLe gu
yn thia
Ġref using
Ġlist ing
Ġopp ressive
AT ER
Ġste pping
ement o
urb i
ili ation
ĠDo om
Ġmist reat
Ġcamp ers
Ġfeature tte
Ġinsp ires
Ġgrand parents
bor ing
bor ne
Ġbattle field
Ġneg atives
Ġidi osyn
sequ ential
Ġground ed
Ġcompet ently
Ġ194 6
ĠMel ody
lo ved
Ġjo hn
Ġsix th
Ġalien ation
rem lins
Ġpictures que
Ġhighlight ed
ĠCarl ito
Ġcal c
Sp ace
Ġassass ins
Ġprint ed
Ġfle w
Ġmodel ing
Ġconnect ing
ĠNic kel
Ġconsequ ently
IR ST
199 6
ĠRen oir
Ġspark ling
Ġenter prise
Ġcontest ant
Ġintegr ated
Ġbik ers
ĠWonder land
Ġannoun ces
ĠLat ino
Ġsho estring
Ġdece it
Ġdecl ares
think ing
ĠCow ard
ĠFore ver
ĠBeck insale
ĠCong o
Ġcontempl ating
Ġplod s
ĠMorm ons
Ġmeand ers
Ġsmugg ling
Ġparad ox
ĠJos ie
ĠBlond ell
==== ====
Pol ice
ĠDanger field
ĠRat so
Ġadvers ity
ĠCou ple
ĠBard em
Ġinsec ure
Ġextrem es
ĠBarn es
Ġsprink led
Ġburd en
Ġoct opus
Ġculm inating
Ġstagger ing
ĠZor ro
Ġculp rit
ĠScare crow
Norm ally
ĠPros per
Ġdiabol ical
ĠMish ima
ĠSentin el
7 3
E arth
G rand
I X
N or
S ub
S even
Z ombie
b esides
f our
o ften
r ons
w ives
Ġ ilk
Ġt anks
he lla
re iber
er ick
Ġm ath
Ġm oust
it ative
Ġc gi
Ġh al
Ġh ind
Ġd ug
Ġd ummy
Ġg ains
ot ted
ĠT ol
ĠT reat
Ġre pt
ad owing
se lling
Ġwas hing
ce nded
ĠS ak
ĠS uc
ĠB uch
Ġli ar
ĠM ee
ĠD I
ess im
Ġab ly
ist ingu
ĠL ara
Ġout ta
Ġr arity
ĠF ly
ĠF ido
ĠF arscape
qu al
Ġcon verted
ĠG am
Ġher rings
ĠIt urbi
ĠN er
ĠN im
ĠN est
ud ing
ong s
Ġen vy
ĠK are
ĠK ron
Ġhow ling
Ġover l
Ġover p
Ġad ren
Ġsp ur
Ġbl ade
ĠCh am
ĠV ern
Ġafter thought
ĠSt and
ĠSt alin
Ġspe aker
Ġsl ugg
ase y
ail and
ĠAl ba
Ġtra ff
Ġtra velling
hen ce
hes is
ĠAn il
Ġrest s
Ġproblem atic
Ġfan atics
ĠWe apon
Ġmiss iles
ĠTH REE
Ġexc re
Ġstupid ly
Ġunt alented
Ġexp oses
ĠAt or
Ġcra ving
ĠMar cel
uth an
Ġhouse keeper
Ġstar ving
Ġmis chie
Ġsuccess es
ĠHar per
Ġtown speople
Ġcomment aries
Ġsn iper
Ġcrit ically
OR S
Ġ6 4
Ġsent iments
arch y
Ġapart ments
bo ards
ĠGu ide
Ġsil hou
Ġclim atic
ĠTr oopers
ĠCol man
Ġund erest
Ġoper atic
opp able
Ġ195 6
Ġ195 8
Ġhom icide
Ġsweet ness
Ġ193 2
Ġ193 8
Ġmood s
Ġcontinu ation
Ġaffect ions
Ġ194 8
Ġ194 9
ĠFran z
ĠBru ck
ĠNor wegian
Ġ18 00
Ġspl iced
Ġdim ensions
ĠBet ween
Ġemploy er
Ġreflect ing
Ġtem porary
Ġvisit ors
200 4
Ġincre ased
ĠRom ul
ĠDel on
Ġvac u
Ġemer ging
Ġemer gency
Ġrend ers
tr ans
198 0
oooo oooo
Do ctor
Ġtrick y
Ġassum ption
Ġwid ower
ĠBon ham
sm all
ĠDie ter
OP LE
ĠFin ch
Ġrev ived
Ġshadow y
Ġped oph
Ġaston ished
Ġfinan cially
ĠMAN Y
Con nor
Ġrhy me
Ġcig ar
Ġcowboy s
En joy
Ġinsist ed
Ġsam ple
ĠBeck ham
Ġsuspic ions
Ġboun cing
ĠAtt ack
Spe cial
ĠVar gas
Ġconqu er
Ġconqu est
ĠOp rah
ĠCart oon
ĠPay ne
Ġrecover ing
Ġsan ct
Wr iter
HA HA
Ġec st
ĠGerald ine
Ġmargin ally
Str ange
Ġchronic les
Ġsucc umb
Ġadvertis ement
anth rop
ĠEmil io
ĠCort ez
Ġcatast rophe
Ġintimid ating
ĠBuff alo
ĠGust av
ĠGwyn eth
abul ary
Ġpac if
Miche lle
Ġturb ulent
Ġgymn ast
mur der
typ ical
Ġresource ful
jor ie
ĠPumb aa
Ultim ately
Ġblo ated
' ;
B L
B oo
C ode
F ant
I ron
M ENT
O rigin
P et
b aked
c ute
d raw
e u
f ro
g ro
g iven
h ors
j ar
k ids
l ent
l ings
o it
p ick
r ously
t tes
Ġf re
Ġf ri
Ġf ury
Ġm a
Ġb umps
at an
Ġc avalry
or ama
Ġto dd
Ġto xic
Ġl ou
Ġl inger
br ain
Ġ/> ...
Ġn est
st arring
ĠT ro
ĠT ina
ĠT rey
ĠT urns
Ġre write
ow itz
ent ity
Ġst omp
Ġy acht
ĠS le
ĠM AR
ĠM innie
ill and
ĠC u
ĠC ena
ĠH UN
Ġch imp
ul ates
ĠW att
ĠW isc
ĠD im
ĠD NA
un ci
em inate
ood y
Ġv audeville
Ġde formed
ĠP A
ĠP hy
ĠP AR
ĠP opp
ĠR enaissance
Ġr att
Ġwhe els
ĠF ed
ĠG ypo
ĠG yllenhaal
Ġher itage
Ġun rel
Ġlo go
Ġlo cker
Ġno ds
Ġmy riad
ĠK al
Ġper se
ap art
ue v
ple y
Ġdis ple
ull et
own ess
Ġgu ise
Ġsp ouse
ĠV ice
get s
Ġbr ow
Ġbr ows
ĠSt ation
ĠSt iles
ĠSt rip
ĠU gh
Ġra v
Ġsub mit
Ġdif fer
ew are
Ġstr ay
Ġop us
ĠBr itt
", '
Ġsec luded
ash buck
ĠTh ailand
ov ar
ĠWh ale
co ach
umb a
Ġconf ronting
ident ly
ĠTH ING
Ġsch tick
Ġexc er
ĠSp inal
Ġrep erto
Ġcop ing
ott o
ĠMar ce
ĠMar quis
ĠZ ERO
com mun
IN AL
ric a
Ġmis fire
ĠNew ton
atur ated
Ġblood thirsty
Ġdem ographic
Ġdem ocracy
off icial
ik awa
Ġprom otional
Ġsubject ive
Ġut most
form ers
Ġadapt ing
Ġtast y
Ġgrand daughter
arre l
ĠMart ians
Ġmad ly
Ġfasc ist
erm ott
bl owing
Ġplain ly
Ġess ay
zz led
Ġdraw back
Ġglad ly
ĠDead ly
Ġpract icing
Ġdef ines
Ġboyfriend s
Ġdig it
ĠHam ill
ĠAnt i
Ġur gency
ĠBro ck
rend el
she ll
ĠWalk ing
ĠDen ise
ĠDen mark
Ġscare crows
Ġlay ered
âĢ Ŀ
Ġge ared
ĠVal erie
Ġtack les
ĠColl ette
Ġfare well
Ġhey day
Cl aude
mond o
ĠBern sen
Ġcann ibals
Ġminimal ist
Mar ie
Ġintegr al
pr ints
watch ing
ĠClass ics
Ġcorn ers
Ġexch anges
Ġsedu ced
Ġtriumph s
ĠId a
Ġalb ums
ĠBart on
ĠHas selhoff
ĠSU CK
Ġreh ab
ĠArab ia
Ġrecru its
ĠDoll ar
Ġje opard
ĠTown send
ĠExt ras
amped ro
Ġloos es
SI BLE
ĠThunder birds
ĠSoph ia
Ġrecre ation
ĠFal con
Ġexceed ingly
Ġdun no
ĠMam et
ĠRid ley
Ġchron ological
dep th
Ġvoc als
Ġunimp ressive
Ġcoward ly
Les lie
Ġtrop ical
Ġinsuff erable
ĠVoy ager
Ġchim ney
ĠAV OID
ĠFUN NY
Ġpatriot ism
ĠCrim inal
Ġgodd ess
Ġcomr ades
ĠCalig ula
ĠPE OPLE
Ġaspir ations
Ġcondes cending
Ġproverb ial
gob lins
ĠFaul k
Ġridic ule
absorb ed
Ġspor ad
ĠLegu iz
Ġmischie vous
C op
D i
F ast
G old
G olden
K rist
M agn
P ut
R oy
S ave
S aturday
W ild
c ond
c are
c andy
g ay
k ingly
l ig
m il
m ie
u ously
Ġa ce
he avy
Ġm ism
Ġm ugging
Ġc od
Ġc ement
es ame
Ġh atch
Ġp essim
Ġd ual
Ġd ross
Ġd udes
Ġin k
Ġl uc
Ġg osh
Ġg roc
ĠT ag
Ġy adda
ke red
ĠA ut
ĠM ald
ra ined
ĠC au
ĠC ame
ĠC ause
Ġsh tick
Ġch ant
Ġch rist
Ġch ained
ĠW arden
ĠW itherspoon
ĠD ynam
ĠD aphne
em kin
Ġsc um
Ġsc orn
Ġsc oring
Ġpl ausibility
ol ation
ĠP ast
ĠR ouge
ĠL OST
ĠF ury
ĠF enton
ĠF lesh
os ian
ĠN C
Ġcan vas
Ġun lock
Ġun question
Ġun resolved
ĠE gg
ĠE ffects
ook ed
Ġtr an
Ġfe ather
ci er
ert aker
Ġdis ability
av age
av ors
Ġgu ided
ĠCh upacabra
iz a
ĠV ik
ans son
Ġbr ink
Ġbr ash
ĠSt acy
Ġimp at
the m
iv ia
Ġdec onst
Ġra ven
Ġcomp rised
rent ice
Ġhel met
Ġcare free
Ġcare taker
ov ic
Ġcar go
Ġrun time
ok ai
hip s
iter ion
Ġcomm ands
ĠFor bes
ĠSp oiler
Ġmar red
Ġmar ijuana
ĠZ el
ote ur
Ġbas ics
Ġamaz es
ĠNo ble
Ġmis fits
Ġpur se
Ġcomment ator
Ġsn ob
Ġsat anic
rib ed
ĠQ U
ĠTom orrow
ĠPer lman
Ġplan ets
Ġeng ross
Ġmaterial s
An thony
cl ad
ĠTr ouble
Ġfront ier
Ġrock ed
Ġgrand eur
ĠMon te
Ġprop oses
Ġmill ennium
Ġdam sel
ĠEx pl
ĠSu zanne
Ġrevol t
Ġmatch ing
Ġcomplex ities
sequ ently
ĠStar gate
con ne
ĠEn ough
Ġrefe ren
Ġredeem ed
ĠBur rough
Ġdig s
ĠBro ken
pret ty
tend o
Ġaim lessly
ĠSpe ars
ĠWil kinson
ĠGreen street
ĠSl aughter
Ġsepar ation
Ġtend encies
ĠSy kes
Ġris ky
urs day
Ġpu er
Ġvan ished
ĠSH OULD
ĠInt o
Ġenthusi asts
Ġcring ed
ĠLong oria
Ġdemonstr ation
Ġrepet ition
Ġdistribut or
ĠAir plane
ĠNat asha
Ġprevent ed
Ġcapital ism
ĠGoth am
Ġbackd rops
ĠHa unting
Char act
Ġtom atoes
Ġgee ky
ĠJosh ua
ĠFore ign
ĠTechn ically
Ġhun ger
OS S
every one
Ġutil ized
ĠRE V
bet ween
occ up
ĠPeck in
anim ated
ĠMos cow
Ġabdu cted
ĠConne ction
Ġerr atic
Ġquant um
ĠMalt in
Ġsociet al
ĠUt ah
ĠTER RIBLE
Ġinsect s
Ġcondu ctor
Ġincon sequential
Ġninet ies
Ġcorrid ors
Aw ful
ĠTurt urro
Ġprest igious
Sus an
ĠNAS A
ĠSCR EAM
ĠPert wee
Ġjan itor
Ġgroc ery
C onsidering
D ou
D irect
F at
H ugh
R yan
T ed
h all
h ate
l ot
l uck
n ant
u ating
w ok
w ait
z io
Â »
Ġb icycle
it zy
Ġc udd
on ious
ll er
ll ess
an ha
Ġp our
Ġd ess
ed a
ĠI TV
Ġe astern
Ġn ipp
al ine
st ock
ĠT ess
ĠT rem
ow e
ro se
ĠM oss
ill o
ĠC onsider
ĠC RAP
ĠH us
ĠH annibal
Ġch unk
Ġfr ater
Ġsc an
Ġsc al
Ġsc ifi
Ġact ively
Ġwho d
Ġv om
ol ine
th ird
op ol
ĠP riscilla
ĠR if
ĠR ave
Ġr oo
Ġint est
ĠJ am
Ġme ek
nt on
Ġen comp
ci vil
ĠK att
Ġbet rays
aw ed
Ġfl ound
ĠY am
Ġye arn
Ġent ity
!! "
be en
Ġcont ents
Ġhum ane
Ġtra ces
Ġdown side
Ġcomp ilation
az zy
Ġfin ance
Ġpret ensions
** <
ĠJo ker
Ġsm ashed
Ġmust er
Ġep onymous
ĠTh an
Ġ3 9
Ġbo ils
aster y
uck ing
Ġinter fe
ph in
ph ants
Ġsuper iors
ĠNot orious
Ġdist raught
Ġdisappoint ments
Ġ4 8
ĠCl ock
Ġexp ans
Ġanim ations
Ġgra ves
ĠMar lene
Ġeas iest
com ic
ĠCar m
Ġ9 8
olog ists
ĠLe ary
ĠDon ovan
Ġprov oke
Ġeff eminate
Ġcrit ters
tra cks
Ġdocument ed
Ġsle w
ron ics
Ġvar iations
ĠAd rien
Ġunf aithful
ĠNe o
Ġeye balls
oun ced
Ġbar ber
St ay
ĠPr ue
ĠGra ves
Ġcry stal
Ġrepe llent
Ġhistor ians
Ġcollect ed
Ġaut op
Ġble nded
Ġble nding
Ġ15 0
Ġclos es
Ġmid way
Ġ193 1
Ġ196 3
ĠSw iss
ĠEn emy
He art
Ġast ute
ĠParis ian
Ġ18 0
Ġqual ified
pret entious
ĠJew el
Ġthor ough
abb a
Ġgri pe
.' <
Ġpra ising
Ġmut ated
ĠJoan ne
ĠHay den
ĠHaw ks
Ġic y
ĠMorgan a
Ġpunch ing
ĠMer c
Ġgig gles
Ġpoign ancy
ĠWr itten
Ġflo at
ĠRain bow
ĠCarol ina
jud ice
Ġeth ics
Ġfac ade
Ġgal ore
Ġnewsp apers
Ġhelicop ters
Ġmerc ifully
onne gut
Ġbust ed
sex y
Look ing
Ġdivers ion
Ġadul thood
Ġundert ones
ĠMcD ermott
Ġdegr ading
ĠUnd ertaker
Ġsor ce
Ġexceed ed
Ġaristocr at
Ġpione er
ĠMing hella
ĠGiov anna
tit les
Ġineffect ive
Ġstair case
Angel o
Ġmanne quins
ĠDw ight
ĠRol and
Ġapl omb
ĠSieg el
Ġlifel ong
Ġexhilar ating
Ġstrate gy
Ġmech anic
rane an
Cind erella
Ġnove lla
ĠSTUP ID
ĠSaud i
ĠSuc het
ĠWisc ons
Ġreperto ire
ĠLeguiz amo
Ġpuer ile
) )
* ,
? .
? ).<
B A
B ro
B ob
B rilliant
C inem
C arr
E ast
F ans
F riend
G erman
J erry
M ax
R en
c ity
c ony
e enth
f isted
l over
m ag
n ett
p m
p ers
s uff
s kin
t eller
u gged
v or
w onder
Ġ ie
Ġs assy
Ġs essions
Ġw iser
Ġw ww
is covered
er ves
Ġf iance
Ġb ait
Ġh ubby
Ġp ouring
Ġl y
Ġl amp
om ena
Ġg room
Ġg aming
Ġe uthan
al ien
Ġbe ers
Ġbe gg
Ġmo le
Ġwh acked
ch in
ch al
ĠS aving
ĠS ampedro
ir ting
ĠThe ron
Ġha cks
ĠM anson
ĠM useum
ĠC E
ĠH O
ĠH ines
ĠH AS
ers erk
ĠW u
ĠW anda
if ix
ĠD re
ĠD ella
ĠD elta
em orable
Ġj olly
Ġv oters
th ora
Ġde pl
ĠP P
ĠP atton
ĠL anc
ĠL onesome
Ġout break
Ġsome ones
ĠG U
os ure
ĠN ine
ĠN ana
ĠE nt
ĠE VIL
od ay
ell ect
ĠK ee
ĠK enny
Ġthem atic
Ġag reement
Ġsp itting
Ġsp ouses
Ġsp raw
ĠCh ad
ĠY uk
ĠY ellow
ark ar
vel ope
!! )
Ġsl apping
Ġgr am
Ġri pe
Ġimp ossibly
Ġres idence
Ġtra ppings
Ġinv al
Ġright eous
Ġperson nel
Ġlead en
Ġcle arer
Ġel icit
Ġdel ves
Ġrest oration
Ġpres erve
my stery
ĠRob ocop
Ġass orted
Ġbeh aving
ĠAr chie
ĠRe a
ĠRe ality
Ġpass ions
Ġind ict
Ġhero ism
Ġple thora
ĠCar ax
Ġreg ulars
Ġclose ups
Ġbeginning s
Ġsw ashbuck
Ġmaster y
sh aw
Ġav ant
ĠSome where
Ġlist ens
ĠEd el
Ġeffort less
AN CE
Ġcinemat ographic
ĠDo or
ĠTom lin
Ġmeet ings
ĠPaul ine
ĠIM HO
Ġbar rier
let te
ĠFrench man
lin ing
Ġweird o
Ġstri kingly
Ġrock ets
ĠMart ian
ĠTw in
ĠChe ech
ĠLike wise
Ġattract s
ĠGl ad
alt z
ĠBig foot
Ġbull ying
ĠBel mondo
ĠDu kes
Ġclean ed
ĠFe in
abb ing
Ġunw ittingly
ĠMag ic
Ġcal cul
ĠBo at
ĠSus pect
200 6
Ġcontrast ed
Ġtext book
Ġfate ful
ĠLouis iana
Ġexpert ise
Ġfra il
ĠChan ning
Ġtrib es
Every body
ĠLi ber
Ġredu ce
Ġinept itude
Ġinvent or
umm ies
Ġbond s
ĠBrad ley
Ġdescript ions
Ġhol idays
ĠKill joy
ĠBog osian
Ġgraph ically
Ġaccompan ies
Ġchair s
ĠFer r
ĠFer rell
Ġdemand ed
ĠRos al
aver ick
ĠSav alas
Ġinnov ation
Ġtraum atized
rep res
Ġfolk lore
Ġperpet ually
El izabeth
ĠDirect ors
ĠBeck y
Ġblur ry
ĠKer sey
Ġcraw ling
Ġpersu ade
ĠBus by
ĠMade leine
Ġreck on
ĠBa iley
ĠCa an
ĠCa esar
Ġrabb its
Ġanaly ze
Ġorphan age
Ġanth rop
Jim my
Ġtherap ist
main ly
Ġfren etic
ĠTak ashi
Ġrevers ed
Ġmeas ured
ĠOdd ly
Ġmirac ulous
Ġpant ies
ĠFinn ish
Ġmusc ular
Ġorg ans
ĠWrest lemania
Ġsociet ies
ĠNev sky
ĠFront ier
ĠFern ando
forman ces
Ġmascul ine
ĠDent ist
ĠExper iment
ĠRoh mer
Ġhairc ut
ĠNapole on
Ġamnes ia
ĠIsa ac
Ġlumin ous
ĠHumph rey
ĠConfeder ate
Vinc ent
Ġensu ing
ĠMatte i
Ġexcre ment
ĠWiscons in
? ...
D er
E EN
F K
I ce
K Y
S ix
W arning
a ired
c ule
d ist
f ed
f les
f air
f ried
g ant
g ated
g reen
h orn
j an
m ation
m pt
n onsense
r Ã©
s ave
t ier
u an
u ce
u ition
Ġt am
Ġt asks
Ġs id
Ġb out
Ġc ob
Ġc ured
Ġc ensored
Ġth irteen
Ġh ousing
Ġd up
Ġl ane
Ġl aced
om mel
br ill
ic an
Ġg aping
ot hel
st a
st y
ad ventures
oo h
oo vy
ĠS j
ĠS illy
ro lled
ĠB anks
ĠM otion
ĠC oyote
ĠH AD
ĠW ave
ĠW erner
un fortunately
Ġex asper
us k
us cript
ist ful
ĠR iz
ĠR udd
ĠR ipper
ĠR achael
ĠL ila
ĠF ind
ĠF iend
ĠG uev
ĠJ our
ind ler
ĠE pp
ĠE AR
ĠO H
ore t
ĠK orn
Ġper v
Ġper mission
Ġar ises
Ġdis gr
Ġdis com
Ġad ject
Ġoff spring
aw ays
Ġsp at
Ġbl axploitation
Ġfl are
ĠV onnegut
Ġaw akens
ĠHe w
Ġwhere abouts
ult z
Ġsl opp
Ġsl ugs
Ġstill s
ĠAl mod
Ġres orting
Ġsm okes
Ġapp le
Ġscript writers
Ġbo ast
Ġbo res
aster ds
Ġlet har
Ġrest less
sp oilers
arn ers
Ġmon astery
Ġsk ies
Ġass ess
ĠRe ve
Ġgra bbing
Ġsort a
ĠDon ner
lish a
ern o
Ġfore ground
Ġfour teen
real ism
Ġones elf
ĠAm rita
ĠTom atoes
unt led
Ġeng ages
Ch uck
ĠSch reiber
ĠSim ilarly
Th under
ĠCom ic
lor ious
belie vable
Ġimm ersed
OO L
ĠMe gan
ĠLu z
Ġsum ptuous
Ġtort ures
Ġpurpose ly
Ġearth quake
alt a
Ġinterview ing
reg ation
Ġunex citing
ĠMel anie
Ġdro ll
IT CH
ĠFe ast
ĠAb bey
Ġwilling ness
Ġmat hem
ĠSteven son
Ġblind ed
Ġunw anted
Ġreact s
ĠEv ie
Ġradio active
Ġproceed ed
rs ula
ĠNorth west
Ġenviron ments
Ġfund ed
Ġconnect s
Ġpurch asing
ĠBern ie
Ġevol ves
ari ably
Ġconfess es
Ġdistribut ors
Ġparticip ating
ĠPitt s
ĠCru el
hh hh
ĠHA PP
Ġhes itation
Ġsedu cing
Ġjew els
Ġtow ers
Ġdomin ates
Ġdetract s
Ġdict ators
Ġingen uity
ĠâĢ ľ
ĠEle phant
Ġindul ge
ĠUltim atum
Ġcontempl ate
Ġdism ember
Ġincorpor ated
Ġponder ous
Mart in
Ġcomprom ised
ĠStock well
ĠVin ci
Ġconfir ms
Ġsor ority
Ġsensual ity
Ġplag iar
ĠJos Ã©
ĠThor nton
ĠNik ki
Ġvoc abulary
Ġcollaps es
ĠBron te
ĠBrig itte
ĠHon or
Ġattach ment
ĠAB OUT
ĠHenri ksen
Mus ic
jerk er
stra ight
urope an
ĠDak ota
ĠBren nan
ĠAnto ine
Jose ph
Sar ah
Ġsubvers ive
ĠNickel odeon
Ġexcer pt
ĠFaulk ner
ĠPeckin pah
A KE
C C
E nd
F urther
J ess
L ady
L AND
M arc
N at
O scar
R ain
T op
T ry
c ourse
f a
l os
r ude
r iet
Ġt abl
he id
Ġs ult
Ġm ice
Ġm erry
Ġb en
at chers
ou z
Ġto es
Ġp anned
Ġd ing
Ġd iet
Ġd umps
Ġl em
ot ent
im il
Ġwh ack
se a
Ġst oner
Ġy ards
Ġfilm ic
ĠThe resa
ĠB ass
ĠB RA
ĠB enson
ĠB TW
ĠB iblical
ĠB asterds
Ġli ed
ĠM oll
ĠM atter
ĠM ature
Ġnot withstanding
ĠC oo
ĠC ul
ĠC ure
ĠH ess
ĠH AR
Ġsh aft
ĠW OM
ĠD A
ĠD ru
ĠD unn
ĠD ARK
Ġex tend
us ch
us hy
op era
ĠP ers
ist ical
ĠR ising
ĠR af
ĠR ivers
ast ical
Ġr ally
Ġr ansom
red eem
ĠG W
ĠG uns
ard ust
ĠN ess
Ġun named
ĠE M
ĠE aling
Ġman agement
Ġman eu
Ġshe et
oy lent
ĠK it
og o
Ġend orse
Ġqu oting
int ed
ian ces
Ġsp ons
ĠCh ronic
ĠV ijay
ĠIn n
be au
Ġgr ieving
up on
Ġacc ol
Ġbu rial
Ġcare less
Ġcour ts
Ġcar bon
ĠAn chor
ah ah
Ġadd ressing
Ġpol ish
Ġperfect ed
ĠWe b
Ġgl ue
ident al
ĠDe pp
Ġimag ines
ĠBl aise
sy n
Ġph il
ĠBe etle
Ġcra ze
Ġpict ured
ĠMar isa
ĠMar jorie
Ġpass ages
Ġind irect
ĠÂ «
Ġimpress ively
het ics
Ġmis con
ĠHis panic
Ġsw ell
Ġpred omin
ĠHar vard
Ġhon our
Ġprom isc
Ġcontin ent
Ġcool er
Ġprem ier
orth odox
Ġut tered
Ġprog ressive
Ġpost s
Ġsuff iciently
Ġprop ortion
Ġbed s
Ġphys ician
ĠAle jandro
IS E
Ġ193 7
Ġwall et
aus ole
ĠLove ly
Ġbull sh
Ġisland s
Ġconflict ing
AD E
Ġalien ated
ĠAdam son
ĠWW F
Ġcelebr ating
Ġdepart ments
ĠBo ard
ĠBarb ie
Ġassist ed
Ġban ana
Ġunint ellig
ĠViet names
Ġhall mark
ĠHart man
Ġsun set
ĠCat hy
Ġhyster ia
198 7
197 9
cr atic
ĠTri p
ĠUnder ground
ĠRos ario
ĠMcG avin
Ġeth ical
Ġargu ed
ĠMom ma
Ġtag line
Ġcock tail
ĠAndre a
Ġvent ures
Tom my
Ġspread ing
Ġobser ving
Ġhumili ated
ĠMun i
ĠTob e
ĠNin tendo
ĠFall s
Go ing
Ġincorpor ate
ĠRO CK
numb ing
inds ight
Ġreson ance
Ġapplaud ed
Jul ia
Ġunst oppable
Ġexcl usive
Ġdecor ated
ĠCourt ney
addy shack
ĠHarr on
Ġwoe ful
ĠHend erson
Ġbabys itter
ĠDy ke
Ġsou lless
Ter rible
Rec ommended
Ġinflict ed
Ġagon izing
Ġrevis it
Ġprow ess
Ġextrav ag
Ġteleg rap
Ġperce ive
Ġappet ite
Ġclo ak
Ġmutil ated
ĠCambod ia
ĠSusp ense
Ġsuperl ative
Ġprotot ype
ĠDrag ons
ĠRidd ick
Ġdisfig ured
Ġuntr ue
ĠPhy ll
ĠPP V
B ay
C al
E le
G one
J esus
L A
N ational
R om
R ac
S in
S ound
S outh
W in
b ling
c ue
c use
c ett
d r
f y
f rey
f amous
m om
o ing
p ossibly
r ance
t ri
in ery
is abeth
Ġm arsh
Ġb id
Ġb ass
Ġb rew
at he
at ose
Ġc el
Ġh arp
Ġto ll
ar in
Ġd izz
br oken
ic le
Ġg aining
ct ory
Ġre play
Ġre neg
Ġhe iress
all i
Ġu bi
ĠA ce
ĠS weeney
ĠB AT
ĠC up
ĠC esar
ĠH ern
ĠH unters
Ġsc ram
Ġk itsch
act ly
us cious
ag i
Ġv iv
th anks
ĠP OV
ĠR an
ĠR ooker
ĠL ab
ĠL ets
ĠL AD
ĠL ONG
ĠL aputa
ĠF ate
ĠF light
ĠG w
ĠG ris
ĠJ abba
ack t
ĠE du
ĠE sp
ig en
Ġle ct
Ġman uscript
ĠO reg
Ġtr unk
Ġtr ashed
Ġthere in
Ġen velope
ab in
ick ers
Ġpe er
ac ular
Ġover acted
Ġdis appro
ĠCh ab
Ġfl irting
ĠBut ch
Ġback ward
Ġback story
ach ing
we ird
ise xual
ĠSt ur
Ġspe akers
Ġmin ing
Ġunder current
ĠU k
Ġdown load
iss ippi
Ġstr ut
Ġstr ide
Ġput rid
Ġentertain er
ah i
Ġour s
ĠSo cial
ĠNot re
.... "
ĠSc and
ract ed
ĠMar ian
ĠZ ucker
vin o
Ġcred ential
ĠMan c
ĠMan ch
ĠJack al
ung les
ĠHar vest
ĠHar lan
ik off
Ġfig uring
ĠHer r
eth al
Ġnon stop
ĠGr ady
And y
Ġdisc laim
Ġill ustrated
Ġnarr ates
ĠPe pe
inc l
Ġadv oc
Ġspir als
cl usion
ĠMon keys
ĠGra cie
friend ly
Ġprop osal
ĠQu ick
Ġcry pt
Ġhistor ian
Ġvamp ir
ĠDes ert
Ġscream ed
Ġcontr asts
oph one
ĠSer bian
Ġtaste ful
Ġsqu irm
Ġinvestig ates
Ġfresh man
Ġfaith fully
Ġuns ub
Ġescap ism
ĠHigh land
Ġthrow back
ĠCo ach
Ġthank less
Ġden omin
Ġthin ly
Ġresemb led
ĠBarb arian
Ġloss es
Ġsurreal istic
Ġbal cony
urs or
Ġopt ed
ĠSn akes
Ġassoci ation
ribut ion
Ġsun light
Ġaltern ately
Ġvac uous
Ġestabl ishes
Ġrefreshing ly
ĠMil itary
ĠPre judice
Ġhol ocaust
ĠMir ror
Ġacqu ire
Ġintellectual s
cr ime
Ġcontact s
ĠJac queline
ĠTri ple
Ġparticip ation
ĠTor o
sm oking
Ġcontribut ions
ĠPlay ing
ĠPa resh
Ġheaven s
Ġhar vest
ĠPhilip pe
Ġcance l
Ad ams
ĠFle ming
Ġunbear ably
Ġsand wich
ĠPot emkin
Ġprogress ively
195 5
Ġperpet r
ĠAnim ation
Ġgradu ated
Ġheight ened
ĠCre asy
Ġwrap s
Ġfart her
ĠLin nea
Ġprec ision
Ġsust ained
Ġdish onest
ĠChamp ion
ĠMu lder
Ġster ling
Ġartic les
Ġfren zy
Ġmeas ures
Ġepit om
Ġinstrument al
Mat thew
ĠJoh ansson
Ġcraz iness
ĠKnox ville
Ġintertw ined
Ġmasturb ation
dro pping
Ġridd led
Ġreincarn ation
Ham let
ĠTib et
ĠLevin son
ĠPalest inian
ĠAG AIN
Ġhomoph obic
Ġquib ble
Ġaccus ations
Cap rio
Att ack
ĠForsy the
ĠCah ill
ĠFarn sworth
Ġvacu um
ĠWatt s
ĠMald en
Friend s
ĠFein stone
Ġdisgr untled
ĠVietnames e
ĠOreg on
) --
7 5
B M
E xt
F ORE
J ay
J apanese
M ade
O liver
S m
S aving
c uss
f ar
g ram
l ive
m itt
p aper
r ano
s urprise
t ell
w ash
Ã £
Ġt ens
Ġt icked
Ġs igning
Ġw aving
Ġw olves
Ġo mitted
is able
Ġb ark
Ġb ourge
at en
Ġh ob
Ġh osp
Ġh obby
Ġp ills
Ġl ured
Ġl ung
Ġl ampoon
ĠI R
il ogue
ie m
ĠT ash
ĠT su
ĠT atum
Ġre wards
Ġre fined
ad le
ad ia
Ġhe el
ch ard
ch ikawa
all ingly
Ġu ber
ĠA very
am ir
am ong
am ish
ir i
ir able
ĠThe lma
ĠM ate
Ġwe igh
ĠC A
ĠC oun
ĠC ynthia
Ġsh un
ĠD andy
Ġj ugg
Ġsc aring
us al
ĠP es
ĠR ED
ĠL O
ĠL ooks
Ġr het
qu arters
Ġcon tender
ĠG annon
ĠN ell
ĠN av
ĠN atural
ĠN ixon
Ġcan ned
Ġun ch
ĠE ater
ĠE ileen
The ir
Ġle ar
ĠO x
Ġfe nd
ab al
pl ain
... ?
int ellect
Ġdis k
av i
Ġsp outing
ob e
Ġfl ops
ĠV oice
ang led
ĠIn itially
Ġrem oving
Ġhor izon
Ġbr othel
Ġmin ers
Ġgr it
ren ched
Ġinc ome
Ġcomp onent
oss al
Ġfin anced
Ġyoung ster
Ġnew est
Ġinv ariably
rent ial
ĠAs chen
Ġchild like
Ġclass room
ĠSh ab
ĠTh riller
Ġ3 3
Ġart ful
co e
Ġinter acting
fin i
Ġpres erved
Ġmem oir
Ġrecommend ing
ĠWe ber
ĠTH R
Ġey el
Ġsk impy
ĠBe a
omb re
Ġmar ine
ĠMar ried
Ġviol in
Ġstar let
Ġwa its
ĠLe ung
ĠJack man
Ġsuccess or
Ġmor ph
ĠEd en
ĠEd iting
Ġroom mates
ĠGr oove
rest rial
Ġill iterate
ara oh
ĠUS SR
oor man
OU GH
ĠSch ultz
Ġappro ve
Ġmale volent
ĠMon ogram
ĠTra ffic
Ġrecord ings
lu x
Ġcommon ly
alth y
Ġcritic izing
Ġdanger ously
Ġmach inations
Ġmach inery
Ġsqu and
war m
ĠMel vyn
Ġthrow away
Ġabsurd ly
Ġclean er
ĠDou rif
Ġjoy ous
ĠDick inson
film ed
Ġhorse back
ĠMag uire
Ġcal ibre
ĠAp ollo
ĠBlood y
Ġchore ographer
Ġfle et
Ġspeed ing
Ġtrib ulations
ĠEric a
Ġgrace ful
Ġharm ony
Ġpal m
ĠCle opatra
ĠSH E
Ġgig gling
ĠZomb i
197 2
ĠNichol s
ĠSE C
Ġsne aks
ĠFer ris
ĠANY ONE
Ġcapital ize
Ġmetap hors
Ġfond ly
Ġfond ness
Ġinj uries
Ġmock umentary
Ġrank ed
ĠProdu ctions
ĠVen us
Ġsket chy
ĠDream s
Ġneighb ours
ĠAtl anta
Ġdecl are
gra nd
Ġhill billy
ĠWend igo
Ġbott les
Ġsuburb s
Ġelev ated
agg io
Ġune vent
Ġburst ing
Ġdent al
ĠAnim ated
Ġmaniac al
ĠMo ving
Ġencoura ging
ĠDill inger
Ġagg ression
Ġexhib it
Ġvulgar ity
ĠSing ap
obs essed
Ġleaders hip
ĠKent ucky
Ġenlight ened
ĠLie utenant
Ġinherent ly
Ġsweat y
Ġster ile
Ġmemor ably
person al
Ġgrin ning
ĠFan ning
ĠPoll ack
ĠDest iny
ĠGiov anni
Ġpoo rest
Ġresear ched
Ġric her
fell as
Ġliqu or
ĠShark y
Ġpier cing
Ġadminist ration
ĠSor vino
Ġinfuri ating
Ġmisogyn istic
ĠBirth day
Ġbizar rely
Ġmam m
Ġparaph rase
Ġabomin able
Ġuncont roll
Ġcontempor aries
Ġlaps es
Ġgull ible
ĠSerge i
Ġdisconcert ing
ĠMead ows
ĠDies el
Ġengross ed
ĠAschen bach
9 8
A Z
B urt
C reat
F ather
H ad
J aws
R un
S k
T en
U CK
W ere
b as
b os
b og
c ard
d ifferent
f em
f ires
g em
h it
j oke
k royd
l ated
m ach
n ut
r ums
s qu
s ci
t ough
u els
w ere
y on
Ġ !<
Ġt um
Ġt ying
Ġt ips
Ġs ax
Ġw obb
is o
Ġf iend
Ġf aked
Ġb isexual
ing es
en joy
or ial
ou rage
Ġh ick
Ġh ilt
Ġh indsight
Ġp ets
ed ged
Ġl amb
ĠI RA
Ġg ates
Ġg aze
Ġg utter
ut ional
ĠT in
ĠT ere
ĠT ower
ĠT RA
im an
Ġst amp
gh ost
ch and
Ġy upp
ĠS ter
ĠS pl
ĠS ax
ĠS ug
Ġse w
ro d
Ġyou ths
Ġha iled
ĠB h
ĠB ase
ĠB oot
ur ica
ĠM ight
ĠM atch
ĠM AY
ĠH air
ĠH mmm
ĠH ilarious
Ġare na
Ġsh udder
ome z
ĠW illy
un it
un ction
em isia
Ġex udes
ĠP or
ĠP im
ĠP ab
ĠP rop
ĠR azz
ĠR ules
Ġr ud
um a
ĠG rendel
os l
Ġun rated
ĠE asily
ĠO THER
Ġget away
Ġfe eds
Ġtime ly
ĠK iefer
Ġper ky
so ft
ment ary
og ging
ac co
Ġim b
Ġover act
ne cks
av ig
Ġam usingly
ian g
Ġwr ath
ĠCh air
Ġfl ing
Ġfl oo
ĠY ES
ĠHe ights
Ġbr ides
be ck
Ġpr ices
Ġcr otch
Ġgi bber
the l
ĠAl ain
Ġlong time
Ġsm irk
Ġrel ish
ib les
Ġkid dies
ĠShe ets
de f
de cent
ĠFr aser
Ġrun ner
ER N
Ġinter vention
umb ers
ex per
ower y
ĠTH ERE
ĠDe ar
Ġrele gated
ĠSp aghetti
ĠSte in
ĠSte el
Ġret read
ĠAt kinson
Ġind icated
velop ment
Ġcoll age
itch ing
unch back
Ġmed itation
Ġshoot ings
Ġfig ur
Ġpos se
ĠOr ange
ĠOr well
Ġinde pend
ĠCon way
ĠPer iod
Ġsign al
ĠNe ill
ĠNe arly
Ġodd ity
Ġbar ren
Ġtwist ing
wr ong
Ch arl
Ġdan ced
Ġdumb ed
set te
ĠGra h
ĠBen oit
ĠTw ice
Ġneg lig
Ġstat ues
zz ard
ĠDes i
Ġ196 2
ĠBoy ce
reg or
Ġnatural istic
Be autiful
Ġsix ty
ĠBel gian
Ġdiscuss es
Ġnumb ing
Ġdread ed
ham mer
ĠRam Ã³n
Ġjoy s
De ep
Ġprofessional ism
ĠBo oth
Ġbelong ing
Ġbelong ed
200 7
Ġframe work
Ġstret ching
ser iously
Ġarch ive
Ġju icy
ĠHart nett
ĠVer ne
Ġenthusi ast
ĠSher man
Ġalcohol ism
ĠMir iam
Ġexagger ating
Ġsimpl est
Ġsne aking
weet y
Ġpuzz les
Ġscr ut
Ġfil ter
ĠRos ie
ĠPlay boy
ĠScar face
pr ot
ĠMod ine
ĠFin lay
ĠOw l
Ġannoun cer
Ġhar ass
Ġfairy tale
obi as
Ġdign ified
ĠWOR LD
Ġeleg ance
Ġobser ver
ĠHind u
ĠConn elly
ĠRow an
196 8
ĠRing wald
Ġunfair ly
ĠSP ACE
Bas ic
ĠTry ing
Ġpurs ues
ĠMagn ificent
Ġlibert y
Ġinfant ile
Ġfulfill ment
Ġhitch hiker
ĠSix th
ĠMyr tle
Ġuncertain ty
Ġaristocr atic
Ġnurs es
ĠBoo gie
Ġdecap itated
Ġliqu id
bour g
Ġbewild ered
Ġdeft ly
ĠSond ra
Ġaccord ingly
ĠComplete ly
mess age
Ġwast eland
ĠPleas ance
Through out
Ġmasquer ading
ĠBland ings
Ġbraw l
ĠBelg ium
Ġslugg ish
ĠGuev ara
ouz ot
Ġunintellig ible
Ġubi qu
, )
3 5
E ach
G reen
M in
N T
O dd
P anic
R am
R ated
S tra
T ING
W estern
h t
h ope
h uh
l ah
l ists
m ale
n aturally
s le
s ister
t alent
Ġt issue
he on
in ine
in stead
in Ã©e
Ġs ard
Ġs ire
Ġf ing
Ġb ri
Ġb omber
en zie
Ġand roid
Ġp osed
ar iously
ed ia
ic us
ot ivated
st airs
Ġbe m
ve ill
Ġmo res
ĠT M
ĠT el
Ġre ct
ent ive
ent iful
Ġst all
ce mi
Ġha il
Ġha unts
ĠB ret
ĠB abs
ĠB oorman
ĠM IN
ĠM ean
ĠM EN
ĠM ighty
ĠH are
ĠH az
Ġch ic
Ġch urning
pe e
ĠW ed
ĠW ai
ust urica
un c
Ġk in
Ġk itt
pp le
ol ay
th reat
ĠP ang
ĠL ith
ĠL ew
ĠL SD
Ġout ings
Ġout ward
qu ally
qu eness
ĠG L
ĠG ena
ĠG unga
ĠG omez
ĠJ ans
Ġun ful
ĠE L
ĠK not
... '
Ġover head
Ġdis e
Ġoff set
Ġsp ins
Ġbl oom
ĠHe avy
ach i
ĠSt ones
Ġmin ions
ĠU rsula
Ġri g
Ġra g
Ġsub lim
Ġpret ense
ign ant
ank ed
Ġsex es
Ġbeaut ies
ĠSh ock
ĠSh ows
It alian
ject ed
ĠWe iss
.... .....
land o
ĠDe er
Ġvis itor
Ġcomm ission
Ġsk irt
Ġexc laim
Ġlow ered
Ġtop ical
Ġrep rise
Ġrep uls
ĠSte iner
ĠAr den
Ġwrong ed
Ġgra ces
Ġfail ings
gr ass
ĠSe en
Ġ7 47
imes h
Ġform ing
Ġann ual
uss ian
Ġmis fit
Ġpast iche
Ġpar able
Ġpar ole
iam atti
ĠHar uhi
Ġcent res
Ġcomment er
off ensive
ĠGer ry
ĠHer mann
AT OR
Ġdream like
ĠGr int
ĠAm os
ĠPe nd
ĠRich ie
Ġten ant
ĠNe eson
ĠWilliam son
ĠPh ot
Ġcamp fire
EA K
Ġmil ieu
Ġexec ute
Ġsick ly
look s
Ġimm ort
Ġimm oral
ĠBlack s
Ġdelight s
alt ies
ĠMur iel
Ġoccur rences
Ġsav vy
ĠHol iday
Ġbehav iors
Ġescap ist
Ġhost ed
Ġsoft ware
Sh ame
At l
ĠCr ich
ĠCr iterion
ĠDu k
ĠStr at
ĠPol and
ĠJean ne
ĠAb ove
Ġham s
Ġemploy ment
ĠPal ace
Ġtour nament
Ġincre ases
Ġcontrast ing
Ġforeign ers
ĠLind sey
Ġwond rous
ĠDar ia
unn el
Ġdisp osal
Ġtruck s
Ġemer ged
Ġpal atable
Ġideal ism
Ne il
ĠLA ST
UR N
ĠSher ry
Ġacqu ainted
ĠBog dan
Ġgentle men
Ġdynam ite
ĠUnder world
Ġdiss ervice
orc ery
Ġdisgu ises
ĠCry pt
Ġconven ience
ĠAst in
ĠId entity
Ġmistaken ly
Other wise
Ġpresum ed
ĠLeonard o
ĠCall ahan
Ġsen ile
Ġsett les
ĠStra uss
Ġexhib its
Ġunsatisf ied
Ġprec ursor
Ġintr usive
Ġritual s
ĠSupp osedly
Ġcandid ates
HH HH
Ġlam est
ĠPin head
ĠWel sh
Ġpreced ing
Ġfog gy
Ġgam ut
ĠSF X
Ġzoom s
Ġtunn els
Ġhypoc ritical
Ġnick name
Plan et
Ġadvis er
Ġpronoun ce
Dra cula
Ġseas ide
Ġhott est
Ġmour ning
ĠBurg ess
Ġtwent ies
Ġmanufact ured
Ġhoney moon
Ġproced ure
Ġreserv ations
ĠTow ards
Ġdisillusion ed
Ġgard ener
Ġscarce ly
Ġeld est
ĠGon z
ĠSyb il
Ġaggra v
Ġregist ered
ĠBras hear
Ġidyll ic
ĠBAB Y
ĠMorocc o
ĠBurrough s
Ġintest ines
ausole um
Ġdizz ying
intellect ual
veill ance
6 4
A H
A lf
B rit
B rad
C rit
D ay
D ream
L ES
L arry
S oon
W est
a ic
b oiler
c am
d les
e a
h ounds
m or
n ominated
t to
u o
Ã ¢
Ġs ized
re fe
Ġo scar
is ies
is ations
er ia
it ory
at oon
Ġc ine
Ġc aves
Ġc yl
Ġh ast
ar ad
ar able
Ġd ough
Ġl ent
Ġl ions
Ġl ament
Ġl umber
Ġl ingers
Ġl uscious
ĠT olk
Ġre vision
Ġst ing
id ote
ch ick
Ġy rs
Ġas c
ĠS af
ĠS kin
Ġse l
ĠB alk
ĠB asket
Ġbut ts
ĠM ia
ĠM emento
ra pe
Ġwe ep
ĠC ock
ĠC ape
ck ers
ĠH ARD
ul ance
ĠW on
ĠW ise
if th
ĠD uff
un ion
Ġex iting
Ġall usions
Ġv ows
ol id
ol fini
ist as
ĠR ound
ĠR ated
ĠR ace
ĠR UN
ĠR arely
ĠL ag
ĠL azar
ĠF IRST
Ġor gy
Ġor bit
ĠG ypsy
ig hed
Ġle cher
Ġlo ath
Ġgo ons
od iac
ab elle
ĠK usturica
Ġover coming
Ġgu ides
Ġgu errill
ĠCh ile
ĠY v
ĠV ul
Ġaw ait
ĠHe che
ip ing
Ġent icing
Ġrec iting
ber y
Ġgr udge
Ġri fles
ia o
les inger
Ġimp aled
Ġcr ushing
Ġcr onies
Ġche cks
Ġgen ie
Ġrel ive
Ġapp ar
Ġapp allingly
air d
Ġep id
Ġhand c
ĠSh ane
ĠSh arp
Ġco arse
ah oo
iter ia
Ġele phants
ĠAr cher
ĠRe vol
idd ing
ric ane
Ġimpress es
ĠDon nie
und y
OT S
Ġdr ums
Ġpick y
Ġopp ression
ats i
ey e
ĠDan ning
Ġcheap est
!!! "
Ġfut ility
ĠKe ira
Ġdisc arded
Ġprem ature
Ġmoder ate
Ġteam ing
Ġunf ocused
ubb a
ĠNe al
Ġactual ity
Ġmil est
Ġspoil t
Ġclim bs
Ġfront s
Ġrock y
Ġrock ing
Ġcopy right
Ġliter ate
ĠBen ed
bor gs
ĠMart ine
ĠTw elve
Ġcap abilities
Ġband it
Ġrecogn izes
belie ve
ĠSu zy
Ġest eem
Ġansw ering
Ġstep father
ĠDes ire
ĠGl ory
Ġtest imony
*** <
Ġsucceed ing
Ġgovern ments
Ġpack aging
Ġfashion able
oop ing
Ġdef ence
Ġpassion ately
Ġspl itting
Ġmagn itude
rem acy
ĠCr ash
Ġcell ar
Ġresc uing
Ġpen guin
Ġeight y
De vil
Ġhide ously
Ġnoir s
ĠGreen away
ĠTre asure
Ġdu et
Ġner ds
Ġspoof ing
Ġphilos opher
Ġscrew s
Ġresearch ing
Ġuncom mon
Ġsnow y
Ste wart
ĠMer cedes
ĠColl ection
ĠTed dy
ĠLam arr
198 1
Ġassum ptions
Ġservice able
Le on
Ġcoinc identally
Ġfet ching
ĠArm and
Ad mittedly
Ġunfold ed
writ es
ĠClint on
ĠId ol
Night mare
ĠGal axy
put ting
Ġasse ts
ĠNatal i
ĠJulian ne
ĠTalk ing
ĠBus cemi
ĠKr ish
Ġexquis itely
Ġhesit ant
ĠLar go
ĠIsab el
Ġrul er
ĠWy oming
Super man
Gu y
direct ion
ĠBlond e
pres ent
Ġreported ly
oura ble
Ġque ens
ĠGret chen
ĠAven ue
ĠKell ey
Ġrecreat ed
Fred dy
ĠRoe g
Ġdepra ved
Ġdepra vity
Ġtant al
Ġcomprehens ion
viol ence
Ġmaj estic
ĠRegin ald
Ġnotor iety
Semit ism
Ġtreacher ous
ĠHost el
Ġconsumm ate
Ġpopul ace
Ap ocalypse
ĠOcc asionally
Capt ain
accept able
ĠEdd y
ĠEu ropa
Ġbenef ited
Ġly ric
Ġdiscom fort
Ġsult ry
Ġreneg ade
Ġdisclaim er
Ġbourge ois
Ġlear nt
Ġunevent ful
ĠSter ling
Ġubiqu itous
ĠCrich ton
. -
C ross
D et
D ri
G en
L isa
M atch
O B
P re
R eal
S ON
S ullivan
T A
V ENT
W alk
X isten
b ies
b be
b iting
b rew
c les
c oun
f ans
g ames
h app
k icks
l anguage
n one
p id
p ock
p sych
r ot
s is
s ick
s ense
s cient
s weet
u ros
} ,
Ġt arn
Ġt ighter
in os
Ġo dyssey
is ingly
er r
Ġf ract
Ġf ading
Ġm uddy
Ġm igr
Ġm ausoleum
it ized
Ġc av
or io
Ġto b
Ġp or
Ġin mate
Ġl est
ĠI owa
br uary
Ġg y
Ġg als
Ġg erman
ot ics
Ġn oses
Ġn aval
Ġn ameless
Ġn icer
ct s
ĠT any
ĠT rel
ĠT onto
Ġre working
ad der
im s
im er
Ġwh irl
se em
Ġst a
ch ingly
ce ll
ĠA jay
ĠS om
ĠS ens
ĠS asquatch
ri ka
ĠB abb
ĠB ACK
ur ry
ĠM augh
ĠM ale
ĠM ermaid
ĠC ath
ĠC AT
ĠH yn
ĠH aven
ĠH IM
Ġsh ops
Ġch ord
Ġch ips
Ġch iller
Ġch ubby
Ġat op
ess es
Ġall ure
art en
ag ne
ag ged
op er
op old
ous in
Ġde cipher
ĠP sych
ist ine
ĠR aven
ĠL ies
ĠL DS
ĠG ino
ĠJ aff
ĠJ FK
Ġpro st
ĠN am
pt y
Ġun ab
ĠE c
ĠE ra
ĠE mer
ĠE wok
ĠE thel
reat h
Ġno isy
ab ama
Ġlook alike
Ġbet s
Ġqu oted
Ġqu irk
Ġpo ly
int on
Ġro d
ish ness
aw ork
ict ed
ĠY EAR
ĠY ugosl
Ġafter life
get ting
ip se
ber ly
Ġbr u
hy ped
ĠSt alingrad
Ġspe wing
Ġsl edge
Ġmin er
me red
Ġcr ud
Ġcr amped
Ġcr iteria
the se
oc ent
Ġfin er
Ġev angel
Ġsub mitted
Ġsub mission
ub a
Ġworld ly
", "
ord inary
ĠSh rek
Ġext ension
ee z
Ġsuper imp
Ġtalk ies
ĠFor bidden
Ġdet est
ĠBe nd
Ġrep ug
Ġgener ates
Ġexam ines
Ġind isc
Ġlight en
ric one
Ġfant astical
Ġpred ators
ĠHar p
sh op
Ġtyp ing
Ġprof its
Ġste ep
ĠGod s
Ġsol itary
Ġant ic
Ġant idote
Ġ6 5
Ġdetail ing
ĠPer alta
ĠAd ult
Ġrespect ful
rom ance
Ġdoubt ful
over ty
Ġemb ell
ĠGu inea
eg na
Ġstri ps
Ġlim b
ĠGra ffiti
Ġpublic ly
friend s
Ġprop hetic
ĠChe y
Ġcommun ities
Ġexplo iting
ĠMad ness
Ġ193 5
ĠMac Murray
Ġoccur rence
AS E
Ġfresh ness
Ġbehav ed
Ġtradition ally
cra zy
ĠBas ic
Ġprefer ably
ĠIN C
Ġblock s
UT E
ĠLind y
osaur us
ĠTer rence
Ġkiss ed
idge on
Ġimagin ations
Ġdi agn
GE L
Pl ay
ĠLast ly
Ġende avor
ĠCinem ax
ĠMir ren
Ġerotic ism
Ġexcess ively
Ġwand ered
Ġdom ination
Mar g
ĠSun rise
mod el
Ġmiscast ing
Ġped d
Ex cept
ĠLand is
Ġsedu ction
ĠLI V
cut ting
Gr anted
Ġdomin ant
Ġtom ato
ĠMA G
ĠMA KE
ĠIng mar
Ġdiff ers
Ġnut ty
Ġfed eral
ĠEX ACT
Ġpoison ed
Ed ward
Ġmesmer ized
Ġbog us
Ġrecru ited
Che ck
Ġpsychopath ic
ĠTam ura
Me et
ĠOp en
Ġglim mer
Ġpartners hip
Jul ie
Ġrum ors
Ġshowc ased
Ġtowns folk
Ġchew s
ĠGovern or
Ġoutlaw s
Ġslut ty
ĠMey ers
Ġrestrict ed
Ġprivile ged
Ġdegener ates
ĠOlymp ic
Ġric hes
ĠRaw al
Ġcondu cted
ĠBatt lestar
ĠFO X
ĠSig ourney
Rose mary
Ġverb ally
Ġmerciless ly
ĠPere z
Ġpunct uated
Ġforesh adowing
fant asy
Ġthesp ian
Whe ther
ĠOpp enheimer
Ġcruc ifix
ĠAy kroyd
Ġeer ily
ĠMans field
ĠRi pley
Ġoutburst s
ĠGut ten
Ġmicroph one
ĠHoo ver
Ġintermin able
Ġcalc ulated
Ġmoust ache
ĠDynam ite
suff ering
ĠCE O
Ġdepl orable
ĠAlmod ovar
ĠPhyll is
ĠLAD Y
ĠPes ci
ĠGrah ame
Ġsard onic
ĠTolk ien
Xisten Z
C I
C ould
C ity
C arly
C ertainly
D O
F ortunately
H ero
I B
J an
J ake
L ots
P ossible
R a
R es
R og
S O
T C
W ater
W orld
W elcome
d ressing
e ither
e nded
f at
f ated
f ia
g ues
g uns
l if
p owers
r us
u he
v oice
z ac
Ġ vel
re lla
Ġf itted
Ġf ugitive
or g
ou f
Ġh og
Ġp its
Ġp ales
Ġin bred
Ġl ick
Ġl iner
br idge
ot er
ie llo
ĠT ate
ĠT axi
ow l
et ers
Ġwith draw
ĠA iello
ĠS ach
ĠS we
ĠS esame
ĠB AR
ĠB amb
ĠB OY
ĠM ail
ĠM ister
ter ous
ĠC ott
ĠC BC
ĠC ypher
ĠH ERE
ĠH ATE
ĠH IV
ĠH imesh
Ġsh ade
Ġsh ield
Ġsh abby
Ġsh ambles
ome nd
Ġch arts
Ġch unks
ĠW ald
ĠD as
ĠD ull
Ġj ungles
Ġfr idge
Ġsc ars
Ġpl entiful
Ġcom ically
Ġall y
ag lia
ol ith
th row
ĠP orn
Ġne cks
ĠL ars
ĠL ana
ĠL add
ĠG H
ĠG ale
ĠG ackt
ĠJ ung
Ġme ager
ich o
ĠN ob
ĠE wan
ĠE scape
Ġen gin
Ġen ables
Ġen raged
Ġscen ic
pl ate
pl anes
Ġper ipher
Ġcl unker
our t
ine ering
... ),
Ġover power
Ġpre ference
Ġam pl
ary a
ĠCh i
Ġfl ips
ĠY osh
Ġplot line
Ġrem aking
Ġrec l
Ġbr ute
Ġsl ime
Ġatt ain
ren n
ren na
Ġimp osed
Ġimp osing
Ġsur fer
Ġsur rog
Ġdec oration
Ġtra cked
Ġinv in
Ġinv iting
Ġins ensitive
Ġaction er
Ġsound tracks
ĠSh aggy
Ġ3 4
istic ated
ĠAn ime
ret te
ex ist
Ġgl ances
ĠDe ol
Ġimag ining
sy l
Ġsing ular
Ġmar ching
Ġrep ression
Ġcop ying
Ġ5 5
Ġfavor able
IN T
Ġple a
Ġ9 11
ĠLe ila
right eous
ĠWill em
Ġtrans forming
Ġpar aly
Ġpur ity
?? ???
Ġvill ages
Ġshoot outs
Ġesc ort
ĠGr ad
vol ved
mm mm
Ġgun fire
read ing
Ġnarr atives
Al bert
Ġland lord
Ġeng lish
Ġforg ivable
tim ore
ĠEl sa
ĠEl isabeth
Ġeye brow
ĠAny how
cl ock
EA L
ĠMor ricone
ĠOh io
ĠSch mid
ĠAust ria
ĠQu in
Ġcry ptic
Ġrecogn ised
Ġ195 2
bl uth
Ġaut istic
ĠMad h
ĠSw ank
aus er
ĠLou ie
ĠLove craft
ĠFred erick
Ġfat ally
Ġpack ing
Ġlau ndry
ĠBer ger
ena cious
ĠSci ent
ĠMiss issippi
Ġimpl ication
Ġdiv ide
Ġdiv ision
Ġdesert s
Ġbreath less
ĠFe bruary
abb ling
Ġham pered
ĠHel ena
Ġreflect ions
Sp ir
Ġcivil ized
Ġna Ã¯
ĠTer i
ĠRon nie
Ġfle a
Ġhur ried
Ġcounter point
roll s
ĠLam as
BO DY
197 0
197 1
eter an
Ġhack ing
ĠCH AR
ĠWr iting
ĠTy ra
ĠRad ha
ĠComp are
ĠDun st
Ġexer c
Ġsurf ers
Ġgar ner
Christ mas
ĠFin land
ĠSav ini
Ġfac ets
Ġrank ing
Ġcock ney
ĠOz u
ĠPL OT
Ġdevil ish
ĠRes ident
ĠDi Caprio
ĠTem pest
Ġclown s
ĠChurch ill
ĠThanks giving
cont rol
Ġasp ire
Ġconclud ed
ĠImp ossible
Ġsadd led
Ġapolog ies
Ġagg ress
Ġow ed
ĠLin ney
pel g
Ġorchest rated
ĠGand olfini
ĠMcK enna
Ġarc s
Ġlip stick
ĠScream ing
Ġincorpor ates
mun ks
ĠRud olph
Ġsmell s
Ġedit ors
ĠGle ason
astard ly
Ġbarb ar
Ġsque amish
ĠDud ikoff
olt z
Ġpronoun ced
Gl enn
Ġmim ic
ĠVoy age
Ġbree zy
Ġhott ie
blahblah blahblah
Ġclut ches
Ġnymph omaniac
ogen ic
ĠPee bles
Ġdecad ent
Phil ip
Ġoverwhelm ingly
ĠMcCl ure
Ġcaf Ã©
Ġunrecogn izable
Ġcoh orts
Ġmercen ary
WAY S
ĠPau ly
Ġculmin ates
ĠTark ovsky
ĠKirst en
Ġunderwhel ming
Ġirreve rent
ĠLeach man
ĠBruck heimer
Ġdisple asure
Ġmism atched
ĠCau cas
Ġtran qu
Ġeuthan asia
Ġdup ed
ĠEpp s
ĠEAR TH
ĠLuz hin
ĠChronic les
Ġcredential s
' ...
4 2
; "
C ut
D iane
G B
H uman
I VER
J ew
J eremy
K iller
M od
N obody
P H
P ick
R abbit
T R
U LL
U SE
U GH
W ait
b at
c olor
d ue
d rug
f arious
f emale
m ay
p odge
t ube
v ine
v amp
w ig
Ġt rench
Ġt ainted
in ny
Ġthe oret
is an
Ġf x
Ġm aud
Ġm ache
Ġb ud
Ġc utes
Ġh odge
Ġp ounding
ar otti
Ġd ives
Ġd astardly
ĠI ne
ĠI zzard
br ook
Ġg os
Ġg uru
Ġn ud
Ġn ub
il al
ĠT ou
ĠT ab
ĠT roy
ĠT ito
ĠT ouch
Ġst em
id t
ch on
Ġfor um
ĠA P
ĠA ry
ĠS ed
ĠS ang
ĠM ig
ĠM ull
Ġwe ave
ill ot
Ġ( `
ĠC ant
ĠC over
ĠC renna
ĠD D
ĠD ate
ĠD ino
un al
Ġsc or
Ġsc athing
Ġcom atose
ak ably
us c
Ġal arming
est eem
th yn
Ġde ceptive
ĠR ut
Ġne farious
ĠL ame
ĠF urious
um ed
ĠG ian
ĠG ellar
ĠJ ou
ard ing
Ġpro se
ack ers
ĠN em
ĠN ature
Ġcan s
ĠE ffect
ĠE ssentially
ig ated
Ġwat chers
ong e
ĠO sw
ĠO TT
Ġgo ver
ity ville
Ġen chanted
ab es
Ġcl ones
og ist
ac on
Ġover played
Ġwr ist
Ġgu ff
ĠY ang
ĠV el
ĠV ito
ip h
du bbed
ĠSt ories
ru it
Ġcont am
les que
Ġ19 00
ĠAl abama
ub us
Ġsupp lied
ram atic
Ġacc use
ster ious
ord inate
Ġep ilogue
ĠSh im
Ġcle avage
ĠTh umbs
Ġ3 1
Ġ3 6
Ġbo iling
Ġwoman izing
co cious
Ġdel usions
ĠSo ap
Ġty coon
Ġboy ish
Ġgl itter
io let
ĠDe al
Ġspecial ist
ĠAr c
ĠMar vel
Ã© g
Ġbudget ed
Ġamaz e
ĠSe vent
ĠCar uso
ĠOn es
Ġref usal
Ġz oo
ĠNew hart
Ġsw ings
sh ort
Ġmor p
Ġridiculous ness
Ġsol ar
any thing
mm as
Ġdev ote
Ġparent al
Ġequ ation
Ġcompl iments
Ġsign als
ĠEl en
ĠPh antasm
Ġreve red
Ġeye ball
oun ce
Ġflaw lessly
ĠAny body
ĠSam uels
!!!! <
ĠMor row
Ġweird est
ĠTr inity
ĠSch ro
Ġcat alyst
Ġexec s
ĠAng le
Ġprop he
Ġfire works
bor ig
Ġoper ations
Ġer ase
Ġagree ing
udd led
ĠSu it
Ġtravel ers
Ġmass ac
Ġpointless ly
lict ed
Ġcompet itive
Ġprogram mes
Ġjump y
ĠGold smith
ĠOF F
ĠAfric ans
Ġrepl aces
Ġpers istent
oh an
akespe are
ĠDu chess
Ġoppos ing
ĠAb u
Ġmat tered
Ġblind ly
Ġdrag ons
Ġcoun cil
Ġsepar ately
iac s
Ġawkward ness
ĠPal m
ĠPal mer
Ġaccompl ice
ĠSil vers
ĠSil va
Ġaband ons
ĠLind bergh
ĠHell o
Ġexperiment ing
ĠCass andra
ĠCarr ot
Ġpress ures
law s
ĠOl en
ĠOl ive
Ġbat man
Ġgas p
ĠCle vel
Pl us
Ġconce it
Ġconce ivable
Ġadmire rs
Ġdemonstr ating
Ġbitter ness
Ġpolic ies
world ly
ĠMin utes
Ġconcent rating
Ġcapital ist
pr oof
Ġmetap hysical
ĠCru ella
Ġdiss atisf
ĠInc identally
Ġcorn field
Ġoblig ation
Ġexplicit ly
Ġactiv ist
agg ers
ĠJer icho
ĠCur ry
Ġgee ks
Ġmechan ics
ĠSU PER
ĠTen ant
Ġimperson ating
Ġingred ient
ĠBal timore
ĠBook er
ĠMun ro
ĠEVERY ONE
Ġmal icious
Ġboun ce
Ġlun acy
Ġcontrad iction
Ġrefuge es
Ġassemb ly
numb ingly
Ġsched uled
Ġrecon st
ĠSha un
ĠSha olin
Fl ash
Ġswallow ed
Ġabdu ction
cel ona
Ġdimin ished
Ġembark s
ĠPortug al
ĠMol ina
rup ulous
Mon ster
Ġcollaps ing
Ġpione ers
hilar ious
>> >>
Ġven om
Ġglee fully
Ġmusc les
ĠLass ie
ĠFil ip
Lou is
ĠSke leton
ĠSlo ane
count ry
Ġarrang ement
Ġbod ily
Ġincess ant
ĠMP AA
ĠWit ness
ĠUll man
Ġhistrion ics
Ġegot istical
Ġgamb ler
Ġsem inal
ĠGert rude
ĠWent worth
ĠRib isi
ĠLanc aster
Ġgram mar
Ġdenomin ator
Ġgibber ish
Ġkitt ens
ĠLith gow
ĠBogdan ovich
ĠBened ict
Ġengin es
0 1
B o
B ell
B attle
C D
C arn
C atherine
D or
D ir
F OR
F unny
H it
J ac
J OR
N on
O pera
P ri
S weet
U G
W all
b are
b iz
c us
c ott
d umb
g arde
h ild
j er
j ob
l ate
m ins
n io
s ad
u zz
w orn
w agon
Ġthe or
Ġs ans
Ġw itt
Ġo d
Ġf aking
Ġf izz
Ġc uss
Ġth re
Ġh ay
an z
Ġp iles
Ġp inn
Ġd ame
ĠI l
br ained
Ġe the
Ġe agle
ot ally
ie v
ĠT OT
ĠT weety
Ġst ressed
id en
ch ors
ĠA ub
ĠA mb
ĠA borig
am ax
ĠS um
ĠS aints
ro ft
ro ianni
ĠB ark
ĠB ann
ĠB ix
ĠM ID
ĠC ad
ĠC ale
ĠC ash
ĠC Ã©
ĠC oop
ĠH aim
ĠH EA
ĠH icks
Ġch ur
pe ace
Ġat ypical
ĠW A
ĠW arners
ĠD od
ust re
Ġso il
Ġso da
ol ita
est ruct
ĠP H
ĠP M
ĠP ad
ĠP ack
ĠR V
ĠR IP
Ġne on
ĠL er
ĠL oom
ĠL anguage
Ġr anger
Ġr iddle
Ġr ants
ĠF em
ĠF amous
qu ar
Ġcon ver
red its
ĠG EN
ĠG iamatti
os er
Ġpro bable
Ġun balanced
Ġun orthodox
Ġany how
Ġlo re
Ġlo ot
Ġshe s
Ġen lists
ab ar
Ġpe renn
... ,
Ġro aring
Ġro aming
ict ure
ĠAnd ie
iz ers
ĠV idor
ĠV ertigo
ĠHe arn
Ġback stage
Ġrec ite
we aring
ĠSt at
ĠSt arting
ru kh
Ġsl it
Ġcont ra
Ġgr umpy
Ġinc l
Ġcr umbling
ĠAl aska
Ġres ign
Ġcomp ulsive
Ġev oked
Ġsub ter
ale tte
Ġter rain
li b
app er
oot er
Ġcam arad
ĠSh adows
ime ly
ane ke
Ġcall ous
istic s
apt or
uck le
uck oo
oint ment
Ġinter ludes
ĠSo fia
Ġshort ened
Ġsuper vis
sc he
Ġspecial s
ĠFor ster
Ġdet r
Ġdet er
Ġsk ips
appoint ing
ĠBe au
ĠSc ully
ĠCl ouzot
Ġgra vit
Ġ8 2
Ġ8 6
Ġ8 8
Ġbas es
ĠNo am
ĠCar lo
ĠLe an
ĠLe opold
ĠHar lem
?? <
19 50
Ġcol ossal
Ġmoment arily
ĠEd in
AN C
ĠDan i
Ġfore ns
cer ning
ĠEnglish man
Ġgun man
Ġill usions
**** **
ĠPe aks
EN CE
ĠEl aine
Ġear ning
Ġbar g
iment ary
Ġsuff oc
ĠCom ed
Ġproject ed
Ġoper ative
Ġoper ates
Ġtotal itarian
Ġ: )<
Ġimpro ves
ĠVan cou
Ġ196 4
ĠSw ope
oph isticated
Ġterror ized
Ġterror izing
ĠFl aming
ĠBoy d
Ġsqu al
ĠAg nes
ĠAustral ians
Ġclimax es
ĠHigh way
Ġur ges
Ġobject ion
Sh ort
ĠDark o
Bl ade
Ġham ming
ĠPhil o
ĠSl ayer
roc odile
Ġaccom mod
Ġunknown s
abr ol
Ġprotect ed
Ġsac char
ĠDO G
Ġassass inate
ĠHaw kins
Ġsole mn
Ġscrew ing
ĠAgain st
Ġspin ster
ĠBE FORE
Ġlesbian ism
Ne ed
Ġcamer awork
cons ciously
Ġflo pped
Ġflo ats
Ġfictional ized
[...]
