{"<|endoftext|>":0,"!":1,"\"":2,"#":3,"$":4,"%":5,"&":6,"'":7,"(":8,")":9,"*":10,"+":11,",":12,"-":13,".":14,"/":15,"0":16,"1":17,"2":18,"3":19,"4":20,"5":21,"6":22,"7":23,"8":24,"9":25,":":26,";":27,"<":28,"=":29,">":30,"?":31,"@":32,"A":33,"B":34,"C":35,"D":36,"E":37,"F":38,"G":39,"H":40,"I":41,"J":42,"K":43,"L":44,"M":45,"N":46,"O":47,"P":48,"Q":49,"R":50,"S":51,"T":52,"U":53,"V":54,"W":55,"X":56,"Y":57,"Z":58,"[":59,"\\":60,"]":61,"^":62,"_":63,"`":64,"a":65,"b":66,"c":67,"d":68,"e":69,"f":70,"g":71,"h":72,"i":73,"j":74,"k":75,"l":76,"m":77,"n":78,"o":79,"p":80,"q":81,"r":82,"s":83,"t":84,"u":85,"v":86,"w":87,"x":88,"y":89,"z":90,"{":91,"|":92,"}":93,"~":94,"¡":95,"¢":96,"£":97,"¤":98,"¥":99,"¦":100,"§":101,"¨":102,"©":103,"ª":104,"«":105,"¬":106,"®":107,"¯":108,"°":109,"±":110,"²":111,"³":112,"´":113,"µ":114,"¶":115,"·":116,"¸":117,"¹":118,"º":119,"»":120,"¼":121,"½":122,"¾":123,"¿":124,"À":125,"Á":126,"Â":127,"Ã":128,"Ä":129,"Å":130,"Æ":131,"Ç":132,"È":133,"É":134,"Ê":135,"Ë":136,"Ì":137,"Í":138,"Î":139,"Ï":140,"Ð":141,"Ñ":142,"Ò":143,"Ó":144,"Ô":145,"Õ":146,"Ö":147,"×":148,"Ø":149,"Ù":150,"Ú":151,"Û":152,"Ü":153,"Ý":154,"Þ":155,"ß":156,"à":157,"á":158,"â":159,"ã":160,"ä":161,"å":162,"æ":163,"ç":164,"è":165,"é":166,"ê":167,"ë":168,"ì":169,"í":170,"î":171,"ï":172,"ð":173,"ñ":174,"ò":175,"ó":176,"ô":177,"õ":178,"ö":179,"÷":180,"ø":181,"ù":182,"ú":183,"û":184,"ü":185,"ý":186,"þ":187,"ÿ":188,"Ā":189,"ā":190,"Ă":191,"ă":192,"Ą":193,"ą":194,"Ć":195,"ć":196,"Ĉ":197,"ĉ":198,"Ċ":199,"ċ":200,"Č":201,"č":202,"Ď":203,"ď":204,"Đ":205,"đ":206,"Ē":207,"ē":208,"Ĕ":209,"ĕ":210,"Ė":211,"ė":212,"Ę":213,"ę":214,"Ě":215,"ě":216,"Ĝ":217,"ĝ":218,"Ğ":219,"ğ":220,"Ġ":221,"ġ":222,"Ģ":223,"ģ":224,"Ĥ":225,"ĥ":226,"Ħ":227,"ħ":228,"Ĩ":229,"ĩ":230,"Ī":231,"ī":232,"Ĭ":233,"ĭ":234,"Į":235,"į":236,"İ":237,"ı":238,"Ĳ":239,"ĳ":240,"Ĵ":241,"ĵ":242,"Ķ":243,"ķ":244,"ĸ":245,"Ĺ":246,"ĺ":247,"Ļ":248,"ļ":249,"Ľ":250,"ľ":251,"Ŀ":252,"ŀ":253,"Ł":254,"ł":255,"Ń":256,"Ġt":257,"Ġa":258,"he":259,"in":260,"Ġthe":261,"Ġs":262,"re":263,"Ġw":264,"Ġo":265,"is":266,"er":267,"nd":268,"Ġf":269,"Ġm":270,"Ġb":271,"it":272,"at":273,"ing":274,"Ġc":275,"en":276,"es":277,"or":278,"ou":279,"Ġth":280,"on":281,"Ġh":282,"ll":283,"Ġof":284,"Ġand":285,"an":286,"Ġto":287,"Ġp":288,"ar":289,"Ġd":290,"ed":291,"as":292,"Ġin":293,"Ġl":294,"om":295,"Ġis":296,"ĠI":297,"br":298,"ic":299,"Ġg":300,"Ġ/":301,"Ġ/>":302,"le":303,"Ġe":304,"ot":305,"Ġn":306,"al":307,"ut":308,"st":309,"ct":310,"il":311,"Ġit":312,"Ġbe":313,"ve":314,"ie":315,"Ġmo":316,"ly":317,"ĠT":318,"Ġre":319,"Ġon":320,"Ġthat":321,"ow":322,"ver":323,"ad":324,"ent":325,"'s":326,"Ġhe":327,"ion":328,"Ġthis":329,"im":330,"ay":331,"Ġwh":332,"se":333,"Ġst":334,"et":335,"gh":336,"id":337,"ch":338,"Ġwas":339,"Ġmov":340,"Ġy":341,"Ġ/><":342,"ith":343,"ilm":344,"all":345,"Ġfilm":346,"oo":347,"Ġfor":348,"Ġas":349,"Ġu":350,"ce":351,"Ġwith":352,"Ġan":353,"ke":354,"ĠA":355,"am":356,"ld":357,"ĠS":358,"Ġse":359,"Ġmovie":360,"ir":361,"ĠThe":362,"ro":363,"Ġyou":364,"Ġha":365,"ri":366,".<":367,"ĠB":368,"her":369,"ur":370,"Ġli":371,"Ġbut":372,"ĠM":373,"ra":374,"Ġnot":375,"Ġwe":376,"'t":377,"ally":378,"ill":379,"ter":380,"Ġ(":381,"ĠC":382,"Ġ\"":383,"ck":384,"ĠH":385,"Ġare":386,"Ġsh":387,"ome":388,"Ġhis":389,"Ġch":390,"pe":391,"ers":392,"..":393,"Ġat":394,"ould":395,"ul":396,"ĠW":397,"Ġhave":398,"ght":399,"if":400,"ĠD":401,"ust":402,"un":403,"em":404,"Ġj":405,"Ġsu":406,"Ġfr":407,"Ġsc":408,"out":409,"Ġact":410,"Ġdo":411,"ble":412,"ain":413,"Ġex":414,"Ġone":415,"ess":416,"Ġwho":417,"Ġk":418,"el":419,"Ġso":420,"very":421,"act":422,"Ġpl":423,"Ġcom":424,"ood":425,"Ġall":426,"ant":427,"Ġab":428,"art":429,"ies":430,"pp":431,"ak":432,"us":433,"Ġal":434,"Ġby":435,"ag":436,"Ġv":437,"ol":438,"est":439,"th":440,"op":441,"ous":442,"Ġde":443,"ĠP":444,"ist":445,"and":446,"Ġwor":447,"ĠR":448,"Ġfrom":449,"Ġthey":450,"Ġlike":451,"one":452,"Ġne":453,"ĠL":454,"Ġout":455,"ast":456,"Ġr":457,"ven":458,"Ġwhe":459,"Ġsome":460,"ĠF":461,"Ġint":462,"Ġor":463,"qu":464,"ation":465,"fe":466,"Ġcon":467,"um":468,"red":469,"ĠG":470,"ĠJ":471,"ough":472,"au":473,"Ġher":474,"ate":475,"Ġme":476,"ĠIt":477,"Ġjust":478,"Ġabout":479,"Ġhas":480,"res":481,"os":482,"ich":483,"ind":484,"ard":485,"Ġpro":486,"ive":487,"ory":488,"ack":489,"Ġchar":490,"ĠN":491,"Ġcan":492,"ort":493,"pt":494,"Ġtim":495,"Ġun":496,"ĠE":497,"his":498,"ig":499,"ud":500,"The":501,"ook":502,"ire":503,"ake":504,"reat":505,"Ġle":506,"Ġcharact":507,"ight":508,"Ġgood":509,"Ġany":510,"Ġwat":511,"Ġman":512,"Ġlo":513,"ong":514,"Ġup":515,"ĠO":516,"Ġtr":517,"Ġmore":518,"Ġget":519,"Ġgo":520,"Ġsee":521,"Ġno":522,"Ġwould":523,"ity":524,"Ġfe":525,"ound":526,"Ġvery":527,"Ġwhat":528,"Ġmy":529,"ther":530,"Ġthere":531,"ame":532,"ite":533,"ge":534,"nt":535,"ide":536,"able":537,"Ġbec":538,"Ġstory":539,"Ġtime":540,"od":541,"Ġwhen":542,"Ġshe":543,"Ġ1":544,"hing":545,"Ġen":546,"ore":547,"Ġ-":548,"Ġscen":549,"Ġwere":550,"Ġhad":551,"oy":552,"Ġreally":553,"ure":554,"Ġif":555,"Ġtheir":556,"ell":557,"Ġwatch":558,"Ġshow":559,"Ġonly":560,"ci":561,"Ġhim":562,"itt":563,"ab":564,"Ġeven":565,"Ġother":566,"ink":567,"ick":568,"ĠK":569,"pl":570,"Ġper":571,"so":572,"Ġwhich":573,"Ġcl":574,"Ġthem":575,"our":576,"Ġkn":577,"man":578,"ine":579,"Ġdid":580,"Ġthan":581,"ond":582,"ment":583,"og":584,"te":585,"uch":586,"ious":587,"ars":588,"ays":589,"are":590,"Ġend":591,"Ġdoes":592,"ap":593,"ade":594,"ves":595,"ause":596,"Ġpe":597,"...":598,"Ġgreat":599,"ice":600,"Ġlook":601,"Ġmuch":602,"ue":603,"Ġbad":604,"Ġbet":605,"Ġqu":606,"Ġar":607,"ac":608,"Ġbeen":609,"Ġcould":610,"irect":611,"ople":612,"Ġim":613,"Ġwill":614,"ert":615,"irst":616,"ple":617,"Ġhow":618,"Ġpo":619,"ence":620,"Ġover":621,"Ġinto":622,"lf":623,"ĠThis":624,"ne":625,"Ġwell":626,"Ġpre":627,"Ġmost":628,"Ġknow":629,"ass":630,"ry":631,"Ġpeople":632,"int":633,"ose":634,"Ġthink":635,"Ġtw":636,"Ġro":637,"other":638,"for":639,"Ġdis":640,"Ġbecause":641,"Ġtoo":642,"Ġad":643,"age":644,"Ġus":645,"ff":646,"per":647,"Ġevery":648,"fter":649,"av":650,"Ġag":651,"Ġreal":652,"ors":653,"ful":654,"Ġam":655,"Ġmake":656,"Ġoff":657,"Ġdirect":658,"ish":659,"Ġpart":660,"Ġthing":661,"Ġfirst":662,"Ġmade":663,"ull":664,"ile":665,"ny":666,"Ġfun":667,"aw":668,"ict":669,"Ġway":670,"Ġalso":671,"hat":672,"ty":673,"ere":674,"oll":675,"ost":676,"Ġdon":677,"ian":678,"akes":679,"Ġmovies":680,"Ġseem":681,"Ġthr":682,"own":683,"Ġwr":684,"ary":685,"Ġ'":686,"Ġcharacter":687,"Ġits":688,"ated":689,"Ġgu":690,"ep":691,"ical":692,"gin":693,"Ġsp":694,"iew":695,"Ġcharacters":696,"Ġbl":697,"ace":698,"ob":699,"ress":700,"Ġwork":701,"ually":702,"ng":703,"Ġte":704,"ĠAnd":705,"fect":706,"ĠCh":707,"Ġfl":708,"hed":709,"Ġfilms":710,"cc":711,"pect":712,"ial":713,"Ġplay":714,"ĠY":715,"iz":716,"Ġseen":717,"Ġplot":718,"self":719,"Ġthen":720,"ĠV":721,"ving":722,"Ġyour":723,"Ġwant":724,"ces":725,"omet":726,"Ġye":727,"Ġbeing":728,"ĠBut":729,"Ġaw":730,"ance":731,"),":732,"Ġser":733,"Ġlove":734,"Ġmany":735,"Ġsay":736,"ittle":737,"Ġafter":738,"ang":739,"Ġtwo":740,"get":741,"Ġnever":742,"nder":743,"Ġacting":744,").":745,"ĠHe":746,"ans":747,"ens":748,"urn":749,"mer":750,"This":751,"Ġwhere":752,"ip":753,"ark":754,"Ġent":755,"Ġthrough":756,"ved":757,"ĠIn":758,"Ġ<":759,"Ġback":760,"Ġlife":761,"ach":762,"Ġbest":763,"Ġlittle":764,"Ġsomet":765,"Ġrem":766,"Ġever":767,"Ġhor":768,"ult":769,"Ġrec":770,"ild":771,"ily":772,"ather":773,"ber":774,"Ġdes":775,"Ġbetter":776,"we":777,"Ġbr":778,"du":779,"hy":780,"vel":781,"ise":782,"ions":783,"wn":784,"!!":785,"ual":786,"Ġscene":787,"ĠSt":788,"ru":789,"Ġfind":790,"be":791,"thing":792,"Ġperfor":793,"ought":794,"Ġspe":795,"Ġshould":796,"rap":797,"aking":798,"Ġsl":799,"Ġscenes":800,"vers":801,"Ġpr":802,"Ġcont":803,"ase":804,"iend":805,"ertain":806,"Ġfeel":807,"Ġmin":808,"less":809,"'ve":810,"Ġatt":811,"Ġunder":812,"Ġ2":813,"Ġgr":814,"Ġi":815,"me":816,"lie":817,"augh":818,"Ġagain":819,"ĠU":820,"ting":821,"ents":822,"Ġri":823,"ever":824,"Ġstill":825,"Ġhere":826,"ree":827,"erest":828,"ia":829,"les":830,"igh":831,"ning":832,"fore":833,"ren":834,"ĠThere":835,"Ġkill":836,"Ġsomething":837,"Ġinc":838,"ably":839,"ense":840,"'m":841,"Ġinterest":842,"Ġsuch":843,"Ġ19":844,"ating":845,"Ġhapp":846,"Ġimp":847,"Ġlot":848,"Ġthese":849,"Ġmay":850,"ations":851,"ave":852,"Ġcr":853,"arly":854,"ason":855,"ail":856,"Ġhum":857,"alk":858,"ath":859,"Ġsur":860,"Ġold":861,"Ġperforman":862,"Ġgi":863,"reen":864,"the":865,"Ġcast":866,"ror":867,"ock":868,"up":869,"ater":870,"Ġpoint":871,"ect":872,"iv":873,"Ġdoesn":874,"Ġmus":875,"Ġthose":876,"Ġactors":877,"Ġap":878,"Ġwatching":879,"ĠAl":880,"Ġfam":881,"Ġdidn":882,"joy":883,"Ġdec":884,"ying":885,"Ġres":886,"Ġra":887,"Ġsim":888,"Ġche":889,"Ġguy":890,"Ġyears":891,"Ġwom":892,"Ġfunny":893,"Ġcou":894,"Ġgir":895,"oth":896,"Ġgen":897,"ffect":898,"Ġview":899,"Ġenjoy":900,"Ġset":901,"Ġmakes":902,"Ġtra":903,"Ġstart":904,"Ġfact":905,"erson":906,"Ġbelie":907,"ute":908,"Ġdown":909,"edy":910,"Ġgoing":911,"ĠIf":912,"Ġcomp":913,"ool":914,"Ġsame":915,"Ġob":916,"iss":917,"az":918,"--":919,"oc":920,"Ġactually":921,"Ġfew":922,"Ġbefore":923,"oss":924,"Ġfin":925,"old":926,"Ġem":927,"Ġlong":928,"Ġev":929,"Ġsub":930,"der":931,"ale":932,"Ġpret":933,"Ġprodu":934,"ience":935,"ft":936,"**":937,"Ġwhile":938,"cial":939,"Ġyoung":940,"Ġgot":941,"Ġnow":942,"Ġthought":943,"Ġter":944,"rigin":945,"Ġown":946,"Ġwhy":947,"li":948,"Ġdif":949,"ction":950,"Ġbig":951,"Ġdirector":952,"Ġke":953,"Ġbit":954,"'re":955,"ons":956,"Ġtri":957,"Ġthough":958,"ub":959,"Ġexce":960,"ript":961,"Ġturn":962,"hen":963,"Ġsupp":964,"Ġnothing":965,"Ġorigin":966,"ible":967,"ram":968,"ĠJo":969,"Ġanother":970,"aut":971,"Ġnew":972,"Ġsm":973,"Ġfriend":974,"ince":975,"Ġcomple":976,"iting":977,"Ġrel":978,"Ġ&":979,"Ġeffect":980,"Ġinv":981,"Ġgirl":982,"Ġaround":983,"rent":984,"Ġquite":985,"Ġseems":986,"Ġthings":987,"onder":988,"Ġpretty":989,"Ġapp":990,"00":991,"ings":992,"ew":993,"Ġscreen":994,"Ġenough":995,"air":996,"meric":997,"ign":998,"ched":999,"ically":1000,"most":1001,"ib":1002,"Ġneed":1003,"Ġlaugh":1004,"ways":1005,"Ġright":1006,"ris":1007,"ween":1008,"ness":1009,"Ġhard":1010,"Ġscript":1011,"ank":1012,"Ġfar":1013,"Ġworld":1014,"Ġacc":1015,"Ġkid":1016,"Ġstr":1017,"Ġoriginal":1018,"Ġhigh":1019,"Ġperson":1020,"ately":1021,"Ġtake":1022,"ĠShe":1023,"app":1024,"ster":1025,"ead":1026,"Ġins":1027,"ced":1028,"Ġbetween":1029,"Ġkind":1030,"ention":1031,"Ġappe":1032,"Ġmust":1033,"rill":1034,"inem":1035,"Ġop":1036,"Ġmusic":1037,"Ġgive":1038,"ĠBr":1039,"Ġhorror":1040,"Ġes":1041,"hes":1042,"utes":1043,"Ġwonder":1044,"ĠAs":1045,"Ġrole":1046,"ward":1047,"Ġreason":1048,"\",":1049,"Ġsec":1050,"ord":1051,"vious":1052,"ash":1053,"its":1054,"Ġgets":1055,"Ġisn":1056,"Ġput":1057,"Ġsaw":1058,"Ġtimes":1059,"Ġmom":1060,"Ġtell":1061,"Ġalways":1062,"Ġseries":1063,"Ġwhole":1064,"aid":1065,"Ġbu":1066,"Ġaction":1067,"Ġsex":1068,"ĠAmeric":1069,"Ġleast":1070,"ased":1071,"Ġhel":1072,"icul":1073,"ĠYou":1074,"Ġinteresting":1075,"Ġmain":1076,"ody":1077,"oot":1078,"Ġcome":1079,"Ġcomedy":1080,"ĠThey":1081,"here":1082,"Ġread":1083,"Ġchild":1084,"Ġlead":1085,"Ġbeaut":1086,"Ġsound":1087,"Ġdone":1088,"Ġclass":1089,"Ġep":1090,"ner":1091,"ife":1092,"Ġboth":1093,"ĠHow":1094,"Ġwithout":1095,"Ġexpect":1096,"arr":1097,"Ġalmost":1098,"Ġide":1099,"Ġcons":1100,"Ġshot":1101,"Ġmight":1102,"Ġminutes":1103,"ully":1104,"gg":1105,"Ġcam":1106,"view":1107,"Ġcinem":1108,"hn":1109,"Ġhand":1110,"rible":1111,"Ġdiffe":1112,"'ll":1113,"Ġworth":1114,"Ġaud":1115,"xt":1116,"ines":1117,"Ġcomplete":1118,"bably":1119,"Ġexpl":1120,"ouse":1121,"uring":1122,"de":1123,"ĠSh":1124,"Ġco":1125,"Ġlast":1126,"Ġanything":1127,"ime":1128,"Ġperformance":1129,"stand":1130,"Ġbegin":1131,"though":1132,"Ġbook":1133,"Ġcare":1134,"son":1135,"Ġinst":1136,"ane":1137,"Ġcle":1138,"Ġcour":1139,"Ġfamily":1140,"Ġhelp":1141,"It":1142,"cially":1143,"ĠTh":1144,"\".":1145,"Ġ3":1146,"Ġentertain":1147,"ov":1148,"ism":1149,"Ġsince":1150,"Ġwar":1151,"Ġel":1152,"Ġcall":1153,"Ġfound":1154,"ĠTV":1155,"era":1156,"Ġaway":1157,"ograp":1158,"ialog":1159,"oney":1160,"mend":1161,"ĠFr":1162,"Ġext":1163,"Ġcar":1164,"istic":1165,"Ġsequ":1166,"ures":1167,"ative":1168,"Ġprobably":1169,"Ġart":1170,"ition":1171,"atch":1172,"Ġdialog":1173,"ĠWh":1174,"ange":1175,"ros":1176,"Ġrun":1177,"Ġbo":1178,"Ġwoman":1179,"ER":1180,"Ġsure":1181,"VD":1182,"aster":1183,"als":1184,"ĠAn":1185,"ret":1186,"ject":1187,"co":1188,"pecially":1189,"Ġlet":1190,"Ġ10":1191,"Ġrather":1192,"ah":1193,"isod":1194,"ling":1195,"apt":1196,"Ġadd":1197,"led":1198,".\"":1199,"uck":1200,"oint":1201,"wh":1202,"Ġworst":1203,"ten":1204,"wood":1205,"Ġhappen":1206,"Ġabs":1207,"ĠDVD":1208,"osed":1209,"Ġlik":1210,"Ġour":1211,"Ġmaking":1212,"Ġmean":1213,"ee":1214,"Ġvers":1215,"ither":1216,"Ġsurp":1217,"Ġcourse":1218,"alf":1219,"Ġkeep":1220,"Ġanyone":1221,"Ġpoor":1222,"Ġepisod":1223,"ont":1224,"Ġbelieve":1225,"ok":1226,"Ġeach":1227,"Ġtrying":1228,"ollow":1229,"olly":1230,"Ġdifferent":1231,"Ġbeautif":1232,"Ġmind":1233,"ates":1234,"Ġdel":1235,"Ġbor":1236,"ĠJohn":1237,"Ġcomes":1238,"ady":1239,"Ġjob":1240,"ec":1241,"ommend":1242,"Ġcre":1243,"blem":1244,"Ġinter":1245,"umb":1246,"ingly":1247,"ex":1248,"Ġsense":1249,"Ġplace":1250,"hip":1251,"Ġending":1252,"Ġshows":1253,"Ġgoes":1254,"Ġplayed":1255,"fin":1256,"ĠSo":1257,"Ġrest":1258,"ĠThat":1259,"iter":1260,"ments":1261,"Ġty":1262,"Ġboy":1263,"Ġpol":1264,"ney":1265,"Ġless":1266,"empt":1267,"dd":1268,"ics":1269,"rist":1270,"Ġyet":1271,"Ġshort":1272,"iece":1273,"Ġday":1274,"Ġproblem":1275,"ope":1276,"atter":1277,"ĠWhat":1278,"'d":1279,"Ġperfect":1280,"Ġac":1281,"ray":1282,"Ġstand":1283,"Ġpres":1284,"ality":1285,"ks":1286,"arent":1287,"ilar":1288,"lud":1289,"Ġmem":1290,"Ġwatched":1291,"Ġrecommend":1292,"Ġwasn":1293,"Ġcreat":1294,"Ġfan":1295,"ĠWe":1296,"ph":1297,"Ġlooks":1298,"Ġlooking":1299,"Ġeffects":1300,"Ġport":1301,"Ġsuper":1302,"Ġmoney":1303,"ream":1304,"ower":1305,"ortun":1306,"aps":1307,"Ġactor":1308,"Ġhalf":1309,"ann":1310,"sp":1311,"Ġgl":1312,"Ġconf":1313,"way":1314,"Ġdram":1315,"ident":1316,"Ġfollow":1317,"io":1318,"Ġsit":1319,"ĠNot":1320,"....":1321,"Ġplays":1322,"Ġcertain":1323,"gether":1324,"Ġtogether":1325,"Ġaudience":1326,"Ġfav":1327,"Ġhead":1328,"Ġmiss":1329,"Ġsaid":1330,"ied":1331,"sc":1332,"Ġunderstand":1333,"llent":1334,"arn":1335,"land":1336,"ĠTH":1337,"ĠDe":1338,"Ġsomeone":1339,"Ġdep":1340,"Ġhaving":1341,"Ġelse":1342,"ues":1343,"Ġtakes":1344,"Ġreview":1345,"Ġsecond":1346,"Ġhimself":1347,"Ġtalk":1348,"Ġimag":1349,"Ġmon":1350,"Ġthree":1351,"Ġposs":1352,"Ġleft":1353,"Ġnice":1354,"Ġed":1355,"Ġtrue":1356,"Ġrele":1357,"ames":1358,"not":1359,"udget":1360,"day":1361,"Ġversion":1362,"cept":1363,"ollywood":1364,"Ġspecial":1365,"Ġnight":1366,"10":1367,"ature":1368,"ix":1369,"ĠBl":1370,"Ġfall":1371,"upid":1372,"Ġfriends":1373,"Ġespecially":1374,"Ġidea":1375,"Ġvis":1376,"ited":1377,"atic":1378,"ists":1379,"ĠAmerican":1380,"cing":1381,"uff":1382,"ply":1383,"sy":1384,"Ġcomm":1385,"ional":1386,"Ġuse":1387,"ĠAll":1388,"Ġcame":1389,"Ġph":1390,"Ġentire":1391,"Ġeverything":1392,"ross":1393,"ĠFor":1394,"ted":1395,"Ġobvious":1396,"ired":1397,"Ġsch":1398,"ier":1399,"Ġhour":1400,"Ġinvol":1401,"Ġey":1402,"Ġbeautiful":1403,"ared":1404,"Ġseeing":1405,"Ġdet":1406,"Ġwife":1407,"Ġexcellent":1408,"Ġsing":1409,"Ġdist":1410,"Ġmur":1411,"ides":1412,"Ġsk":1413,"Ġduring":1414,"Ġtot":1415,"ien":1416,"Ġhome":1417,"Ġlater":1418,"Ġeveryone":1419,"fully":1420,"Ġexc":1421,"Ġstupid":1422,"Ġele":1423,"Ġmen":1424,"my":1425,"Ġlack":1426,"appoint":1427,"ount":1428,"ĠRob":1429,"Ġattempt":1430,"Ġused":1431,"ĠBe":1432,"Ġexper":1433,"Ġyear":1434,"ĠSp":1435,"ird":1436,"Ġtal":1437,"Ġonce":1438,"Ġlow":1439,"Ġremem":1440,"ĠSc":1441,"omb":1442,"amp":1443,"Ġcompletely":1444,"ery":1445,"ins":1446,"like":1447,"Ġmar":1448,"ĠUn":1449,"Ġfather":1450,"Ġdisappoint":1451,"Ġfight":1452,"Ġdeath":1453,"Ġhist":1454,"olute":1455,"Ġass":1456,"Ġtop":1457,"Ġunt":1458,"ains":1459,"Ġopen":1460,"yle":1461,"orn":1462,"Ġsimply":1463,"Ġhuman":1464,"att":1465,"Ġrep":1466,"iol":1467,"Ġserious":1468,"ove":1469,"Ġ4":1470,"ract":1471,"ĠCl":1472,"ĠSte":1473,"Ġcop":1474,"Ġword":1475,"Ġbeh":1476,"Ġexp":1477,"but":1478,"Ġanim":1479,"ĠAr":1480,"ĠWhen":1481,"Ġret":1482,"ork":1483,"Ġloc":1484,"Ġstud":1485,"Ġdefin":1486,"aring":1487,"Ġwrong":1488,"Ġtit":1489,"ĠRe":1490,"Ġsong":1491,"ets":1492,"ography":1493,"Ġsy":1494,"Ġinclud":1495,"Ġgener":1496,"orm":1497,"Ġemot":1498,"Ġalong":1499,"ott":1500,"ĠAt":1501,"Ġcra":1502,"ĠHollywood":1503,"ideo":1504,"Ġmess":1505,"Ġpict":1506,"Ġheart":1507,"Ġ--":1508,"Ġperformances":1509,"Ġtry":1510,"Ġsupposed":1511,"Ġeither":1512,"Ġcamera":1513,"In":1514,"Ġgra":1515,"ĠMar":1516,"itten":1517,"Ġabsolute":1518,"Ġfail":1519,"Ġboring":1520,"uly":1521,"ider":1522,"Ġkids":1523,"Ġdra":1524,"idd":1525,"ĠZ":1526,"Ġline":1527,"Ġcount":1528,"Ġblack":1529,"vin":1530,"Ġeas":1531,"Ġcouple":1532,"fic":1533,"Ġschool":1534,"ote":1535,"gr":1536,"Ġproduction":1537,"Ġ8":1538,"Ġsmall":1539,"ax":1540,"Ġpass":1541,"Ã©":1542,"ĠChrist":1543,"Ġexam":1544,"Ġind":1545,"Ġclassic":1546,"elt":1547,"oice":1548,"Ġbas":1549,"Ġsurpris":1550,"Ġhope":1551,"uth":1552,"Ġgiven":1553,"ĠHowever":1554,"vis":1555,"Ġwomen":1556,"haps":1557,"ĠMy":1558,"Ġbecom":1559,"iant":1560,"Ġbudget":1561,"med":1562,"ĠOne":1563,"Ġ5":1564,"Ġconc":1565,"Ġsort":1566,"oon":1567,"com":1568,"Ġfavor":1569,"itely":1570,"Ġuntil":1571,"Ġparticul":1572,"Ġlight":1573,"Ġtruly":1574,"Ġhumor":1575,"Ġrom":1576,"Ġsad":1577,"Ġflick":1578,"Ġportray":1579,"Ġcred":1580,"ities":1581,"Ġwon":1582,"Ġhouse":1583,"Ġmoments":1584,"Ġhero":1585,"ize":1586,"Ġname":1587,"Ġfull":1588,"Ġitself":1589,"Ġviol":1590,"sel":1591,"Ġstar":1592,"play":1593,"velop":1594,"IN":1595,"fortun":1596,"Ġple":1597,"Ġgetting":1598,"iness":1599,"Ġamaz":1600,"Ġinstead":1601,"ton":1602,"Ġawful":1603,"Ġpain":1604,"ike":1605,"ows":1606,"ĠÂ":1607,"Ġremember":1608,"ility":1609,"aj":1610,"Ġnext":1611,"tern":1612,"ently":1613,"ĠNo":1614,"ric":1615,"Ġterrible":1616,"Ġexcept":1617,"reak":1618,"ĠSe":1619,"Ġgives":1620,"Ġdoing":1621,"Ġguess":1622,"ĠCar":1623,"Ġmother":1624,"Ġwa":1625,"Ġepisode":1626,"cy":1627,"Ġcoll":1628,"Ġplaying":1629,"Ġdri":1630,"Ġtalent":1631,"Ġface":1632,"ories":1633,"ug":1634,"Ġreg":1635,"Ġlines":1636,"itch":1637,"Ġhowever":1638,"Ġdialogue":1639,"Ġ7":1640,"ister":1641,"reme":1642,"que":1643,"Ġwonderful":1644,"ps":1645,"ĠMr":1646,"Ġothers":1647,"illy":1648,"Ġvideo":1649,"Ġoften":1650,"Ġwent":1651,"ony":1652,"ument":1653,",\"":1654,"imes":1655,"Ġcouldn":1656,"Ġpiece":1657,"Ġcor":1658,"ĠMan":1659,"ger":1660,"Ġpower":1661,"Ġform":1662,"Ġdead":1663,"If":1664,"Ġcut":1665,"Ġslow":1666,"Ġbecome":1667,"Ġbrill":1668,"Ġ9":1669,"Ġearly":1670,"Ġimpress":1671,"vent":1672,"Ġliked":1673,"Ġann":1674,"ĠTHE":1675,"ured":1676,"olog":1677,"aughter":1678,"Ġ.":1679,"Ġquest":1680,"ming":1681,"Ġdevelop":1682,"ized":1683,"ĠLe":1684,"ĠJack":1685,"Ġentertaining":1686,"Ġclose":1687,"ibly":1688,"yn":1689,"Ġcase":1690,"Ġlive":1691,"ĠOn":1692,"ĠDon":1693,"line":1694,"Ġref":1695,"cess":1696,"Ġmaybe":1697,"right":1698,"Ġmention":1699,"enn":1700,"Ġfelt":1701,"oid":1702,"Ġchildren":1703,"ael":1704,"Ġstyle":1705,"het":1706,"ĠWill":1707,"Ġstars":1708,"There":1709,"body":1710,"ĠWell":1711,"used":1712,"Ġrelations":1713,"Ġmatter":1714,"ler":1715,"Ġstrong":1716,"Ġtrans":1717,"lish":1718,"Ġabsolutely":1719,"ley":1720,"Ġdark":1721,"Ġz":1722,"Ġactress":1723,"Ġtitle":1724,"Ġworse":1725,"Ġrent":1726,"Ġrid":1727,"und":1728,"ccess":1729,"Ġbeginning":1730,"oub":1731,"ular":1732,"Ġguys":1733,"Ġside":1734,"uss":1735,"pite":1736,"Ġmis":1737,"Ġwaste":1738,"Ġdefinitely":1739,"riend":1740,"ined":1741,"Ġcertainly":1742,"Ġwritten":1743,"Ġagainst":1744,"by":1745,"ific":1746,"Ġfant":1747,"Ġextreme":1748,"Ġseemed":1749,"selves":1750,"ready":1751,"Ġloved":1752,"ĠHis":1753,"unch":1754,"Ġsever":1755,"pped":1756,"ĠNew":1757,"Ġpast":1758,"ape":1759,"Ġcinema":1760,"Ġbrilliant":1761,"Ġwanted":1762,"ĠDav":1763,"ts":1764,"Ġseveral":1765,"unk":1766,"ichael":1767,"atur":1768,"Ġpicture":1769,"ison":1770,"Ġpop":1771,"Ġbecomes":1772,"fortunately":1773,"Ġsw":1774,"Ġpred":1775,"Ġalready":1776,"Ġrelationship":1777,"Ġexample":1778,"ĠEven":1779,"Ġsomew":1780,"ĠEng":1781,"ung":1782,"Ġsuccess":1783,"Ġtotally":1784,"Ġdrama":1785,"aken":1786,"vable":1787,"Ġadm":1788,"Ġmaster":1789,"osp":1790,"Ġblood":1791,"Ġable":1792,"Ġthrill":1793,"Ġlives":1794,"Ġdem":1795,"Ġgame":1796,"gu":1797,"Ġdirection":1798,"rew":1799,"Ġfans":1800,"Ġpar":1801,"iam":1802,"Ġalthough":1803,"ief":1804,"Ġcalled":1805,"Ġpur":1806,"Ġet":1807,"ĠHar":1808,"sh":1809,"ided":1810,"Ġprov":1811,"Ġdeal":1812,"Ġsupport":1813,"Ġstuff":1814,"Ġgrou":1815,"Ġav":1816,"ĠMc":1817,"Ġfine":1818,"Ġtou":1819,"Ġcapt":1820,"ĠÂĸ":1821,"Ġwalk":1822,"Ġcent":1823,"Ġself":1824,"Ġquality":1825,"Ġwants":1826,"Ġbrother":1827,"Ġtown":1828,"!<":1829,"Ġdeser":1830,"Ġdoc":1831,"aving":1832,"ried":1833,").<":1834,"??":1835,"ĠSome":1836,"ĠTo":1837,"oke":1838,"ages":1839,"Ġmor":1840,"Ġcomment":1841,"Ġwriting":1842,"Ġbased":1843,"use":1844,"Ġlist":1845,"ĠIs":1846,"Ġeff":1847,"Ġbra":1848,"Ġworks":1849,"Ġthroughout":1850,"Ġlost":1851,"Ġdaughter":1852,"oil":1853,"orge":1854,"Ġannoy":1855,"Ġocc":1856,"Ġval":1857,"ĠChar":1858,"Ġvill":1859,"off":1860,"Ġsitu":1861,"chn":1862,"OT":1863,"Ġtries":1864,"amed":1865,"sych":1866,"Ġviewer":1867,"to":1868,"Ġhistory":1869,"Ġsn":1870,"using":1871,"Ġpat":1872,"Ġimport":1873,"Ġenjoyed":1874,"Ġson":1875,"Ġpresent":1876,"Ġgave":1877,"ination":1878,"Ġmed":1879,"Ġsusp":1880,"Ġfair":1881,"Ġnum":1882,"Ġfinal":1883,"ches":1884,"19":1885,"Ġsat":1886,"Ġmag":1887,"rib":1888,"ient":1889,"Ġdr":1890,"ms":1891,"Ġhon":1892,"ik":1893,"Ġlearn":1894,"ĠAfter":1895,"ude":1896,"Ġturns":1897,"Ġparts":1898,"Ġappear":1899,"Ġcrit":1900,"Ġfem":1901,"ovie":1902,"Ġamazing":1903,"Ġetc":1904,"Ġnovel":1905,"Ġtoday":1906,"Ġstra":1907,"ern":1908,"rodu":1909,"arth":1910,"Ġthemselves":1911,"Ġfinally":1912,"Ġcol":1913,"Ġdays":1914,"Ġfavorite":1915,"Ġinf":1916,"Ġteen":1917,"Ġprom":1918,"Ġgenre":1919,"ox":1920,"ajor":1921,"ished":1922,"Ġcontin":1923,"itive":1924,"Ġhorrible":1925,"Ġfoot":1926,"Ġcult":1927,"Ġlevel":1928,"Ġlate":1929,"Ġmoment":1930,"Ġshoot":1931,"As":1932,"Ġhilar":1933,"tra":1934,"ene":1935,"Ġgroup":1936,"Ġfeat":1937,"ĠMichael":1938,"Ġstarts":1939,"rop":1940,"Ġexact":1941,"ards":1942,"Ġbehind":1943,"ĠThen":1944,"Ġmyself":1945,"Ġdocument":1946,"Ġir":1947,"Ġfig":1948,"yp":1949,"Ġstop":1950,"okes":1951,"Ġask":1952,"Ġkilled":1953,"Ġ,":1954,"Ġkiller":1955,"Ġpick":1956,"Ġtyp":1957,"Ġconsider":1958,"Ġsays":1959,"Ġopp":1960,"Ġcost":1961,"Ġmyster":1962,"ĠGer":1963,"ĠRobert":1964,"ĠEd":1965,"iculous":1966,"Ġdeli":1967,"astic":1968,"Ġeffort":1969,"ĠWith":1970,"Ġincred":1971,"Ġtook":1972,"Ġeyes":1973,"els":1974,"band":1975,"Ġthinking":1976,"ĠHer":1977,"ĠAlso":1978,"arb":1979,"eth":1980,"ats":1981,"akers":1982,"ese":1983,"Ġhappens":1984,"Ġdecent":1985,"antly":1986,"Ġmot":1987,"Ġheard":1988,"ump":1989,"ior":1990,"Ġbus":1991,"Ġvoice":1992,"Ġexperience":1993,"AN":1994,"Ġintell":1995,"ey":1996,"urt":1997,"Ġconst":1998,"Ġevil":1999,"Ġmurder":2000,"Ġfa":2001,"ĠDan":2002,"Ġhilarious":2003,"uge":2004,"Ġfore":2005,"ives":2006,"Ġfeeling":2007,"na":2008,"Ġsoon":2009,"Ġtype":2010,"dy":2011,"usband":2012,"ĠBrit":2013,"Ġcinemat":2014,"ST":2015,"ĠOf":2016,"owing":2017,"uc":2018,"Ġperhaps":2019,"Ġgirls":2020,"Ġnon":2021,"ĠGe":2022,"gs":2023,"Ġtele":2024,"ences":2025,"ĠQ":2026,"AT":2027,"Ġpsych":2028,".)":2029,"aul":2030,"Ġmajor":2031,"Ġchang":2032,"Ġinvolved":2033,"Ġprof":2034,"Ġstru":2035,"ĠWar":2036,"Ġridiculous":2037,"Ġroles":2038,"Ġdirected":2039,"ters":2040,"ering":2041,"Ġhit":2042,"Ġopin":2043,"What":2044,"Ġsle":2045,"Ġtold":2046,"antic":2047,"Ġste":2048,"Ġcannot":2049,"Ġhold":2050,"ances":2051,"zy":2052,"ator":2053,"ĠWhy":2054,"Ġesc":2055,"Ġstories":2056,"Ġroom":2057,"ĠInd":2058,"Ġchance":2059,"ĠGod":2060,"Ġpredict":2061,"aves":2062,"Ġlooked":2063,"Ġcheap":2064,"Ġsol":2065,"Ġwhite":2066,"Ġscore":2067,"Ġextremely":2068,"ement":2069,"ians":2070,"ots":2071,"ĠMay":2072,"Ġresult":2073,"Ġdream":2074,"Ġwin":2075,"Ġhusband":2076,"Ġdisco":2077,"anger":2078,"how":2079,"Ġmove":2080,"Ġleave":2081,"aced":2082,"Ġcrap":2083,"Ġuni":2084,"side":2085,"iddle":2086,"ĠGr":2087,"nded":2088,"Ġago":2089,"Ġstre":2090,"any":2091,"Ġquick":2092,"Ġshown":2093,"Ġwouldn":2094,"urb":2095,"Ġhappened":2096,"Ġcoming":2097,"Ġviolence":2098,"Ġcool":2099,"ĠJust":2100,"LL":2101,"Ġweak":2102,"Ġbring":2103,"rench":2104,"aces":2105,"ĠWhile":2106,"Ġevent":2107,"OR":2108,"ones":2109,"ON":2110,"Ġswe":2111,"Ġant":2112,"Ġ6":2113,"Ġsimple":2114,"vol":2115,"Ġshock":2116,"Ġtaken":2117,"ational":2118,"Ġtechn":2119,"And":2120,"ution":2121,"vision":2122,"cer":2123,"Ġdesc":2124,"Ġmusical":2125,"ĠPl":2126,"Ġsubject":2127,"Ġpos":2128,"iet":2129,"ron":2130,"ĠEnglish":2131,"aged":2132,"che":2133,"Ġage":2134,"ĠEvery":2135,"gan":2136,"cks":2137,"ĠOr":2138,"mb":2139,"Ġbreak":2140,"But":2141,"mp":2142,"nds":2143,"wards":2144,"Ġcountry":2145,"Ġknown":2146,"AR":2147,"Ġvar":2148,"mm":2149,"rest":2150,"iety":2151,"ole":2152,"Ġacross":2153,"Ġobviously":2154,"Ġ200":2155,"Ġcareer":2156,"rit":2157,"Ġreturn":2158,"Ġpolit":2159,"ury":2160,"ĠNow":2161,"ered":2162,"itting":2163,"ground":2164,"Ġstay":2165,"pping":2166,"!!!":2167,"ky":2168,"Ġhighly":2169,"ield":2170,"...<":2171,"Ġinde":2172,"Ġapparent":2173,"Ġopening":2174,"Ġphot":2175,"Ġhuge":2176,"ys":2177,"Ġreleased":2178,"Ġcomed":2179,"ĠPet":2180,"Ġsaying":2181,"Ġfour":2182,"Ġang":2183,"Ġexactly":2184,"Ġfoc":2185,"Ġjokes":2186,"ral":2187,"Ġyourself":2188,"Ġdev":2189,"Ġsuspense":2190,"Ġhours":2191,"Ġannoying":2192,"Ġbody":2193,"Ġdoub":2194,"Ġlar":2195,"ctor":2196,"Ġfut":2197,"ĠKe":2198,"Ġdeep":2199,"Ġbuild":2200,"ĠCon":2201,"Ġparticularly":2202,"Ġorder":2203,"rence":2204,"ĠDavid":2205,"ubl":2206,"Ġsimilar":2207,"omp":2208,"Ġopinion":2209,"ina":2210,"real":2211,"Ġreality":2212,"Ġdisc":2213,"Ġgun":2214,"ball":2215,"Ġsometimes":2216,"enty":2217,"Ġpay":2218,"ili":2219,"Ġcinematography":2220,"Ġstarted":2221,"outh":2222,"ĠJames":2223,"Ġprem":2224,"Ġshots":2225,"Ġstrange":2226,"Ġwriter":2227,"oul":2228,"Ġpossible":2229,"Ġones":2230,"Ġnumber":2231,"iction":2232,"Ġpull":2233,"Ġtreat":2234,"Ġends":2235,"Ġdest":2236,"hetic":2237,"Ġill":2238,"Ġgore":2239,"bel":2240,"eng":2241,"ential":2242,"aim":2243,"read":2244,"Ġdocumentary":2245,"Ġsubt":2246,"Ġnear":2247,"Ġsave":2248,"Ġchange":2249,"Ġhot":2250,"ino":2251,"estern":2252,"****":2253,"Ġwish":2254,"Ġfill":2255,"Ġforget":2256,"Ġpolice":2257,"Ġnarr":2258,"Ġdisappointed":2259,"Ġmoder":2260,"Ġwhose":2261,"Ġimportant":2262,"Ġhonest":2263,"Ġwee":2264,"Ġusual":2265,"Ġfilmm":2266,"Ġparent":2267,"Ġalone":2268,"ouble":2269,"Ġprot":2270,"Ġliving":2271,"Ġteam":2272,"Ġpri":2273,"rise":2274,"Ġsister":2275,"Ġdetail":2276,"Ġsomewhat":2277,"wise":2278,"Ġturned":2279,"Ġfemale":2280,"Ġknew":2281,"Ġlocal":2282,"orth":2283,"ĠGerman":2284,"Ġair":2285,"ĠDo":2286,"Ġunc":2287,"Ġfinds":2288,"yond":2289,"ĠAm":2290,"ING":2291,"oud":2292,"apan":2293,"Ġ20":2294,"Ġdru":2295,"ĠTom":2296,"Ġknows":2297,"Ġattention":2298,"Ġrunning":2299,"Ġsingle":2300,"ĠPer":2301,"ĠPe":2302,"Ġrating":2303,"reci":2304,"ichÃ©":2305,"Ġsilly":2306,"!\"":2307,"ald":2308,"Ġwords":2309,"Ġvict":2310,"ĠRich":2311,"Ġproblems":2312,"Ġsent":2313,"lling":2314,"Ġstraight":2315,"inc":2316,"Ġtaking":2317,"Ġpot":2318,"Ġremind":2319,"ean":2320,"oof":2321,"Al":2322,"gy":2323,"Ġsold":2324,"mosp":2325,"unt":2326,"Ġepisodes":2327,"Ġmist":2328,"ained":2329,"Ġten":2330,"arch":2331,"head":2332,"Ġland":2333,"Ġmiddle":2334,"Ġdespite":2335,"Ġsequence":2336,"Ġcontro":2337,"Ġmeet":2338,"which":2339,"Ġinn":2340,"ires":2341,"Ġut":2342,"ush":2343,"Ġamong":2344,"ital":2345,"ĠAd":2346,"Ġrespect":2347,"Ġequ":2348,"Ġplan":2349,"Ġtouch":2350,"ised":2351,"Ġbel":2352,"Ġhell":2353,"Ġconvin":2354,"orable":2355,"ants":2356,"rom":2357,"Ġcompl":2358,"Ġusually":2359,"Ġatmosp":2360,"rely":2361,"Ġtalking":2362,"Ġcart":2363,"form":2364,"Ġevents":2365,"track":2366,"EN":2367,"ĠclichÃ©":2368,"usion":2369,"Ġmodern":2370,"Ġaren":2371,"Ġtells":2372,"Ġincluding":2373,"ĠBritish":2374,"back":2375,"ĠOsc":2376,"Ġsign":2377,"Ġeng":2378,"Ġca":2379,"Ġunf":2380,"Ġhands":2381,"Ġforg":2382,"Ġtelevision":2383,"Ġdue":2384,"ĠJapan":2385,"otic":2386,"tim":2387,"Ġgang":2388,"light":2389,"aker":2390,"ubb":2391,"Ġintellig":2392,"Ġmater":2393,"Ġve":2394,"Ġhop":2395,"ĠNe":2396,"Ġprevious":2397,"Ġmark":2398,"Ġappears":2399,"Ġquestion":2400,"ĠEl":2401,"Ġappreci":2402,"ĠWilliam":2403,"iod":2404,"Ġprog":2405,"Ġdull":2406,"Ġbox":2407,"ĠPh":2408,"Ġsets":2409,"Ġ80":2410,"Ġmostly":2411,"Ġenjoyable":2412,"Ġpredictable":2413,"Ġreve":2414,"ously":2415,"Ġsongs":2416,"My":2417,"aught":2418,"Ġhate":2419,"Ġodd":2420,"Ġseason":2421,"Ġscary":2422,"Ġsoundtrack":2423,"Ġromantic":2424,"Ġmaterial":2425,"iest":2426,"Ġaspect":2427,"attle":2428,"Ġupon":2429,"Ġapart":2430,"where":2431,"Ġnone":2432,"Ġhappy":2433,"Ġpleas":2434,"orry":2435,"Ġseriously":2436,"Ġbeyond":2437,"Ġclear":2438,"Ġadv":2439,"go":2440,"uri":2441,"oe":2442,"Ġcheck":2443,"Ġways":2444,"Ġul":2445,"Ġcamp":2446,"Ġhaven":2447,"Ġclearly":2448,"Ġeye":2449,"Ġdoubt":2450,"Ġcomic":2451,"Ġspir":2452,"Ġabove":2453,"irector":2454,"Ġgiving":2455,"nding":2456,"Ġsurprised":2457,"oun":2458,"Ġflaw":2459,"Ġsequel":2460,"who":2461,"Ġeasily":2462,"Ġvisual":2463,"Ġfuture":2464,"Ġneeds":2465,"Ġtried":2466,"ĠAny":2467,"Ġear":2468,"key":2469,"Ġfeature":2470,"Ġ197":2471,"ublic":2472,"over":2473,"ĠSam":2474,"Ġsexual":2475,"row":2476,"asc":2477,"ĠPaul":2478,"asy":2479,"Ġslight":2480,"Ġfalls":2481,"Ġvictim":2482,"work":2483,"Ġmessage":2484,"Ġtheat":2485,"ggest":2486,"Ġcreep":2487,"Ġfast":2488,"ĠIM":2489,"Ġshowing":2490,"Ġaccept":2491,"An":2492,"ressed":2493,"Ġbunch":2494,"ara":2495,"rated":2496,"Ġbar":2497,"Ġentertainment":2498,"St":2499,"Ġmet":2500,"Ġstoryline":2501,"Ġrelease":2502,"ension":2503,"Ġsetting":2504,"cl":2505,"Ġtheme":2506,"Ġadult":2507,"Ġmoving":2508,"?<":2509,"Ġsuggest":2510,"Ġ198":2511,"!!!!":2512,"iel":2513,"oose":2514,"inal":2515,"Ġtwist":2516,"Ġpersonal":2517,"Ġactual":2518,"Ġexist":2519,"ival":2520,"ices":2521,"Ġperiod":2522,"verage":2523,"',":2524,"EA":2525,"ening":2526,"let":2527,"irt":2528,"Ġemb":2529,"orld":2530,"Ġadapt":2531,"Ġlarge":2532,"ĠFrench":2533,"Ġsupporting":2534,"iment":2535,"Ġsurv":2536,"Ġzomb":2537,"ficult":2538,"wr":2539,"Ġmeans":2540,"Ġmil":2541,"Ġkept":2542,"Ġnamed":2543,"aur":2544,"Ġfeels":2545,"Ġeasy":2546,"Ġattack":2547,"Ġcomments":2548,"Ġparents":2549,"Ġelements":2550,"ĠDis":2551,"!)":2552,"IL":2553,"Ġdifficult":2554,"Ġiss":2555,"ĠMor":2556,"Ġpost":2557,"bs":2558,"uses":2559,"Ġspoil":2560,"Ġsecret":2561,"Ġfell":2562,"Ġdecided":2563,"Ġpoints":2564,"Ġthriller":2565,"Ġcomb":2566,"Ġherself":2567,"upp":2568,"ĠDr":2569,"ĠGeorge":2570,"Ġfilmed":2571,"Ġworking":2572,"ceed":2573,"ĠNOT":2574,"Ġfree":2575,"Ġwithin":2576,"Ġsuperb":2577,"Ġru":2578,"Ġviewing":2579,"Ġviewers":2580,"ially":2581,"kay":2582,"ĠItal":2583,"Wh":2584,"Ġinsp":2585,"Ġbro":2586,"Ġtre":2587,"ĠFrank":2588,"Ġoverall":2589,"atural":2590,"bers":2591,"Ġtypical":2592,"Ġediting":2593,"ges":2594,"ĠUS":2595,"Ġbelievable":2596,"ĠYork":2597,"Ġbrought":2598,"Ġhear":2599,"Ġrealistic":2600,"oor":2601,"Ġdie":2602,"Ġsuff":2603,"Ġintrodu":2604,"Ġspeak":2605,"Ġnearly":2606,"Ġtruth":2607,"Ġbuy":2608,"gic":2609,"OU":2610,"bo":2611,"Ġreviews":2612,"ĠOscar":2613,"ising":2614,"ĠRichard":2615,"ĠGu":2616,"Ġleads":2617,"Ġwit":2618,"of":2619,"Ġusing":2620,"So":2621,"aling":2622,"Ch":2623,"Ġsil":2624,"eg":2625,"lin":2626,"cious":2627,"Ġbegins":2628,"ma":2629,"Ġbusiness":2630,"Ġmix":2631,"Ġfigure":2632,"Ġfamous":2633,"esy":2634,"Ġgreatest":2635,"Ġsequences":2636,"Ġcur":2637,"aby":2638,"Ġwhether":2639,"Ġcity":2640,"atever":2641,"Ġpremise":2642,"Ġtheater":2643,"Ġweird":2644,"Ġwrit":2645,"Ġbackground":2646,"You":2647,"Ġmeaning":2648,"ĠAmerica":2649,"Ġdan":2650,"Ġbasically":2651,"piece":2652,"sw":2653,"Ġexpected":2654,"Ġatmosphere":2655,"Ġclim":2656,"Ġnorm":2657,"Ġsoc":2658,"Ġparticular":2659,"Ġtale":2660,"Ġfive":2661,"Ġobs":2662,"ĠOK":2663,"verall":2664,"Ġsens":2665,"rific":2666,"ĠJul":2667,"ively":2668,"Ġfantastic":2669,"esome":2670,"Ġdumb":2671,"Ġanimation":2672,"Ġsituation":2673,"ES":2674,"ĠTr":2675,"Ġfront":2676,"omin":2677,"more":2678,"Âħ":2679,"ĠOh":2680,"af":2681,"Ġ*":2682,"irc":2683,"ĠCol":2684,"Ġcrime":2685,"Ġwait":2686,"Ġund":2687,"Ġ199":2688,"lfriend":2689,"ining":2690,"ĠMaybe":2691,"ĠSch":2692,"Ġstri":2693,"dden":2694,"?\"":2695,"Ġpure":2696,"lier":2697,"Ġid":2698,"ula":2699,"ĠAlthough":2700,"set":2701,"Ġstun":2702,"ogn":2703,"One":2704,"iences":2705,"hic":2706,"Ġsurprise":2707,"ĠJim":2708,"Ġrock":2709,"ĠAust":2710,"Ġred":2711,"ĠIMD":2712,"time":2713,"ĠPr":2714,"fer":2715,"Ġlim":2716,"ĠSim":2717,"Ġleaves":2718,"Ġdog":2719,"Ġlots":2720,"Ġcrew":2721,"lect":2722,"Ġkilling":2723,"Ġpoorly":2724,"icks":2725,"Ġbecame":2726,"Ġapparently":2727,"uro":2728,"Ġemotional":2729,"urther":2730,"Ġfootage":2731,"Ġappro":2732,"Ġutter":2733,"Ġtast":2734,"Ġresp":2735,"Ġneeded":2736,"Ġstere":2737,"Ġwood":2738,"Ġrese":2739,"hys":2740,"ĠUnfortunately":2741,"ĠLee":2742,"Ġinte":2743,"Ġavoid":2744,"ored":2745,"Ġforced":2746,"Ġcat":2747,"ager":2748,"ĠPeter":2749,"Th":2750,"Ġlame":2751,"Ġ/>\"":2752,"ye":2753,"Ġaverage":2754,"Ġgone":2755,"Ġsudden":2756,"Ġbored":2757,"Ġstrugg":2758,"Ġwind":2759,"Ġclever":2760,"bb":2761,"Ġexec":2762,"Ġmemorable":2763,"Ġgrand":2764,"Ġstage":2765,"'.":2766,"Ġcredits":2767,"Ġmale":2768,"arre":2769,"ĠMon":2770,"Ġallow":2771,"ĠGra":2772,"ĠAng":2773,"spect":2774,"bert":2775,"pend":2776,"Ġcopy":2777,"Ġpublic":2778,"ĠKing":2779,"Ġminute":2780,"Ġwrite":2781,"When":2782,"Ġ$":2783,"Ġsick":2784,"rey":2785,"Ġsociety":2786,"Ġinterested":2787,"friend":2788,"Ġmonster":2789,"Ġprop":2790,"Ġshame":2791,"Ġultim":2792,"Ġliter":2793,"Ġfire":2794,"ĠBen":2795,"ĠCan":2796,"cers":2797,"Ġemotion":2798,"Ġunique":2799,"king":2800,"ĠMost":2801,"Ġfeatures":2802,"ries":2803,"Ġ...":2804,"ĠCom":2805,"Ġanyway":2806,"ett":2807,"Ġperfectly":2808,"Ġproject":2809,"ĠWho":2810,"Ġdesign":2811,"Ġspace":2812,"Ġlaughs":2813,"lor":2814,"Ġsomehow":2815,"Ġmeets":2816,"ume":2817,"Ġkeeps":2818,"ĠAN":2819,"ills":2820,"iliar":2821,"Ġnature":2822,"angu":2823,"ius":2824,"agon":2825,"Ġprison":2826,"Ġexpress":2827,"Ġvillain":2828,"Ġquickly":2829,"ived":2830,"anks":2831,"isf":2832,"reed":2833,"erv":2834,"Ġmeant":2835,"Ġstereot":2836,"Ġcheesy":2837,"Ġgirlfriend":2838,"Ġcover":2839,"Ġmill":2840,"Ġlos":2841,"Ġheav":2842,"ĠPar":2843,"ĠSm":2844,"ĠFilm":2845,"well":2846,"Ġlaw":2847,"bor":2848,"Ġoper":2849,"Ġdam":2850,"ĠQu":2851,"ĠMart":2852,"Ġadvent":2853,"ai":2854,"Ġforward":2855,"Ġconcept":2856,"por":2857,"urd":2858,"Ġreading":2859,"Ġworked":2860,"Ġer":2861,"Ġrealize":2862,"hood":2863,"Ġmad":2864,"this":2865,"Ġment":2866,"chie":2867,"Ġamount":2868,"Ġmystery":2869,"All":2870,"acy":2871,"Ġimagine":2872,"action":2873,"Ġearlier":2874,"RE":2875,"Ġunlike":2876,"acing":2877,"Ġdisturb":2878,"Ġprofess":2879,"For":2880,"eless":2881,"ĠFrom":2882,"ned":2883,"ĠWood":2884,"Ġromance":2885,"opp":2886,"Ġyes":2887,"Ġmasterpiece":2888,"ĠDisney":2889,"Ġconne":2890,"Ġbadly":2891,"ises":2892,"ĠTw":2893,"Ġcry":2894,"Ġagree":2895,"Ġgeneral":2896,"Ġpurp":2897,"ĠJapanese":2898,"ĠIts":2899,"Ġgay":2900,"Ġ70":2901,"Ġpopular":2902,"?)":2903,"iny":2904,"arry":2905,"Ġrepe":2906,"host":2907,"Ġwhom":2908,"ze":2909,"Ġcap":2910,"Ġthird":2911,"ĠEx":2912,"Ġenc":2913,"Ġscreenplay":2914,"ĠAf":2915,"Ġhistor":2916,"allow":2917,"Ġpossibly":2918,"Ġband":2919,"Ġvarious":2920,"Ġextra":2921,"ged":2922,"Ġbrings":2923,"Ġrecogn":2924,"Ġolder":2925,"Ġtotal":2926,"kn":2927,"ĠIMDb":2928,"Ġadmit":2929,"Ġfasc":2930,"Ġpowerful":2931,"ring":2932,"Ġtowards":2933,"aked":2934,"Ġincredibly":2935,"Ġtrad":2936,"cher":2937,"ana":2938,"ĠThese":2939,"Ġjoke":2940,"Ġbare":2941,"Ġdance":2942,"Ġwriters":2943,"Ġ30":2944,"oman":2945,"Ġinnoc":2946,"\")":2947,"ĠYes":2948,"stead":2949,"look":2950,"Ġ195":2951,"ask":2952,"Ġconv":2953,"Ġacted":2954,"ĠScott":2955,"Ġcollect":2956,"Ġbattle":2957,"Ġreasons":2958,"arring":2959,"cessary":2960,"unny":2961,"Ġcolle":2962,"Ġcartoon":2963,"Ġhom":2964,"ĠChe":2965,"Ġrich":2966,"Ġdevelopment":2967,"olf":2968,"itty":2969,"Ġfails":2970,"rif":2971,"Ġinside":2972,"Ġoccas":2973,"Ġeventually":2974,"Ġspent":2975,"belie":2976,"erm":2977,"Ġnor":2978,"Ġportrayed":2979,"Ġplease":2980,"Ġfairly":2981,"ĠLike":2982,"Ġdirecting":2983,"Ġdeserves":2984,"Ġsleep":2985,"Ġcreepy":2986,"Ġjour":2987,"Ġattract":2988,"ĠGood":2989,"Ġflat":2990,"ĠBy":2991,"Ġcirc":2992,"Ġinvest":2993,"par":2994,"with":2995,"ases":2996,"ĠPat":2997,"Ġimm":2998,"ford":2999,"OO":3000,"Ġvamp":3001,"Ġscient":3002,"Ġdramatic":3003,"Ġ90":3004,"Ġwasted":3005,"ĠMe":3006,"itted":3007,"Ġdirectors":3008,"Ġcatch":3009,"udd":3010,"Ġsounds":3011,"ĠTra":3012,"Ġbeauty":3013,"ĠLu":3014,"Ġmanages":3015,"Ġattempts":3016,"How":3017,"ivid":3018,"ips":3019,"bl":3020,"roy":3021,"Ġideas":3022,"Ġplain":3023,"Ġcond":3024,"ĠNight":3025,"Ġleading":3026,"vered":3027,"ague":3028,"Ġexpecting":3029,"Ġcreate":3030,"ĠBlack":3031,"erry":3032,"Ġcommun":3033,"Ġspirit":3034,"Ġign":3035,"Ġbed":3036,"men":3037,"Ġphys":3038,"Ġlangu":3039,"Ġident":3040,"ĠSu":3041,"inary":3042,"Ġpolitical":3043,"Ġplenty":3044,"udity":3045,"yl":3046,"Ġboys":3047,"ĠEuro":3048,"medi":3049,"ero":3050,"Ġneg":3051,"Ġmembers":3052,"Ġaut":3053,"Ġfamiliar":3054,"Ġ:":3055,"Ġsorry":3056,"Ġcaught":3057,"ĠBra":3058,"Ġended":3059,"Ġindeed":3060,"mist":3061,"Ġ`":3062,"Ġexplain":3063,"Ġrecord":3064,"resh":3065,"boy":3066,"Ġmissing":3067,"arl":3068,"Ġrevol":3069,"ĠRuss":3070,"Ġsymp":3071,"Ġstat":3072,"andy":3073,"acher":3074,"arrass":3075,"ades":3076,"ĠFirst":3077,"Ġfighting":3078,"ĠAle":3079,"Ġaccident":3080,"Ġaff":3081,"Ġoffic":3082,"Ġoutside":3083,"Ġpositive":3084,"gest":3085,"Ġess":3086,"Ġmatch":3087,"oles":3088,"mas":3089,"rel":3090,"onic":3091,"ĠJoe":3092,"een":3093,"Ġachie":3094,"Ġwater":3095,"Ġlaughing":3096,"Ġpotential":3097,"izing":3098,"Ġsweet":3099,"Ġrob":3100,"Ġnote":3101,"lu":3102,"Ġhair":3103,"Ġcommon":3104,"On":3105,"ĠWorld":3106,"irl":3107,"Ġrecently":3108,"Ġest":3109,"Ġjud":3110,"Ġremake":3111,"val":3112,"hel":3113,"Ġporn":3114,"Ġtalented":3115,"Ġfilmmakers":3116,"Ġ!":3117,"Ġrequ":3118,"zz":3119,"Ġembarrass":3120,"Ġble":3121,"Ġclaim":3122,"Ġflash":3123,"Ġtravel":3124,"Ġpace":3125,"Ġdepth":3126,"Ġcreated":3127,"Ġ(\"":3128,"cked":3129,"ashing":3130,"Ġtelling":3131,"Ġescape":3132,"ites":3133,"Ġsocial":3134,"Ġfunn":3135,"ĠMat":3136,"Ġimpro":3137,"ology":3138,"Ġera":3139,"Ġimmedi":3140,"Ġrelig":3141,"TH":3142,"iers":3143,"Ġidi":3144,"Ġintri":3145,"Ġbother":3146,"Ġbiz":3147,"iced":3148,"Ġansw":3149,"Ġbrain":3150,"ĠItalian":3151,"IS":3152,"Ġtrail":3153,"Ġfollowing":3154,"Ġstep":3155,"Ġcomplex":3156,"iously":3157,"Ġmissed":3158,"Ġwestern":3159,"Ġwhatever":3160,"emy":3161,"Ġarri":3162,"Ġcrazy":3163,"Ġnudity":3164,"ieces":3165,"Ġbrief":3166,"Ġmurd":3167,"ha":3168,"vil":3169,"Ġcute":3170,"ĠOther":3171,"while":3172,"Ġaf":3173,"venge":3174,"Ġamb":3175,"Ġhardly":3176,"Ġhy":3177,"Ġformer":3178,"uine":3179,"asher":3180,"umes":3181,"Ġmedi":3182,"Ġwaiting":3183,"ĠBill":3184,"Ġcredit":3185,"Ġanti":3186,"rect":3187,"uter":3188,"sters":3189,"000":3190,"Ġmentioned":3191,"ĠVan":3192,"Ġslightly":3193,"Ġstereotyp":3194,"Ġlady":3195,"Ġ15":3196,"imp":3197,"Ġdecides":3198,"Ġfurther":3199,"Ġrece":3200,"Ġuses":3201,"ele":3202,"Ġsees":3203,"ibility":3204,"Ġmel":3205,"Ġforgot":3206,"cent":3207,"Ġconvincing":3208,"Ġmod":3209,"rage":3210,"Ġclos":3211,"berg":3212,"Ġdesper":3213,"Ġstore":3214,"Ġdraw":3215,"Ġcasting":3216,"Ġsubtle":3217,"ging":3218,"vern":3219,"Ġdoll":3220,"ĠInstead":3221,"Ġmid":3222,"ĠPro":3223,"Ġcontrol":3224,"ĠDes":3225,"Ġentirely":3226,"Ġmass":3227,"ossible":3228,"Ġfollows":3229,"ishing":3230,"Ġportrayal":3231,"Ġdelight":3232,"Ġappreciate":3233,"Ġfit":3234,"itation":3235,"Ġaccent":3236,"Ġvalue":3237,"Ġpointless":3238,"Ġexplo":3239,"ĠEurope":3240,"Ġdied":3241,"Ġdoctor":3242,"su":3243,"Ġtension":3244,"Ġmarried":3245,"ĠTim":3246,"Ġrad":3247,"PO":3248,"ĠPark":3249,"Don":3250,"lict":3251,"lying":3252,"Ġwrote":3253,"Ġine":3254,"alth":3255,"ĠGreat":3256,"inating":3257,"Ġrate":3258,"ashion":3259,"Ġcolor":3260,"VER":3261,"Ġsum":3262,"Ġgenuine":3263,"iff":3264,"Ġunbelie":3265,"Ġremark":3266,"uted":3267,"cast":3268,"ĠMad":3269,"Ġstick":3270,"ĠAct":3271,"ĠHere":3272,"ĠWatch":3273,"Ġscream":3274,"Ġtort":3275,"uster":3276,"Ġ193":3277,"annel":3278,"come":3279,"inger":3280,"Ġchoice":3281,"Ġfantasy":3282,"ĠJe":3283,"ED":3284,"Ġmoves":3285,"Ġproduced":3286,"Ġyounger":3287,"iving":3288,"iller":3289,"Ġdepict":3290,"Ġsolid":3291,"fi":3292,"elly":3293,"Ġ196":3294,"oes":3295,"ipp":3296,"Ġsituations":3297,"ilt":3298,"Ġimages":3299,"idden":3300,"Ġcritic":3301,"sequ":3302,"ĠStar":3303,"Ġbiggest":3304,"con":3305,"str":3306,"Ġfol":3307,"Ġgarb":3308,"ĠHor":3309,"Ġlonger":3310,"Ġsuccessful":3311,"Ġsatisf":3312,"Ġlanguage":3313,"lusion":3314,"Ġincredible":3315,"Ġsoul":3316,"no":3317,"Ġwall":3318,"ĠSw":3319,"Ġground":3320,"Ġexciting":3321,"Ġintelligent":3322,"Ġdecide":3323,"standing":3324,"Ġcru":3325,"Ġdanger":3326,"ened":3327,"Ġcontr":3328,"irty":3329,"Ġamusing":3330,"Ġcompany":3331,"Ġrap":3332,"Ġwild":3333,"aging":3334,"Ġhumour":3335,"Ġweek":3336,"Ġpurpose":3337,"Ġearth":3338,"Ġparty":3339,"ĠJane":3340,"ateur":3341,"OW":3342,"ĠEn":3343,"Ġcompet":3344,"ille":3345,"Ġunfortunately":3346,"Ġeffective":3347,"Ġregard":3348,"ding":3349,"oph":3350,"Ġrecent":3351,"arily":3352,"ified":3353,"Ġspend":3354,"Ġtrain":3355,"ribly":3356,"Ġmach":3357,"room":3358,"Ġbrut":3359,"Ġbizarre":3360,"OM":3361,"ette":3362,"Ġtrouble":3363,"Ġtrack":3364,"Ġlikes":3365,"known":3366,"gend":3367,"aus":3368,"ki":3369,"Ġrefe":3370,"ization":3371,"wart":3372,"Ġfocus":3373,"Ġquestions":3374,"appe":3375,"Ġbreat":3376,"Ġinform":3377,"ĠII":3378,"Ġotherwise":3379,"ĠSer":3380,"Ġweren":3381,"Ġglad":3382,"Ġprogram":3383,"Ġauth":3384,"itary":3385,"Ġmood":3386,"Ġunless":3387,"Ġdrug":3388,"Ġsuspect":3389,"Ġproducers":3390,"Ġterror":3391,"Ġchanged":3392,"Ġkills":3393,"Ġvalues":3394,"Well":3395,"Ġsci":3396,"ĠGl":3397,"Ġconcern":3398,"Ġviolent":3399,"ĠIr":3400,"Ġjump":3401,"Ġfilled":3402,"Ġcollege":3403,"Ġfake":3404,"alt":3405,"Ġluck":3406,"Ġimpressive":3407,"Ġcontinu":3408,"anda":3409,"Ġshowed":3410,"Ġcompe":3411,"Not":3412,"ĠLou":3413,"Ġcross":3414,"Ġrepres":3415,"Ġinvolving":3416,"Ġpathetic":3417,"ĠDead":3418,"ĠChristmas":3419,"Ġ50":3420,"Ġgarbage":3421,"idered":3422,"mistry":3423,"Ġmer":3424,"ĠMac":3425,"movie":3426,"ĠMovie":3427,"Ġunin":3428,"Ġopportun":3429,"iche":3430,"Ġslasher":3431,"even":3432,"ares":3433,"ĠCra":3434,"Ġcompared":3435,"ĠHitch":3436,"ĠFl":3437,"ĠGold":3438,"Ġspot":3439,"iding":3440,"Ġsuc":3441,"LE":3442,"Ġamateur":3443,"Ġfailed":3444,"ength":3445,"BC":3446,"ĠBoy":3447,"ĠOF":3448,"Ġstreet":3449,"Ġaffect":3450,"Ġfear":3451,"Ġdisg":3452,"ective":3453,"ottom":3454,"Ġculture":3455,"Ġtaste":3456,"Ġbarely":3457,"ĠRock":3458,"Ġsuddenly":3459,"Ġinterview":3460,"Ġrede":3461,"min":3462,"Ġtest":3463,"Ġbought":3464,"ĠLove":3465,"Ġawesome":3466,"ĠAfric":3467,"Ġbeat":3468,"Ġsinging":3469,"Ġchemistry":3470,"Ġproduct":3471,"Ġdancing":3472,"Ġsqu":3473,"Ġspect":3474,"Ġball":3475,"ĠBig":3476,"Ġability":3477,"aper":3478,"Ġ194":3479,"Ġtrash":3480,"ĠFred":3481,"Ġavail":3482,"Ġcause":3483,"ener":3484,"Ġaccur":3485,"Ġconsidered":3486,"round":3487,"Ġkick":3488,"Ġcarry":3489,"Ġdisturbing":3490,"Ġsympat":3491,"Ġsearch":3492,"Ġmanner":3493,"ondon":3494,"Ġfat":3495,"Ġcontri":3496,"Ġstudio":3497,"Ġbull":3498,"Ġstate":3499,"Ġexception":3500,"cted":3501,"iles":3502,"une":3503,"Ġroll":3504,"ales":3505,"Ġimmediately":3506,"ĠFran":3507,"Ġreveal":3508,"inn":3509,"Ġghost":3510,"ĠStre":3511,"Ġisland":3512,"Ġrepl":3513,"Ġbooks":3514,"Ġdeliver":3515,"aven":3516,"Ġbomb":3517,"Ġimpossible":3518,"Ġcrim":3519,"***":3520,"Ġsucceed":3521,"fort":3522,"Ġthinks":3523,"Ġshooting":3524,"Ġhang":3525,"Ġaudiences":3526,"aff":3527,"ĠRed":3528,"idence":3529,"Ġrand":3530,"war":3531,"ĠRay":3532,"Ġroad":3533,"Ġtough":3534,"Ġtrip":3535,"rupt":3536,"Ġimpression":3537,"reg":3538,"Ġcold":3539,"Ġgovern":3540,"cock":3541,"Ġsuit":3542,"Ġleaving":3543,"Ġoffice":3544,"ĠIndian":3545,"After":3546,"Ġgod":3547,"Ġminor":3548,"Ġbasic":3549,"Ġgag":3550,"ILER":3551,"iver":3552,"reaking":3553,"Ġappeal":3554,"Ġruns":3555,"Ġissues":3556,"Ġfavour":3557,"Ġpack":3558,"Ġpun":3559,"Ġpract":3560,"rian":3561,"ĠCity":3562,"ĠDra":3563,"Ġ100":3564,"Ġdoor":3565,"izes":3566,"ensive":3567,"Ġconsidering":3568,"Ġlau":3569,"Ġgenius":3570,"POILER":3571,"rid":3572,"Ġsitting":3573,"iring":3574,"ĠHouse":3575,"ecause":3576,"Ġredeem":3577,"night":3578,"Ġfashion":3579,"ify":3580,"ĠMur":3581,"Ġlikely":3582,"Ġship":3583,"ĠLondon":3584,"Ġunex":3585,"rences":3586,"Ġinvestig":3587,"Ġadded":3588,"Ġconclusion":3589,"that":3590,"Ġpers":3591,"ĠBer":3592,"Ġtwists":3593,"lessly":3594,"ĠAlex":3595,"First":3596,"Ġloud":3597,"ĠMel":3598,"Ġinsult":3599,"Ġrandom":3600,"amb":3601,"ĠBur":3602,"Ġclot":3603,"Ġnatural":3604,"irth":3605,"Ġstunning":3606,"Ġnotice":3607,"Ġappearance":3608,"making":3609,"Ġbaby":3610,"ste":3611,"oop":3612,"ĠCor":3613,"Ġdef":3614,"We":3615,"Ġoccur":3616,"you":3617,"owers":3618,"aining":3619,"icated":3620,"Ġsmart":3621,"kin":3622,"aine":3623,"Ġalive":3624,"AS":3625,"cle":3626,"Ġterms":3627,"Ġauthor":3628,"Ġgem":3629,"ands":3630,"Ġsav":3631,"Ġlab":3632,"Ġscenery":3633,"Ġrespons":3634,"Ġgrap":3635,"opher":3636,"Ġprep":3637,"ĠMary":3638,"ĠAngel":3639,"To":3640,"Ġpresence":3641,"Ġindust":3642,"Ġadventure":3643,"Ġneither":3644,"Ġfresh":3645,"ĠWay":3646,"Ġcomputer":3647,"Ġfaith":3648,"vert":3649,"Ġstandard":3650,"Ġdestroy":3651,"Ġnormal":3652,"ID":3653,"ĠAg":3654,"ĠBru":3655,"ĠST":3656,"ĠEarth":3657,"Ġcentury":3658,"Ġmanaged":3659,"Ġrevenge":3660,"Ġcinematic":3661,"Ġsomewhere":3662,"Ġavailable":3663,"anna":3664,"ological":3665,"Ġheavy":3666,"icide":3667,"ĠEm":3668,"\".<":3669,"ena":3670,"ĠBob":3671,"Ġjourney":3672,"riage":3673,"ths":3674,"Ġremains":3675,"Ġsoldiers":3676,"Ġobsess":3677,"Ġmult":3678,"ĠNor":3679,"Ġnowhere":3680,"Ġboyfriend":3681,"Ġapproach":3682,"Ġultimately":3683,"ĠBat":3684,"Ġneigh":3685,"ĠCharles":3686,"ĠLet":3687,"Ġrare":3688,"ictor":3689,"lo":3690,"itions":3691,"Ġuns":3692,"Ġaffair":3693,"stem":3694,"Ġforce":3695,"Ġflashback":3696,"ĠStan":3697,"Ġsuppose":3698,"Ġsexy":3699,"Ġpassion":3700,"Ġconstantly":3701,"ĠPerhaps":3702,"oned":3703,"Ġdro":3704,"Ġconflict":3705,"ĠAustral":3706,"Be":3707,"Ġokay":3708,"Ġthreat":3709,"Ġthrown":3710,"Ġmagic":3711,"Ġzombie":3712,"Ġclimax":3713,"Ġintrigu":3714,"Ġdescrib":3715,"Ġemotions":3716,"ropri":3717,"Ġchanges":3718,"iven":3719,"just":3720,"Ġjo":3721,"ĠJones":3722,"Ġphotography":3723,"Ġadaptation":3724,"face":3725,"riff":3726,"ĠBest":3727,"Ġnarrative":3728,"Ġdetails":3729,"esides":3730,"Ġnames":3731,"ivers":3732,"Ġstarring":3733,"ĠHol":3734,"Ġbeautifully":3735,"estival":3736,"Ġutterly":3737,"Ġliterally":3738,"ented":3739,"Ġcharming":3740,"ĠAnn":3741,"He":3742,"Ġdin":3743,"Ġoffer":3744,"ĠYe":3745,"Ġdemon":3746,"Ġwitness":3747,"ander":3748,"Ġast":3749,"itude":3750,"Ġplaces":3751,"played":3752,"Ġprotagon":3753,"arm":3754,"Ġdig":3755,"Ġbehav":3756,"ressing":3757,"Ġterrific":3758,"vey":3759,"ĠHam":3760,"orts":3761,"ĠParis":3762,"Ġhistorical":3763,"Ġtone":3764,"Ġcuri":3765,"Ġanimated":3766,"Ġintended":3767,"Ġcommer":3768,"Ġindivid":3769,"Ġescap":3770,"Ġinnocent":3771,"urch":3772,"Ġinflu":3773,"gl":3774,"uts":3775,"Ġlaughable":3776,"Ġstands":3777,"Ġtradition":3778,"oking":3779,"Ġcomedies":3780,"Ġcompar":3781,"lease":3782,"Ġrecommended":3783,"Ġdisappointing":3784,"Ġdrink":3785,"Ġsix":3786,"ĠSure":3787,"ĠBel":3788,"Ġscience":3789,"elling":3790,"Ġfeelings":3791,"board":3792,"ĠSmith":3793,"Ġhost":3794,"Ġpresented":3795,"oices":3796,"ability":3797,"OV":3798,"ĠHigh":3799,"unting":3800,"arsh":3801,"Ġfinish":3802,"Ġtouching":3803,"Ġaddition":3804,"Ġputs":3805,"ĠSci":3806,"awn":3807,"Ġthrow":3808,"Ġpainful":3809,"Ġcostumes":3810,"Ġfilming":3811,"Ġchall":3812,"Ġgenerally":3813,"Ġsurprisingly":3814,"ospital":3815,"Ġunbelievable":3816,"That":3817,"field":3818,"part":3819,"Ġsurround":3820,"Ġleg":3821,"Ġspec":3822,"Jo":3823,"Ġabsurd":3824,"Ġpieces":3825,"ĠAnt":3826,"ĠMiss":3827,"Ġgold":3828,"Ġthemes":3829,"IT":3830,"Ġplus":3831,"Ġcharm":3832,"Ġmilitary":3833,"Ġfool":3834,"Ġloose":3835,"ica":3836,"Ġbuilding":3837,"Ġgovernment":3838,"Ġur":3839,"ĠCal":3840,"Ġsoft":3841,"Ġteacher":3842,"Ġaspects":3843,"ĠCG":3844,"Ġloves":3845,"Ġboss":3846,"Ġmedioc":3847,"ivil":3848,"Ġobject":3849,"Ġslowly":3850,"Ġsystem":3851,"ĠChristian":3852,"AD":3853,"Ġfully":3854,"Ġoffe":3855,"ĠJeff":3856,"Ġmakers":3857,"Ġintense":3858,"Ġlovely":3859,"Ġdisappointment":3860,"Ġhoping":3861,"ghed":3862,"pro":3863,"Some":3864,"ĠSec":3865,"Ġmistake":3866,"CH":3867,"Ġtired":3868,"ĠStill":3869,"Ġindividual":3870,"ta":3871,"Sh":3872,"down":3873,"Ġsto":3874,"Ġ18":3875,"ploy":3876,"oh":3877,"ode":3878,"Ġexpectations":3879,"house":3880,"Ġdate":3881,"illing":3882,"Ġburn":3883,"Ġacts":3884,"anted":3885,"Ġalien":3886,"ĠHitchcock":3887,"ĠBro":3888,"ples":3889,"Ġartist":3890,"Ġ60":3891,"oved":3892,"Ġspl":3893,"Ġlength":3894,"oughly":3895,"Ġsilent":3896,"Ġmillion":3897,"budget":3898,"Ġelement":3899,"ĠCharlie":3900,"now":3901,"ĠDirector":3902,"Ġener":3903,"Ġexcuse":3904,"Ġopportunity":3905,"entially":3906,"Ġdefe":3907,"Ġdiscuss":3908,"Ġride":3909,"Ġdiscover":3910,"Ġcommercial":3911,"ĠBecause":3912,"Ġmoral":3913,"Ġmagn":3914,"Ġequally":3915,"rem":3916,"Ġdad":3917,"ĠHen":3918,"Ġkey":3919,"Ġcurrent":3920,"gue":3921,"ached":3922,"ĠHarry":3923,"?!":3924,"Ġdim":3925,"Ġstudent":3926,"Ġmysterious":3927,"Ġfascinating":3928,"IG":3929,"Ġinit":3930,"Ġoutstanding":3931,"under":3932,"ision":3933,"Ġlif":3934,"Ġproper":3935,"istent":3936,"Ġsubst":3937,"Ġintern":3938,"Ġ40":3939,"Ġdrive":3940,"ribe":3941,"aint":3942,"ĠRy":3943,"Ġcontains":3944,"ĠSteve":3945,"ooks":3946,"Ġknowing":3947,"Ġnumb":3948,"Ġdrunk":3949,"At":3950,"win":3951,"Ġimpl":3952,"Ġinclude":3953,"ĠX":3954,"Ġord":3955,"Ġqual":3956,"Ġcontent":3957,"ĠOnly":3958,"heart":3959,"Ġdiv":3960,"ĠCr":3961,".....":3962,"Ġlegend":3963,"anch":3964,"ĠDark":3965,"asty":3966,"uit":3967,"ĠMark":3968,"akespe":3969,"Ġdesert":3970,"ĠAnother":3971,"ledge":3972,"Ġhappening":3973,"ĠAdam":3974,"Ġlaughed":3975,"Ġsight":3976,"onna":3977,"ĠWW":3978,"Ġpictures":3979,"ĠSouth":3980,"Ġserial":3981,"Ġstudents":3982,"Ġmouth":3983,"ĠTony":3984,"sey":3985,"Ġwalking":3986,"ĠBruce":3987,"ĠWest":3988,"ini":3989,"Ġdies":3990,"Ġprocess":3991,"appy":3992,"Ġlived":3993,"ĠWhere":3994,"ĠDu":3995,"mbol":3996,"Un":3997,"Ġconfusing":3998,"Ġmelod":3999,"Now":4000,"lyn":4001,"Ġcritics":4002,"Ġirrit":4003,"ĠStr":4004,"Ġflicks":4005,"IE":4006,"Ġdisaster":4007,"Oh":4008,"ĠStewart":4009,"Ġdisgust":4010,"hor":4011,"ront":4012,"ural":4013,"Ġimage":4014,"Ġdifference":4015,"pret":4016,"ĠTar":4017,"ĠPol":4018,"Ġrace":4019,"Ġtrag":4020,"Ġseg":4021,"Ġphotograp":4022,"Ġcompelling":4023,"Ġclean":4024,"Ġbreath":4025,"mon":4026,"Ġdread":4027,"ĠVery":4028,"Ġlacks":4029,"Ġrelationships":4030,"ĠDou":4031,"ĠFe":4032,"Ġserv":4033,"dered":4034,"inct":4035,"Ġproducer":4036,"Ġlocation":4037,"Ġimpressed":4038,"Ġoppos":4039,"Ġfolks":4040,"ĠChris":4041,"Ġedge":4042,"Ġdrawn":4043,"vir":4044,"Ġfaces":4045,"asing":4046,"Ġlikable":4047,"Ġmarriage":4048,"table":4049,"inally":4050,"Ġvirt":4051,"ĠJew":4052,"ĠYet":4053,"ham":4054,"Ġcorrect":4055,"Ġcell":4056,"Ġshare":4057,"ift":4058,"ĠVictor":4059,"Ġhelps":4060,"Overall":4061,"gly":4062,"ĠJean":4063,"exic":4064,"Ġconfused":4065,"Ġrip":4066,"Ġadds":4067,"Ġdeveloped":4068,"Ġdrugs":4069,"uous":4070,"rend":4071,"Ġappeared":4072,"ĠPeople":4073,"Ġinformation":4074,"Bl":4075,"ss":4076,"uel":4077,"Ġthor":4078,"writer":4079,"good":4080,"Ġhospital":4081,"Ġpil":4082,"AL":4083,"what":4084,"Ġgorge":4085,"ĠHard":4086,"gged":4087,"erous":4088,"aries":4089,"ĠBar":4090,"Ġgiant":4091,"Ġforever":4092,"pendent":4093,"Ġspectac":4094,"thur":4095,"tend":4096,"Ġremote":4097,"Ġprim":4098,"Ġlighting":4099,"Ġdelivers":4100,"ĠMartin":4101,"ĠSand":4102,"ency":4103,"ĠKelly":4104,"Ġmir":4105,"Ġvictims":4106,"ka":4107,"see":4108,"Ġmotion":4109,"Ġfault":4110,"Ġflaws":4111,"Ġseemingly":4112,"omething":4113,"Ġsymbol":4114,"Ġnegative":4115,"omas":4116,"ĠSee":4117,"ppy":4118,"text":4119,"ĠTwo":4120,"Ġpaid":4121,"Ġchase":4122,"ĠFox":4123,"Ġoffers":4124,"While":4125,"Ġvampire":4126,"Ġanswer":4127,"Ġnews":4128,"Ġwondering":4129,"ken":4130,"ops":4131,"ĠRam":4132,"uddy":4133,"ĠShakespe":4134,"Ġdreams":4135,"Ġnaked":4136,"Ġcrow":4137,"Ġanymore":4138,"Ġmulti":4139,"oom":4140,"rog":4141,"Ġjoy":4142,"Ġmainly":4143,"ĠNothing":4144,"ĠAND":4145,"Ġtrailer":4146,"anced":4147,"ĠCo":4148,"Ġrout":4149,"ĠGar":4150,"ĠEast":4151,"Ġresc":4152,"Ġhasn":4153,"aches":4154,"Ġallowed":4155,"Ġfright":4156,"ita":4157,"ĠOverall":4158,"Ġcreative":4159,"Ġprovides":4160,"Ġindustry":4161,"Any":4162,"Ġholes":4163,"ĠIS":4164,"ustr":4165,"Ġfinding":4166,"azz":4167,"Americ":4168,"icip":4169,"ĠBad":4170,"ĠDay":4171,"ushed":4172,"Ġlover":4173,"Ġmerely":4174,"osh":4175,"Ġadults":4176,"Ġbi":4177,"ilities":4178,"ĠAb":4179,"pected":4180,"Ġfunniest":4181,"life":4182,"Ġhig":4183,"Ġnobody":4184,"Ġwilling":4185,"Ġdisappe":4186,"ĠRussian":4187,"Ġmelodram":4188,"ĠMexic":4189,"Ġconvers":4190,"Ġforgotten":4191,"Ġdubb":4192,"verse":4193,"raid":4194,"ĠNever":4195,"Ġthank":4196,"Ġhighlight":4197,"ique":4198,"Ġfiction":4199,"Ġnons":4200,"Ġrented":4201,"Ġmarket":4202,"Ġeverybody":4203,"Ġimagination":4204,"Ġgorgeous":4205,"cra":4206,"Ġstuck":4207,"abb":4208,"Ġahead":4209,"Ġonto":4210,"Ġimpact":4211,"Ġexplan":4212,"Ġstandards":4213,"Ġwide":4214,"lled":4215,"ĠPart":4216,"----":4217,"Ġfollowed":4218,"Ġbecoming":4219,"Ġreminded":4220,"Ġattractive":4221,"Ġ****":4222,"Ġmart":4223,"Ġpen":4224,"Ġ12":4225,"soever":4226,"itz":4227,"orter":4228,"Ġeight":4229,"Ġunus":4230,"Ġzombies":4231,"elebr":4232,"Ġmat":4233,"Ġcontem":4234,"Ġfalling":4235,"Ġcollection":4236,"ĠJon":4237,"Ġfellow":4238,"ĠCanad":4239,"Ġmediocre":4240,"Ġstation":4241,"pper":4242,"Ġround":4243,"Ġclub":4244,"ĠThough":4245,"Ġhonestly":4246,"De":4247,"Ġoh":4248,"Ġlad":4249,"ĠBond":4250,"illed":4251,"aud":4252,"Ġrac":4253,"Ġready":4254,"Ġboard":4255,"Ġoccasion":4256,"lock":4257,"itor":4258,"Ġfort":4259,"Ġpersonality":4260,"Ġdouble":4261,"Ġlatter":4262,"stein":4263,".,":4264,"IC":4265,"Ġeat":4266,"ĠMore":4267,"ĠGo":4268,"abl":4269,"AY":4270,"anic":4271,"ĠBet":4272,"Ġarea":4273,"Ġwhatsoever":4274,"entional":4275,"Ġdetective":4276,"Ġham":4277,"asure":4278,"Ġactions":4279,"Ġunne":4280,"ĠAmericans":4281,"Ġpicked":4282,"mes":4283,"Ġaside":4284,"Ġsuicide":4285,"Ġprin":4286,"Ġcops":4287,"Ġanimals":4288,"ech":4289,"she":4290,"Ġaim":4291,"ĠWalk":4292,"ĠRog":4293,"Ġkidn":4294,"Ġhelped":4295,"Ġled":4296,"Ġgri":4297,"ĠSpe":4298,"ĠJackson":4299,"AC":4300,"oted":4301,"Ġtwice":4302,"Ġstreng":4303,"ishes":4304,"Ġunderst":4305,"Ġtragic":4306,"ĠShow":4307,"Ġphone":4308,"ĠSteven":4309,"Ġhide":4310,"Ġreach":4311,"aded":4312,"Ġblind":4313,"iday":4314,"Ġunreal":4315,"Ġputting":4316,"Ġmember":4317,"ĠPhil":4318,"Ġden":4319,"No":4320,"With":4321,"mark":4322,"Ġbase":4323,"Ġpair":4324,"Ġ/>-":4325,"ĠWil":4326,"Ġworthy":4327,"Ġpossess":4328,"Ġscientist":4329,"Ġachieve":4330,"hol":4331,"ĠBilly":4332,"Ġproves":4333,"ĠNaz":4334,"Ġmoved":4335,"Ġshouldn":4336,"Ġencoun":4337,"aton":4338,"odies":4339,"Ġthoroughly":4340,"eal":4341,"rough":4342,"Ġgrow":4343,"Ġchildhood":4344,"ffe":4345,"father":4346,"gar":4347,"ĠDick":4348,"ĠRobin":4349,"Ġtragedy":4350,"Ġcrowd":4351,"Ġwise":4352,"Ġbottom":4353,"Ġjustice":4354,"Ġprofessional":4355,"ium":4356,"ios":4357,"phen":4358,"Ġsumm":4359,"Ġfriendship":4360,"Ġactresses":4361,"ĠMs":4362,"ĠFord":4363,"Ġquiet":4364,"azy":4365,"Ġseconds":4366,"Ġbene":4367,"Ġweap":4368,"ules":4369,"ĠYoung":4370,"ĠChristopher":4371,"ĠShakespeare":4372,".'":4373,"LY":4374,"herent":4375,"Ġcelebr":4376,"Ġhook":4377,"Ġplane":4378,"Ġrated":4379,"ĠON":4380,"ĠCarl":4381,"Ġformula":4382,"eper":4383,"film":4384,"Ġpra":4385,"Ġbegan":4386,"ĠBoth":4387,"Ġunw":4388,"ĠEr":4389,"ĠWestern":4390,"inese":4391,"Ġdrag":4392,"ĠMcC":4393,"Ġasked":4394,"TV":4395,"requ":4396,"illa":4397,"Ġnoir":4398,"Ġturning":4399,"Ġcontinue":4400,"ĠGreen":4401,"Ġslap":4402,"Ġcommentary":4403,"Ġprovide":4404,"Ġsour":4405,"Ġshocking":4406,"Ġnasty":4407,"Ġlose":4408,"Ġmurders":4409,"Ġwearing":4410,"Ġsuperior":4411,"Ġdescribe":4412,"mar":4413,"Ġchannel":4414,"ĠLyn":4415,"Ġsupposedly":4416,"mi":4417,"agger":4418,"arded":4419,"arp":4420,"ifer":4421,"Ġtrust":4422,"Ġrealized":4423,"Ġbits":4424,"Ġangry":4425,"Ġopera":4426,"Ġafraid":4427,"port":4428,"oring":4429,"ĠMus":4430,"Ġknock":4431,"ĠStory":4432,"Ġcentral":4433,"Ġwooden":4434,"ĠSuper":4435,"Ġbright":4436,"ament":4437,"Ġphysical":4438,"Ġclothes":4439,"xual":4440,"anish":4441,"ĠTre":4442,"Ġheld":4443,"oore":4444,"Ġbroad":4445,")<":4446,"ĠSl":4447,"Ġdepart":4448,"Ġapartment":4449,"kes":4450,"year":4451,"oos":4452,"agers":4453,"Ġrepeated":4454,"ĠCGI":4455,"ĠLau":4456,"Ġinsight":4457,"Ġartistic":4458,"ĠMany":4459,"John":4460,"icious":4461,"ĠTe":4462,"Ġhorse":4463,"ovies":4464,"Ġwarm":4465,"Ġsurely":4466,"Ġintroduced":4467,"Ġstruggle":4468,"Ġtar":4469,"ators":4470,"ĠTheir":4471,"resses":4472,"Ġmemory":4473,"Ġlisten":4474,"miss":4475,"Ġdying":4476,"Ġplanet":4477,"erk":4478,"alled":4479,"Ġagent":4480,"Ġwanting":4481,"Ġfavourite":4482,"Ġunexpected":4483,"Ġenergy":4484,"Ġsell":4485,"roc":4486,"ĠMag":4487,"Ġcompare":4488,"Ġredeeming":4489,"Ġthanks":4490,"Ġepic":4491,"Ġpleasure":4492,"aire":4493,"Ġnecessary":4494,"ĠVH":4495,"Ġperform":4496,"Ġaccom":4497,"olds":4498,"apped":4499,"ja":4500,"rors":4501,"Ġthin":4502,"ĠSar":4503,"Ġsadly":4504,"Ġinspired":4505,"Ġdamn":4506,"Ġlies":4507,"ĠDen":4508,"Ġemploy":4509,"ĠAnyway":4510,"Ġyouth":4511,"ĠBas":4512,"Ġtorture":4513,"Ġintriguing":4514,"zen":4515,"Ġcal":4516,"ano":4517,"Ġnumbers":4518,"gent":4519,"kward":4520,"otes":4521,"ading":4522,"Ġugly":4523,"ĠBo":4524,"Ġscare":4525,"ousy":4526,"Ġloving":4527,"Ġprefer":4528,"Ġblond":4529,"Ġcoun":4530,"ropriate":4531,"Ġthus":4532,"ĠCam":4533,"Ġ1950":4534,"Ġhat":4535,"Ġcreature":4536,"Ġdeserve":4537,"Ġresemb":4538,"Ġbrutal":4539,"Ġasks":4540,"Ġexplos":4541,"Ġrelative":4542,"Ġteenage":4543,"ĠRyan":4544,"Ġpath":4545,"Ġbrothers":4546,"ĠclichÃ©s":4547,"Ġaccurate":4548,"lla":4549,"ĠJr":4550,"ĠJes":4551,"Ġaware":4552,"Although":4553,"Ġbelong":4554,"Ġrelie":4555,"ĠGirl":4556,"Ġanywhere":4557,"ĠEverything":4558,"ĠAc":4559,"asts":4560,"Ġintelligence":4561,"aly":4562,"Ġsepar":4563,"Ġchick":4564,"Ġrape":4565,"Ġaccount":4566,"ek":4567,"ario":4568,"ĠToo":4569,"tered":4570,"Ġtears":4571,"Ġdeserved":4572,"Ġcomedic":4573,"Ġsoldier":4574,"ĠWilliams":4575,"iac":4576,"ancy":4577,"Ġder":4578,"entious":4579,"Ġrubb":4580,"Ġwatchable":4581,"ddie":4582,"Ġvision":4583,"Ġpriest":4584,"ĠBarb":4585,"ĠLittle":4586,"Ġtend":4587,"Ġholds":4588,"Ġdeeply":4589,"afe":4590,"Ġsurprising":4591,"Ġfilmmaker":4592,"Ġawkward":4593,"Ġpersonally":4594,"undred":4595,"Ġreligious":4596,"ras":4597,"Ġmount":4598,"Ġunknown":4599,"Ġknowledge":4600,"ĠBatman":4601,"vate":4602,"Ġ?":4603,"ĠSy":4604,"Ġsucks":4605,"Ġdeb":4606,"iance":4607,"Ġborn":4608,"Ġ1970":4609,"uct":4610,"Ġfood":4611,"Ġ13":4612,"Ġlets":4613,"Ġincludes":4614,"Ġelect":4615,"Ġreact":4616,"Just":4617,"abr":4618,"ĠHel":4619,"ĠEv":4620,"SE":4621,"Ġloss":4622,"omen":4623,"ilst":4624,"Ġstock":4625,"ĠSad":4626,"ĠPal":4627,"ĠChinese":4628,"Ġunderstanding":4629,"Ġhotel":4630,"Ġtour":4631,"ĠIN":4632,"Ġdeg":4633,"Ġblock":4634,"bered":4635,"Ġcraft":4636,"AM":4637,"leep":4638,"Ġsurreal":4639,"ville":4640,"stal":4641,"Ġwonderfully":4642,"ĠThomas":4643,"Ġexplanation":4644,"rick":4645,"Ġsin":4646,"ĠMen":4647,"ĠMoore":4648,"Ġsuck":4649,"ĠJason":4650,"Ġempt":4651,"ĠHenry":4652,"Ġgames":4653,"ĠWal":4654,"Ġblame":4655,"ĠSpace":4656,"Ġmartial":4657,"Ġver":4658,"ording":4659,"UT":4660,"Ġted":4661,"Ġmut":4662,"Ġmine":4663,"Ġbal":4664,"Ġhint":4665,"ĠThing":4666,"ĠJud":4667,"Ġmagnific":4668,"Ġlay":4669,"cture":4670,"Ġnoticed":4671,"do":4672,"ugg":4673,"yr":4674,"Ġtur":4675,"Ġbank":4676,"pective":4677,"Ġreminds":4678,"ĠDespite":4679,"Ġradio":4680,"hero":4681,"Ġbirth":4682,"Ġthous":4683,"Ġpacing":4684,"Ġris":4685,"ĠHarris":4686,"ashed":4687,"ademy":4688,"aturally":4689,"Ġlimited":4690,"Ġremarkable":4691,"Ġgags":4692,"Ġtarget":4693,"especially":4694,"ateg":4695,"Ġunusual":4696,"Re":4697,"ĠJerry":4698,"teen":4699,"Ġissue":4700,"hand":4701,"Ġcow":4702,"oses":4703,"Ġindependent":4704,"enge":4705,"ĠDam":4706,"Ġanybody":4707,"Ġcalls":4708,"Ġlocations":4709,"Ġmotiv":4710,"Ġsignific":4711,"American":4712,"irgin":4713,"uman":4714,"Ġspeaking":4715,"ET":4716,"aylor":4717,"ĠRus":4718,"Ġassist":4719,"Ġcaptured":4720,"Ġopposite":4721,"hered":4722,"ilos":4723,"Ġstink":4724,"ĠAv":4725,"Ġscared":4726,"Ġbland":4727,"Ġenth":4728,"Ġmemories":4729,"ĠVHS":4730,"Ġaccompl":4731,"Ġmild":4732,"iful":4733,"ivity":4734,"Ġreflect":4735,"Ġlearned":4736,"Ġreturns":4737,"atory":4738,"Ġhurt":4739,"adow":4740,"ĠLaw":4741,"Ġrarely":4742,"ĠBrother":4743,"uh":4744,"Ġhundred":4745,"ĠDid":4746,"plot":4747,"Ġbur":4748,"Ġmanage":4749,"Ġtwenty":4750,"there":4751,"ĠAllen":4752,"bian":4753,"nie":4754,"soci":4755,"Ġbuff":4756,"Ġheads":4757,"ominated":4758,"Sc":4759,"Ġtem":4760,"Ġla":4761,"Ġleader":4762,"Ġmonths":4763,"Ġnicely":4764,"Ġprotect":4765,"Ġengaging":4766,"Ġdangerous":4767,"Ġunnecessary":4768,"Sp":4769,"Ġmob":4770,"Ġsty":4771,"Ġdebut":4772,"ĠRo":4773,"Ġbelief":4774,"ĠHoward":4775,"Ġsoap":4776,"Ġproceed":4777,"Ġinterpret":4778,"ĠKevin":4779,"Ġ1980":4780,"bad":4781,"âĢ":4782,"plic":4783,"ĠOnce":4784,"Ġresponsible":4785,"Ġfield":4786,"Ġhated":4787,"lle":4788,"ipul":4789,"Ġinsane":4790,"spe":4791,"ĠRoy":4792,"Ġran":4793,"Ġcreating":4794,"ĠStephen":4795,":<":4796,"Rob":4797,"Ġtight":4798,"reck":4799,"eman":4800,"ĠLife":4801,"Ġarmy":4802,"Ġregret":4803,"hern":4804,"urs":4805,"Ġmental":4806,"ĠSil":4807,"irk":4808,"ruction":4809,"Ġminim":4810,"Ġcommunity":4811,"Ġflying":4812,"ĠTex":4813,"Ġexplained":4814,"Ġvisit":4815,"ĠDanny":4816,"Ġtreated":4817,"Ġreferences":4818,"Ġneighbor":4819,"star":4820,"ĠSus":4821,"abor":4822,"Ġplots":4823,"ewis":4824,"200":4825,"esh":4826,"Ġremain":4827,"ĠBrown":4828,"Ġcomparison":4829,"stick":4830,"Ġplayer":4831,"Ġtechnical":4832,"ĠMike":4833,"Ġgrad":4834,"Ġincre":4835,"Ġfinished":4836,"Ġarts":4837,"Ġskin":4838,"Ġsubtit":4839,"Why":4840,"Ġsac":4841,"ĠAp":4842,"unter":4843,"osen":4844,"cient":4845,"Ġefforts":4846,"Ġbehavior":4847,"cise":4848,"oons":4849,"stit":4850,"ĠWin":4851,"Ġblue":4852,"ĠAnne":4853,"Ġhumanity":4854,"Ġcontrast":4855,"Ġge":4856,"ĠSant":4857,"Ġframe":4858,"Ġfloor":4859,"Ġopt":4860,"Ġhits":4861,"ĠMaster":4862,"Ġplayers":4863,"Ġsmile":4864,"ression":4865,"Ġtransl":4866,"Ġcivil":4867,"Ġaband":4868,"Ġhadn":4869,"ache":4870,"Ġdeterm":4871,"Ġlacking":4872,"Ġcard":4873,"terest":4874,"Ġboat":4875,"Ġna":4876,"ĠHall":4877,"ennifer":4878,"Ġrubbish":4879,"ĠTaylor":4880,"Ġthats":4881,"Ġgotten":4882,"Ġmurdered":4883,"Ġfights":4884,"Ġsummer":4885,"rous":4886,"Ġfreak":4887,"Ġboo":4888,"Ġhyp":4889,"entle":4890,"ĠLes":4891,"Ġinstance":4892,"Ġrepresent":4893,"don":4894,"vy":4895,"vit":4896,"ooper":4897,"ĠHit":4898,"ĠKid":4899,"ĠWhite":4900,"Ġconstant":4901,"Ġforeign":4902,"Ġvehic":4903,"Ġsurvive":4904,"Ġmachine":4905,"OK":4906,"ication":4907,"ĠDO":4908,"ĠLind":4909,"osaur":4910,"Ġprove":4911,"icked":4912,"ĠJohnny":4913,"Ġwond":4914,"Ġpet":4915,"Ġstret":4916,"They":4917,"Ġlovers":4918,"Ġrecall":4919,".\"<":4920,"Ġuncon":4921,"ser":4922,"Ġhidden":4923,"ĠApp":4924,"ĠSin":4925,"Ġtheatre":4926,"Ġcircum":4927,"However":4928,"Ġdu":4929,"ĠHell":4930,"pless":4931,"ensional":4932,"Ġbigger":4933,"Ġcapture":4934,"natural":4935,"urse":4936,"Ġgrat":4937,"gn":4938,"ls":4939,"tes":4940,"Ġdesp":4941,"Ġhumans":4942,"Ġincluded":4943,"Ġcriminal":4944,"ogy":4945,"aren":4946,"Ġdriving":4947,"ĠEngland":4948,"Ġprotagonist":4949,"rays":4950,"Ġcars":4951,"Ġnet":4952,"aybe":4953,"ember":4954,"Ġjunk":4955,"ĠPres":4956,"Ġexperien":4957,"ĠDavis":4958,"etic":4959,"ĠREA":4960,"Ġaward":4961,"Ġmixed":4962,"Ġner":4963,"Ġdeals":4964,"Ġcontext":4965,"they":4966,"ĠJoan":4967,"Ġkeeping":4968,"Ġmission":4969,"Ġnumerous":4970,"Ġtape":4971,"although":4972,"Ġvs":4973,"abe":4974,"Ġpartner":4975,"ugs":4976,"Ġhopes":4977,"ĠHorror":4978,"mare":4979,"ounds":4980,"Ġfinest":4981,"Ġbloody":4982,"Ġbelow":4983,"Ġdesperate":4984,"director":4985,"ĠAlan":4986,"Ġhumorous":4987,"Ġvillains":4988,"looking":4989,"Ġconfront":4990,"vant":4991,"Ġban":4992,"Ġreaction":4993,"ĠBrian":4994,"ĠMax":4995,"ĠLo":4996,"Ġtherefore":4997,"Ġtext":4998,"Ġspeech":4999,"ails":5000,"ĠArthur":5001,"Ġcrappy":5002,"Ġintellect":5003,");":5004,"II":5005,"Ġring":5006,"Ġrelate":5007,"Ġeduc":5008,"Ġexperiment":5009,"Ġirritating":5010,"viron":5011,"yes":5012,"ÂĹ":5013,"atives":5014,"ĠWH":5015,"thony":5016,"Ġspoof":5017,"ĠBlood":5018,"anity":5019,"icate":5020,"ĠTer":5021,"Ġincomp":5022,"Ġresol":5023,"Ġcateg":5024,"ama":5025,"ĠDar":5026,"ushing":5027,"Ġunint":5028,"Ġ11":5029,"elle":5030,"Ġheroine":5031,"Ġdealing":5032,"Ġrevealed":5033,"ĠCass":5034,"Ġrealism":5035,"Ġfinale":5036,"Ġresults":5037,"Ġadvice":5038,"Ġfrequ":5039,"Ġles":5040,"unted":5041,"Ġarm":5042,"Ġconcerned":5043,"Even":5044,"rs":5045,"Ġpupp":5046,"ĠRom":5047,"ĠNorth":5048,"Ġgrowing":5049,"screen":5050,"Ġofficer":5051,"ores":5052,"isc":5053,"Ġpulled":5054,"__":5055,"uk":5056,"Ġchurch":5057,"Ġwinning":5058,"Ġpilot":5059,"Ġnonsense":5060,"Ġwitty":5061,"Ġfate":5062,"irm":5063,"Ġwindow":5064,"Ġcircumst":5065,"rad":5066,"ĠDor":5067,"Ġskills":5068,"Ġguns":5069,"POILERS":5070,"rical":5071,"Ġshop":5072,"Ġowner":5073,"Ġphilos":5074,"Ġcuts":5075,"fortable":5076,"apl":5077,"Ġgoof":5078,"ques":5079,"umps":5080,"ĠEddie":5081,"Ġtalents":5082,"ued":5083,"Ġing":5084,"Ġearn":5085,"ante":5086,"Ġterribly":5087,"ĠQue":5088,"Ġstereotypes":5089,"Ġbot":5090,"ĠDem":5091,"Ġsteal":5092,"Ġordinary":5093,"sell":5094,"ĠCapt":5095,"ĠPlease":5096,"Ġtroub":5097,"Ġassass":5098,"porary":5099,"ĠWayne":5100,"Ġsed":5101,"Ġgru":5102,"alling":5103,"urity":5104,"unn":5105,"Ġsheer":5106,"Ġprint":5107,"Ġdiscovered":5108,"Ġsentiment":5109,"ĠLynch":5110,"zan":5111,"Ġsafe":5112,"Ġtoward":5113,"ĠRon":5114,"Ġteach":5115,"Ġconsist":5116,"anned":5117,"Ġanimal":5118,"ĠLouis":5119,"OL":5120,"Ġfif":5121,"Ġforces":5122,"Ġenviron":5123,"ups":5124,"rifying":5125,"ashes":5126,"ulf":5127,"ĠFrance":5128,"ĠDeath":5129,"Ġregular":5130,"???":5131,"ĠSince":5132,"ĠAndrew":5133,"Ġmonsters":5134,"Ġexpert":5135,"Ġwoods":5136,"Ġreceived":5137,"Ġcable":5138,"edding":5139,"Ġlat":5140,"ĠCent":5141,"Ġmanipul":5142,"Ġstarting":5143,"Ġpretentious":5144,"ĠSpanish":5145,"Ġremembered":5146,"ĠIm":5147,"Ġens":5148,"Ġdisp":5149,"Ġstudy":5150,"Ġpu":5151,"Ġchore":5152,"Ġsomebody":5153,"ruct":5154,"Ġcontinues":5155,"Ġpsychological":5156,"Ġgenuinely":5157,"vest":5158,"worth":5159,"Ġteenagers":5160,"Ġlevels":5161,"Ġprinci":5162,"core":5163,"Ġbath":5164,"ĠSn":5165,"Ġintent":5166,"Ġarch":5167,"Ġmini":5168,"Ġattitude":5169,"arently":5170,"ennis":5171,"Ġmedia":5172,"Ġcruel":5173,"Yes":5174,"ban":5175,"Ġfle":5176,"Ġfra":5177,"Ġheroes":5178,"ĠMrs":5179,"reedom":5180,"ĠAfrican":5181,"iro":5182,"Ġempty":5183,"Ġpark":5184,"Ġpaper":5185,"ads":5186,"ĠSean":5187,"Ġcorrupt":5188,"Ġmiser":5189,"Ġbreaks":5190,"ILL":5191,"bell":5192,"ĠHay":5193,"Ġkiss":5194,"abeth":5195,"Ġfailure":5196,"Ġunfunny":5197,"ĠColumb":5198,"ĠTexas":5199,"nam":5200,"tw":5201,"anny":5202,"Ġgreen":5203,"Ġassoci":5204,"ĠThose":5205,"Ġmorning":5206,"Ġmodel":5207,"ĠEuropean":5208,"ilies":5209,"ĠBarry":5210,"ĠHaw":5211,"Ġcharism":5212,"Ġdisplay":5213,"Ġkinda":5214,"Ġsaved":5215,"glas":5216,"50":5217,"Ġwealth":5218,"Ġorgan":5219,"ĠJose":5220,"ĠChan":5221,"Ġopens":5222,"Ġvisuals":5223,"Ġstrength":5224,"kins":5225,"some":5226,"Ġic":5227,"Ġsite":5228,"idge":5229,"ribut":5230,"ĠMont":5231,"ivered":5232,"ĠEVER":5233,"Ġspeed":5234,"Ġtrib":5235,"Ġreviewers":5236,"Ġsinger":5237,"ĠGuy":5238,"Ġspectacular":5239,"aa":5240,"iy":5241,"iens":5242,"ĠWas":5243,"ĠEric":5244,"Ġfeet":5245,"Ġdesire":5246,"athan":5247,"Ġcameo":5248,"Ġexistence":5249,"Ġconnection":5250,"point":5251,"yer":5252,"Ġfund":5253,"ĠCarr":5254,"ĠNick":5255,"Ġdistract":5256,"alloween":5257,"Ġperspective":5258,"Ġchalleng":5259,"Ġrelief":5260,"top":5261,"Ġcant":5262,"ulous":5263,"Ġsucked":5264,"Ġtruck":5265,"........":5266,"Ġedited":5267,"hearted":5268,"Ġoccasionally":5269,"bur":5270,"ĠWat":5271,"acc":5272,"ĠVal":5273,"Ġimagin":5274,"Ġsatire":5275,"Every":5276,"wolf":5277,"Ġgory":5278,"agal":5279,"Ġgeneration":5280,"Ġgrace":5281,"ĠEveryone":5282,"sec":5283,"acting":5284,"ĠLi":5285,"Ġrange":5286,"Ġunable":5287,"luding":5288,"Ġdescribed":5289,"Ġmagnificent":5290,"Of":5291,"hent":5292,"Ġinh":5293,"Ġseat":5294,"Ġju":5295,"Ġfrank":5296,"ĠLewis":5297,"ĠOut":5298,"Ġoverly":5299,"Ġveter":5300,"Ġpit":5301,"iling":5302,"ĠDel":5303,"ĠViet":5304,"Ġdecision":5305,"Ġevidence":5306,"Ġmarry":5307,"ĠIsland":5308,"Ġcontrived":5309,"ube":5310,"iser":5311,"orious":5312,"Ġhall":5313,"Ġdecade":5314,"Ġlesson":5315,"Ġdiscovers":5316,"ae":5317,"ault":5318,"isa":5319,"Ġdated":5320,"ether":5321,"aming":5322,"Ġsole":5323,"Ġunrealistic":5324,"Ġvote":5325,"Ġdreadful":5326,"Ġtack":5327,"ĠJan":5328,"away":5329,"uls":5330,"ometimes":5331,"Ġparody":5332,"Ġconnect":5333,"Ġhigher":5334,"Ar":5335,"RA":5336,"Ġpress":5337,"Ġgrew":5338,"Ġscrew":5339,"Ġgrown":5340,"Ġwarning":5341,"Ġinvolves":5342,"ĠKenn":5343,"ĠAustralian":5344,"fit":5345,"Ġfal":5346,"ching":5347,"Ġshallow":5348,"anged":5349,"Ġsyn":5350,"Ġcombination":5351,"Ġcash":5352,"ĠHart":5353,"Ġoriginally":5354,"Ġresearch":5355,"Ġsake":5356,"Ġfly":5357,"omed":5358,"ĠWild":5359,"Ġobl":5360,"Ġdelivered":5361,"Ġflashbacks":5362,"Ġsun":5363,"Ġgonna":5364,"Ġaltern":5365,"Ġuncom":5366,"finitely":5367,"aplin":5368,"Ġwhilst":5369,"Ġobsc":5370,"ĠAsian":5371,"Ġtypes":5372,"Also":5373,"nox":5374,"lear":5375,"Ġbear":5376,"ĠBBC":5377,"Ġchoose":5378,"Ġcreates":5379,"Ġextraord":5380,"ĠDouglas":5381,"UN":5382,"pent":5383,"arc":5384,"asm":5385,"ĠIT":5386,"ĠEs":5387,"Ġlogic":5388,"ĠVer":5389,"Ġmarvel":5390,"Ġprovided":5391,"Ġsnow":5392,"Let":5393,"Ġdi":5394,"ĠCat":5395,"outs":5396,"Ġvac":5397,"ĠWhich":5398,"Ġteenager":5399,"!).":5400,"GE":5401,"ym":5402,"Ġcyn":5403,"Ġnin":5404,"Ġpeace":5405,"ordon":5406,"Ġfeaturing":5407,"Ġcares":5408,"Ġgangster":5409,"Ġdelightful":5410,"Ġdressed":5411,"rix":5412,"ĠAnthony":5413,"Ġtheaters":5414,"Ġtor":5415,"Ġvul":5416,"Ġproved":5417,"Ġyeah":5418,"Ġbuilt":5419,"Ġfootball":5420,"Ġjudge":5421,"atra":5422,"Ġdry":5423,"ĠLord":5424,"ĠNO":5425,"Ġadvert":5426,"theless":5427,"Ġfamilies":5428,"Ġasking":5429,"ilty":5430,"Ġsend":5431,"Ġlaughter":5432,"Ġassume":5433,"Ġsword":5434,"ĠKeaton":5435,"ĠMorgan":5436,"Ġbroken":5437,"Ġloses":5438,"Ġcapable":5439,"Ġamateurish":5440,"law":5441,"tle":5442,"Ġpunch":5443,"Ġsea":5444,"ĠMal":5445,"ights":5446,"Ġbelieves":5447,"Ġcorny":5448,"Ġessentially":5449,"ĠSecond":5450,"uther":5451,"iration":5452,"Ġnecess":5453,"ĠEll":5454,"Then":5455,"ĠOl":5456,"osexual":5457,"ĠAndy":5458,"Ġunderrated":5459,"oken":5460,"Ġrefres":5461,"Ġsympathetic":5462,"Ġgraphic":5463,"hentic":5464,"Ġfrustr":5465,"Ġallows":5466,"ĠNic":5467,"Ġskill":5468,"Ġmeeting":5469,"Ġtraditional":5470,"mble":5471,"Ġsal":5472,"Ġredu":5473,"Ġbrilliantly":5474,"Ġemotionally":5475,"ĠFranc":5476,"ĠAgain":5477,"Ġgross":5478,"othy":5479,"ĠGary":5480,"ĠYOU":5481,"Ġcurious":5482,"ĠHitler":5483,"From":5484,"Ġtalks":5485,"Another":5486,"ĠJulie":5487,"IGH":5488,"entionally":5489,"Ġglass":5490,"Ġmajority":5491,"ĠAcademy":5492,"Ġharm":5493,"Ġinex":5494,"Ġemer":5495,"owell":5496,"aret":5497,"ĠThank":5498,"Ġcreatures":5499,"RI":5500,"Ste":5501,"iforn":5502,"Ġconsequ":5503,"ĠTHIS":5504,"Ġvillage":5505,"Ġtreatment":5506,"Ġenvironment":5507,"ients":5508,"Ġbat":5509,"Ġda":5510,"ĠMic":5511,"Ġking":5512,"usi":5513,"Ġexecuted":5514,"Ġultimate":5515,"ĠLuc":5516,"ĠFar":5517,"ums":5518,"ĠJimmy":5519,"ba":5520,"yal":5521,"Ġeating":5522,"ĠMer":5523,"ulp":5524,"usive":5525,"Ġthoughts":5526,"Ġportrays":5527,"ĠLeon":5528,"Ġinept":5529,"Ġrescue":5530,"lly":5531,"Ġpowers":5532,"ĠWars":5533,"Ġscar":5534,"Ġvide":5535,"ĠLa":5536,"ummy":5537,"formed":5538,"Ġsitcom":5539,"ĠDaniel":5540,"LLY":5541,"Ġhandsome":5542,"Ġpropag":5543,"Ġexpression":5544,"uitous":5545,"Ġtedious":5546,"Ġnaive":5547,"rate":5548,"tain":5549,"ĠRose":5550,"angers":5551,"Ġsteals":5552,"Ġembarrassing":5553,"Ġhur":5554,"Ġseven":5555,"ĠRod":5556,"ĠJess":5557,"Ġpurch":5558,"Ġcolour":5559,"gen":5560,"mo":5561,"Ġtick":5562,"Ġbodies":5563,"ĠLady":5564,"ĠJennifer":5565,"Ġendless":5566,"ĠAlbert":5567,"Ġcourt":5568,"Ġcircumstances":5569,"Ġharsh":5570,"Ġguest":5571,"Ġrevolution":5572,"Ġfict":5573,"Ġbag":5574,"Ġcrack":5575,"Ġcontrovers":5576,"Ġcaused":5577,"Ġscreaming":5578,"She":5579,"fl":5580,"Ġtable":5581,"Ġgas":5582,"Ġcompan":5583,"Ġaccomp":5584,"ule":5585,"Ġ)":5586,"stream":5587,"amily":5588,"ĠCamp":5589,"oyd":5590,"Ġreviewer":5591,"Ġinvolve":5592,"Ġexcited":5593,"Ġpromise":5594,"Ġvol":5595,"Ġviewed":5596,"Ġestabl":5597,"Ġdisgusting":5598,"ker":5599,"ĠPac":5600,"ĠChaplin":5601,"Ġwalked":5602,"ĠBroad":5603,"Ġcounter":5604,"Â´":5605,"ĠSund":5606,"ichol":5607,"Ġstreets":5608,"Ġpal":5609,"arian":5610,"imate":5611,"ĠMiche":5612,"ĠColl":5613,"ĠAnderson":5614,"Ġgrade":5615,"ucky":5616,"Ġpassed":5617,"Ġmurdere":5618,"Ġrefreshing":5619,"made":5620,"hem":5621,"Ġfreedom":5622,"ĠMil":5623,"Ġvan":5624,"Ġvoices":5625,"Ġages":5626,"izabeth":5627,"Ġcompos":5628,"Ġentertained":5629,"Ġsequels":5630,"aturday":5631,"ĠGermany":5632,"han":5633,"Ġinvent":5634,"Ġstanding":5635,"Ġidentity":5636,"ĠTrek":5637,"ifornia":5638,"Ġrental":5639,"Ġbringing":5640,"Ġlousy":5641,"lder":5642,"Ġsharp":5643,"Ġcosts":5644,"Ġnormally":5645,"Ġroutine":5646,"itiz":5647,"ĠCle":5648,"uns":5649,"Ġconvey":5650,"tended":5651,"Ġproud":5652,"Ġladies":5653,"Pl":5654,"done":5655,"phy":5656,"Ġlone":5657,"ĠSH":5658,"ulation":5659,"Ġhorribly":5660,"Ġproduce":5661,"Ġappl":5662,"Ġauthentic":5663,"Ġstopped":5664,"Ġfare":5665,"Ġforth":5666,"ĠMatt":5667,"ĠLast":5668,"Ġspin":5669,"Ġstrongly":5670,"eanwhile":5671,"class":5672,"za":5673,"inis":5674,"Ġrend":5675,"Ġconce":5676,"Ġtechnology":5677,"Ġpleasant":5678,"ausible":5679,"dom":5680,"nal":5681,"Ġfame":5682,"ĠInt":5683,"ĠTed":5684,"Ġsoph":5685,"Ġplans":5686,"Ġende":5687,"viously":5688,"Ġweeks":5689,"ashington":5690,"Ġvehicle":5691,"IR":5692,"pir":5693,"tr":5694,"ĠLook":5695,"umm":5696,"ummer":5697,"urns":5698,"ethod":5699,"Ġsuffering":5700,"Ġdubbed":5701,"Ġcontemporary":5702,"Ġsaving":5703,"ĠTime":5704,"roll":5705,"ura":5706,"ola":5707,"ĠGordon":5708,"ĠKu":5709,"ĠKong":5710,"ogether":5711,"Ġmatters":5712,"Ġwalks":5713,"ĠWilson":5714,"Ġexperienced":5715,"Ġbond":5716,"oting":5717,"atherine":5718,"Ġpainfully":5719,"ungle":5720,"Ġlearns":5721,"Ġsource":5722,"Ġsubtitles":5723,"sen":5724,"Ġfits":5725,"Ġfacts":5726,"Ġzero":5727,"Ġshocked":5728,"Ġdollars":5729,"Ġcriticism":5730,"Ġqualities":5731,"ĠJesus":5732,"mother":5733,"Ġbre":5734,"enstein":5735,"espite":5736,"ĠDian":5737,"ĠFestival":5738,"ĠGene":5739,"Ġversions":5740,"Ġdepicted":5741,"Man":5742,"icit":5743,"Ġwhenever":5744,"Ġportraying":5745,"Ġhyster":5746,"ĠStreet":5747,"Ġgratuitous":5748,"ixt":5749,"whel":5750,"Ġancient":5751,"ĠRoman":5752,"Ġdepressing":5753,"Ġexcit":5754,"Ġruined":5755,"ait":5756,"taking":5757,"telling":5758,"upt":5759,"Ġhey":5760,"Ġterm":5761,"Ġreligion":5762,"Ġsatisfying":5763,"ĠBE":5764,"ĠCast":5765,"Ġblow":5766,"Ġspends":5767,"ĠSeagal":5768,"ĠPlus":5769,"ij":5770,"produ":5771,"ĠCinem":5772,"orted":5773,"reek":5774,"ĠBrad":5775,"Ġclassics":5776,"cohol":5777,"Ġrefer":5778,"Ġsubstance":5779,"Ġcas":5780,"onel":5781,"ynam":5782,"Ġcenter":5783,"Ġprior":5784,"Ġcartoons":5785,"\"),":5786,"Ġpan":5787,"Ġasleep":5788,"ĠWashington":5789,"Ġflesh":5790,"Ġemp":5791,"Ġideal":5792,"ĠUnivers":5793,"Ġlargely":5794,"Ġlosing":5795,"Ġwel":5796,"ĠPre":5797,"ĠLarry":5798,"Ġunfortun":5799,"avy":5800,"Ġdescript":5801,"aura":5802,"Ġinevit":5803,"Ġsegment":5804,"Ġslapstick":5805,"Ġenthusi":5806,"teresting":5807,"Ġlatest":5808,"ran":5809,"inated":5810,"itter":5811,"ĠBor":5812,"ĠCount":5813,"ĠFre":5814,"Ġtheatrical":5815,"Ġtwisted":5816,"ĠIrish":5817,"Ġlesbian":5818,"buster":5819,"otion":5820,"Ġchosen":5821,"ĠPict":5822,"ĠLam":5823,"Ġclue":5824,"Ġsports":5825,"phas":5826,"199":5827,"Ġangles":5828,"ĠComm":5829,"Ġlucky":5830,"Ġencounter":5831,"Ne":5832,"Ġlink":5833,"Ġexploitation":5834,"Cl":5835,"Fi":5836,"orting":5837,"ĠStone":5838,"Ġexperiences":5839,"Ġconvince":5840,"BO":5841,"Ġwitch":5842,"Ġdrop":5843,"Ġlie":5844,"etime":5845,"ĠAre":5846,"ĠMoon":5847,"ĠRen":5848,"Ġrecognize":5849,"ĠFrancis":5850,"Ġexcitement":5851,"Ġgig":5852,"Ġhen":5853,"ĠAdd":5854,"Ġteens":5855,"Ġbelieved":5856,"Ġpursu":5857,"ENT":5858,"oir":5859,"ĠDog":5860,"umber":5861,"Ġevening":5862,"Ġpregn":5863,"Ġappropriate":5864,"Ġspeaks":5865,"Ġpropaganda":5866,"long":5867,"Ġbatt":5868,"Ġhol":5869,"Ġ14":5870,"Ġcring":5871,"ĠZomb":5872,"):":5873,"Ġsides":5874,"ston":5875,"Ġhearing":5876,"Ġprostit":5877,"apes":5878,"Ġvisually":5879,"Ġcommitted":5880,"ĠJackie":5881,"ĠBrothers":5882,"mind":5883,"eness":5884,"Ġrevel":5885,"Ġreject":5886,"kend":5887,"ĠSat":5888,"ĠGener":5889,"ĠKim":5890,"Ġmakeup":5891,"ĠUK":5892,"hens":5893,"ĠBarbara":5894,"BI":5895,"lim":5896,"Ġvague":5897,"Ġunfor":5898,"Ġsurface":5899,"Ġfactor":5900,"Ġappealing":5901,"Ġworthwhile":5902,"Ġcaptures":5903,"Ġsuffers":5904,"Ġfalse":5905,"udes":5906,"Ġpromising":5907,"ĠCaptain":5908,"Ġquir":5909,"ĠTHAT":5910,"198":5911,"Ġholding":5912,"Ġidiot":5913,"Ġvirtually":5914,"oly":5915,"Ġmask":5916,"Ġinner":5917,"ĠLA":5918,"Ġrough":5919,"udic":5920,"Ġprice":5921,"197":5922,"Ġmovement":5923,",'":5924,"Ġcore":5925,"add":5926,"urp":5927,"Ġshut":5928,"ĠVER":5929,"Ġperformed":5930,"Ġreput":5931,"Ġstructure":5932,"mma":5933,"Ġmultiple":5934,"Ġsemi":5935,"Ġrules":5936,"ĠNE":5937,"ĠKill":5938,"beat":5939,"Ġaccents":5940,"Ġfeatured":5941,"ĠSimon":5942,"Ġpractically":5943,"Ġunfortunate":5944,"oooo":5945,"ĠRun":5946,"Ġrise":5947,"ĠStates":5948,"Ġhandled":5949,"ĠJohnson":5950,"Ġcutting":5951,"oppy":5952,"ns":5953,"arning":5954,"ilogy":5955,"ighter":5956,"Ġcrash":5957,"ĠUnited":5958,"Ġexpos":5959,"Ġinfluence":5960,"fire":5961,"mond":5962,"Ġpity":5963,"Ġchose":5964,"Ġabuse":5965,"olic":5966,"ĠCanadian":5967,"Ġpraise":5968,"Ġrelatively":5969,"UR":5970,"VE":5971,"Watch":5972,"erie":5973,"athy":5974,"Ġnominated":5975,"Ġhaunting":5976,"ĠKore":5977,"Ġincident":5978,"Ġposition":5979,"Ġspoilers":5980,"Ġ1960":5981,"ĠRussell":5982,"cula":5983,"Ġabr":5984,"Ġbound":5985,"Ġlower":5986,"ĠTO":5987,"ĠSher":5988,"Ġjail":5989,"opper":5990,"Do":5991,"ĠBern":5992,"raction":5993,"Ġalcohol":5994,"ĠLong":5995,"ĠGet":5996,"Ġenemy":5997,"ressive":5998,"ĠAlice":5999,"Ġlandsc":6000,"ĠPatrick":6001,"Ġstatement":6002,"Ġblonde":6003,"Ġbothered":6004,"Ġfrankly":6005,"ĠMir":6006,"Ġcommit":6007,"Ġtouches":6008,"Ġvariety":6009,"Ġsuspenseful":6010,"ĠMurphy":6011,"ĠHolmes":6012,"ked":6013,"Ġscale":6014,"Ġoutrage":6015,"Ġrot":6016,"Ġspark":6017,"Ġemphas":6018,"ĠclichÃ©d":6019,"Ġclaims":6020,"ĠJewish":6021,"Ġdegree":6022,"ĠVietnam":6023,"!),":6024,"ĠWhe":6025,"outhern":6026,"ĠRick":6027,"Ġneat":6028,"Ġoffensive":6029,"Ġ25":6030,"Ġrival":6031,"umbling":6032,"Ġfavorites":6033,"Ġsympathy":6034,"Ġinitial":6035,"ners":6036,"pet":6037,"Ġfestival":6038,"Ġacqu":6039,"ĠDoes":6040,"Ġerotic":6041,"Ġconversation":6042,"low":6043,"zo":6044,"Ġarrest":6045,"Ġguilty":6046,"ĠUp":6047,"Ġtraining":6048,"Ġadmire":6049,"including":6050,"ĠBrand":6051,"Ġaccidentally":6052,"Ġunconvin":6053,"Ġtoler":6054,"olen":6055,"ĠRem":6056,"Ġevol":6057,"Ġfigured":6058,"Ġpreviously":6059,"Ġobsessed":6060,"ĠJoseph":6061,"ww":6062,"Ġwrest":6063,"Ġcook":6064,"ĠTod":6065,"ĠSk":6066,"ĠSan":6067,"ĠBog":6068,"Ġpoign":6069,"Ġrealizes":6070,"Ġdirectly":6071,"Ġserves":6072,"ĠAfrica":6073,"Ġcategory":6074,"ĠBroadway":6075,"Ġfish":6076,"itious":6077,"lection":6078,"eter":6079,"Ġhack":6080,"ĠCH":6081,"Ġtrick":6082,"Ġdisag":6083,"Ġsupernatural":6084,"Ġsurprises":6085,"ĠEdward":6086,"Ġdestroyed":6087,"ION":6088,"orb":6089,"ari":6090,"Ġgentle":6091,"Ġwear":6092,"ĠWr":6093,"Ġexagger":6094,"ago":6095,"ĠNichol":6096,"Ġmyth":6097,"Ġeverywhere":6098,"Ġsorts":6099,"ship":6100,"Ġmethod":6101,"ĠSal":6102,"ĠEve":6103,"Ġ16":6104,"Ġspite":6105,"ĠChild":6106,"aze":6107,"Ġforgettable":6108,"Ġexecution":6109,"Ġmelodrama":6110,"Ġintellectual":6111,"Ġwedding":6112,"Ġboot":6113,"Ġcab":6114,"eds":6115,"ĠTy":6116,"Ġheck":6117,"chan":6118,"Ġsection":6119,"umph":6120,"ĠEvil":6121,"Ġcamer":6122,"Ġpresents":6123,"Ġconfess":6124,"ĠBefore":6125,"Ġunlikely":6126,"Ġgraph":6127,"Ġdemonstr":6128,"Ġextraordinary":6129,"Ġ#":6130,"Ġtill":6131,"rehens":6132,"Ġwound":6133,"Ġdirty":6134,"ĠHaving":6135,"Ġatro":6136,"ĠKate":6137,"assion":6138,"Ġbitter":6139,"ĠReally":6140,"Ġcostume":6141,"ĠRoberts":6142,"Ġpulls":6143,"Ġcontinuity":6144,"11":6145,"ipping":6146,"mal":6147,"Ġded":6148,"Ġludic":6149,"uty":6150,"ĠSE":6151,"ĠSid":6152,"ĠFull":6153,"Ġarg":6154,"Ġpolic":6155,"Ġcomplain":6156,"craft":6157,"Ġbesides":6158,"Ġhealth":6159,"Ġenter":6160,"Ġfarm":6161,"Ġswim":6162,"Ġrequired":6163,"Ġmassive":6164,"Ġhanging":6165,"cr":6166,"ĠHope":6167,"Ġjeal":6168,"ĠVinc":6169,"Ġcontact":6170,"Ġminds":6171,"Ġprofound":6172,"ĠElizabeth":6173,"Ġprepared":6174,"ĠCalifornia":6175,"ĠEastwood":6176,"ĠRoger":6177,"Is":6178,"Ġstom":6179,"ĠJac":6180,"Ġeffectively":6181,"apping":6182,"Ġdeaths":6183,"Ġcrying":6184,"Ġimprove":6185,"Ġ1930":6186,"chen":6187,"world":6188,"Ġice":6189,"enced":6190,"Ġstalk":6191,"Ġcovered":6192,"Ġprivate":6193,"ĠAnton":6194,"aust":6195,"cons":6196,"Ġtask":6197,"ato":6198,"ĠHoff":6199,"Ġexcess":6200,"Ġpolitics":6201,"ĠParker":6202,"rie":6203,"Ġpaced":6204,"ethe":6205,"ulci":6206,"Ġflo":6207,"Ġtrapped":6208,"ocal":6209,"ibal":6210,"ĠActually":6211,"Like":6212,"ipped":6213,"Ġcust":6214,"amous":6215,"rol":6216,"ĠMin":6217,"ĠMuch":6218,"Ġworry":6219,"ourne":6220,"Ġskip":6221,"Ġdriver":6222,"written":6223,"Ġremotely":6224,"ĠAvoid":6225,"\").":6226,"20":6227,"fess":6228,"Ġbab":6229,"Ġdress":6230,"ĠALL":6231,"ĠSaturday":6232,"ĠOld":6233,"Ġsimpl":6234,"ĠAnna":6235,"Ġreporter":6236,"Ġrenting":6237,"Ġstatus":6238,"Ġstereotypical":6239,"Ġreputation":6240,"Ġfix":6241,"ito":6242,"Ġpile":6243,"ĠHalloween":6244,"ĠPort":6245,"Ġflow":6246,"Ġcris":6247,"Ġimagery":6248,"Ġassum":6249,"Ġnarration":6250,"Ġservice":6251,"Ġfrightening":6252,"Ġabandoned":6253,"orig":6254,"Ġash":6255,"ĠRain":6256,"Ġreminis":6257,"Ġextras":6258,"Ġrepet":6259,"Ġfocused":6260,"Ġveteran":6261,"Ġfictional":6262,"IM":6263,"cies":6264,"ems":6265,"Ġsche":6266,"ĠRad":6267,"ĠFinally":6268,"Ġcourage":6269,"Ġconcert":6270,"Ġsensitive":6271,"wing":6272,"Ġsne":6273,"ĠIre":6274,"Ġ/>*":6275,"ĠTri":6276,"ĠMOV":6277,"ĠCas":6278,"ĠDennis":6279,"Ġupset":6280,"Ġgreater":6281,"Ġdistinct":6282,"Ġseasons":6283,"Ġaccompan":6284,"breaking":6285,"dim":6286,"Ġtiny":6287,"Ġwins":6288,"ĠMST":6289,"ĠCost":6290,"Ġnostal":6291,"Ġmistakes":6292,"iat":6293,"Ġhired":6294,"ĠWall":6295,"ĠOver":6296,"ĠChannel":6297,"ĠArt":6298,"Ġconvinced":6299,"Ġarrives":6300,"GM":6301,"ĠComp":6302,"ĠDun":6303,"weet":6304,"ĠBrooks":6305,"ĠDonald":6306,"Ġdevice":6307,"Ġtremend":6308,"Ġencou":6309,"Ġcloser":6310,"zil":6311,"Ġmainstream":6312,"Ġcalling":6313,"Ġaddict":6314,"Ġconcent":6315,"Ġpainting":6316,"Ġuniverse":6317,"Ġweapons":6318,"bit":6319,"ooth":6320,"Ġske":6321,"Ġwid":6322,"Ġfu":6323,"Ġcous":6324,"Ġbeach":6325,"Ġstolen":6326,"ĠBull":6327,"Ġdeeper":6328,"arden":6329,"ĠDean":6330,"Ġdepiction":6331,"Ġdistribut":6332,"ĠBeat":6333,"ĠCarpent":6334,"Ġcritical":6335,"Ġruin":6336,"ĠUSA":6337,"Ġhomosexual":6338,"Ġinterviews":6339,"IGHT":6340,"Ġsink":6341,"Ġyell":6342,"Ġcann":6343,"Ġparticip":6344,"oster":6345,"Ġstayed":6346,"Ġoccasional":6347,"Ġfunnier":6348,"etheless":6349,"after":6350,"enny":6351,"ĠTor":6352,"Ġlift":6353,"Ġchair":6354,"Ġoverlook":6355,"ĠIndia":6356,"ĠEspecially":6357,"laim":6358,"Ġplaced":6359,"Ġvast":6360,"ĠLane":6361,"Ġscenario":6362,"plays":6363,"Ġraised":6364,"liver":6365,"Ġcaptiv":6366,"uclear":6367,"Ġfocuses":6368,"Ġheavily":6369,"can":6370,"Ġbore":6371,"atically":6372,"asp":6373,"omer":6374,"ĠBon":6375,"Ġchoices":6376,"Ġunp":6377,"Ġdecades":6378,"Ġsounded":6379,"ĠCarol":6380,"Ġvampires":6381,"Ġdepartment":6382,"ĠSadly":6383,"ĠPresident":6384,"ĠVERY":6385,"Le":6386,"sm":6387,"ani":6388,"iform":6389,"ĠOff":6390,"acre":6391,"Ġpreview":6392,"Who":6393,"Ġsuffer":6394,"Ġclosing":6395,"Ġoffered":6396,"Ġlegendary":6397,"By":6398,"ga":6399,"och":6400,"onest":6401,"ĠHong":6402,"ĠFer":6403,"Ġamazed":6404,"Ġcolors":6405,"Ġfigures":6406,"ĠEnter":6407,"Ġgruesome":6408,"Ġnecessarily":6409,"Ġain":6410,"Ġbird":6411,"Ġdynam":6412,"Ġisol":6413,"ils":6414,"ilton":6415,"igr":6416,"Ġguard":6417,"Ġdownright":6418,"Ġbuying":6419,"Ġexplains":6420,"ĠThrough":6421,"spired":6422,"Ġunivers":6423,"ĠQueen":6424,"Ġpuzz":6425,"Ġ0":6426,"Ġtong":6427,"Ġreun":6428,"udge":6429,"Ġteeth":6430,"Ġcontest":6431,"Ġgritty":6432,"Ġdriven":6433,"Ġreveals":6434,"Ġmildly":6435,"Ġatrocious":6436,"Ġstomach":6437,"ĠHoffman":6438,"Ġoverwhel":6439,"ĠVamp":6440,"ĠUnder":6441,"Ġkillers":6442,"Ġcommand":6443,"Ġcontribut":6444,"Ġdinosaur":6445,"Am":6446,"Ġfab":6447,"Ġgre":6448,"amie":6449,"ĠFulci":6450,"iano":6451,"Ġpaying":6452,"Ġsisters":6453,"ĠMexican":6454,"Ġunderstood":6455,"gon":6456,"Ġloyal":6457,"Ġthrows":6458,"Ġblown":6459,"Ġkinds":6460,"Ġpaint":6461,"ĠPhill":6462,"ĠApparently":6463,"Ġmurderer":6464,"cause":6465,"wy":6466,"zed":6467,"Ġanger":6468,"ĠCare":6469,"elve":6470,"Ġaccording":6471,"Ġdemand":6472,"ĠAnyone":6473,"ĠTarzan":6474,"Ġunconvincing":6475,"Michael":6476,"case":6477,"ona":6478,"asant":6479,"Ġscr":6480,"Ġintens":6481,"umble":6482,"ĠNone":6483,"ella":6484,"Ġobnox":6485,"Ġscreening":6486,"Anyway":6487,"ĠHelen":6488,"\"?":6489,"Ġwand":6490,"Ġfil":6491,"Ġdom":6492,"ĠBaby":6493,"ĠMill":6494,"ĠHad":6495,"ĠRos":6496,"Ġserve":6497,"ĠClark":6498,"Ġformat":6499,"Ġuninteresting":6500,"ĠYeah":6501,"Ġsummary":6502,"gie":6503,"loyd":6504,"sch":6505,"ĠEach":6506,"ĠYour":6507,"Ġcrude":6508,"ĠArmy":6509,"Ġlistening":6510,"Ġchanging":6511,"Ġcomplicated":6512,"Ġfaithful":6513,"rees":6514,"ashy":6515,"Ġnaturally":6516,"imm":6517,"aki":6518,"aude":6519,"Ġspell":6520,"Ġcheese":6521,"ĠPlay":6522,"belief":6523,"Ġdesigned":6524,"Ġsucceeds":6525,"walk":6526,"inals":6527,"ĠDie":6528,"ĠPri":6529,"Ġbetray":6530,"obb":6531,"ĠThree":6532,"ĠScar":6533,"ĠBetty":6534,"Ġpregnant":6535,"IA":6536,"ĠTake":6537,"chy":6538,"ĠAir":6539,"ĠSO":6540,"Ġvia":6541,"ĠLater":6542,"Ġuniform":6543,"Ġmans":6544,"Ġ17":6545,"ĠChina":6546,"---":6547,"Ġoriginality":6548,"Ġhandle":6549,"Ġlights":6550,"Ġcauses":6551,"Ġsignificant":6552,"Ġinhab":6553,"isher":6554,"eral":6555,"Ġanime":6556,"ĠBu":6557,"Ġchief":6558,"ĠNat":6559,"Ġlog":6560,"Ġtrilogy":6561,"Ġcontain":6562,"ĠUs":6563,"Ġviews":6564,"ĠAsh":6565,"ception":6566,"coming":6567,"Ġwinner":6568,"Ġcombined":6569,"ĠDracula":6570,"Ġminimal":6571,"Mar":6572,"iques":6573,"Ġtiming":6574,"ĠOb":6575,"Ġseek":6576,"Ġcoinc":6577,"Ġpassing":6578,"Ġuncle":6579,"Ġcampy":6580,"Ġlawyer":6581,"Ġludicrous":6582,"CT":6583,"Okay":6584,"aver":6585,"noon":6586,"ĠAra":6587,"Ġhaunted":6588,"ĠHill":6589,"Ġprevent":6590,"ĠBlue":6591,"Ġgrave":6592,"Ġintegr":6593,"ĠLuke":6594,"ĠSinatra":6595,"ĠSun":6596,"ĠDet":6597,"Ġscares":6598,"ĠFBI":6599,"ugos":6600,"Ġfacial":6601,"ĠNazi":6602,"dimensional":6603,"ioned":6604,"ĠWor":6605,"Ġcharge":6606,"Ġade":6607,"Ġprime":6608,"Ġsecurity":6609,"Ġwarned":6610,"Ġbrave":6611,"Ġmagical":6612,"Ġquirky":6613,"gia":6614,"Ġpage":6615,"Ġnative":6616,"Ġnude":6617,"Ġstays":6618,"ids":6619,"Ġrub":6620,"Ġarms":6621,"Ġsubsequ":6622,"nery":6623,"ĠFriday":6624,"Ġshorts":6625,"Ġirre":6626,"Ġdivor":6627,"ĠWWII":6628,"ĠWalter":6629,"Ġgoofy":6630,"Ġdescription":6631,"Dav":6632,"fall":6633,"from":6634,"Ġbreaking":6635,"Ġthro":6636,"ulated":6637,"ĠDep":6638,"Ġthrowing":6639,"Ġriver":6640,"Ġevident":6641,"Ġattempting":6642,"ĠJulia":6643,"ĠANY":6644,"ĠCamer":6645,"girl":6646,"erved":6647,"Ġmas":6648,"Ġreward":6649,"Ġliber":6650,"Ġdogs":6651,"Ġstrict":6652,"ĠMcG":6653,"Ġdelivery":6654,".)<":6655,"Ġappreciated":6656,"Ġstruggling":6657,"Ġcapital":6658,"Ġanswers":6659,"pr":6660,"Ġfet":6661,"ĠSon":6662,"acle":6663,"Ġblat":6664,"Ġexamples":6665,"Ġamazingly":6666,"Ġforest":6667,"Ġadvant":6668,"Ġcondition":6669,"ĠSwed":6670,"ĠCarpenter":6671,"Ġchuck":6672,"usty":6673,"ĠPitt":6674,"Ġrights":6675,"Ġcarried":6676,"Ġjobs":6677,"ĠDoctor":6678,"Ġmetap":6679,"Ġinspiration":6680,"Ġexpressions":6681,"Ġfond":6682,"Ġseve":6683,"ĠMiller":6684,"Ġcomical":6685,"Ġextent":6686,"OOD":6687,"Ġregarding":6688,"ĠSunday":6689,"called":6690,"den":6691,"ĠMeanwhile":6692,"Ġtear":6693,"hett":6694,"ĠWelles":6695,"Ġpatient":6696,"ĠBerg":6697,"Ġproperly":6698,"Will":6699,"iable":6700,"jud":6701,"ida":6702,"ĠAL":6703,"Ġhalfway":6704,"ĠGrand":6705,"Ġignor":6706,"ĠOtherwise":6707,"Ġdisagree":6708,"ds":6709,"eed":6710,"kind":6711,"mod":6712,"tt":6713,"Ġtheory":6714,"Ġelder":6715,"style":6716,"ĠMGM":6717,"Ġdozen":6718,"Ġexer":6719,"Ġaliens":6720,"osity":6721,"Ġdisbelief":6722,"Ġcarries":6723,"ĠGrant":6724,"ĠPlan":6725,"Ġrule":6726,"Ġintroduction":6727,"Ġdesperately":6728,"Ġjoin":6729,"Ġsophistic":6730,"Tw":6731,"ught":6732,"Ġinj":6733,"Ġeth":6734,"ĠPa":6735,"Ġstorytelling":6736,"ĠKnight":6737,"Ġeveryday":6738,"Ġincor":6739,"Ġsurf":6740,"Ġnovels":6741,"Ġweekend":6742,"Ġracist":6743,"Here":6744,"Ġnu":6745,"Ġnuclear":6746,"ada":6747,"cean":6748,"Ġbutt":6749,"ello":6750,"Ġstarred":6751,"Ġdinner":6752,"horror":6753,"iner":6754,"Ġgar":6755,"Ġ/>(":6756,"ĠTur":6757,"idents":6758,"ĠCage":6759,"Ġguar":6760,"Ġbasis":6761,"Ġdrives":6762,"ĠWithout":6763,"Ġdrinking":6764,"Ġbreathtaking":6765,"Ġobnoxious":6766,"80":6767,"Good":6768,"nes":6769,"nda":6770,"adays":6771,"ifies":6772,"actic":6773,"ĠLloyd":6774,"ĠJay":6775,"Ġmere":6776,"ĠNY":6777,"ianc":6778,"Ġenjoying":6779,"Ġhelping":6780,"ĠBeaut":6781,"Christ":6782,"Ġtun":6783,"Ġbill":6784,"char":6785,"ĠSometimes":6786,"ĠCru":6787,"ĠGoth":6788,"ounding":6789,"ĠKane":6790,"plend":6791,"Ġcheer":6792,"Ġrelated":6793,"Ġtouched":6794,"ĠBurton":6795,"Ġracism":6796,"iber":6797,"Ġbuddy":6798,"Ġheaven":6799,"ĠSovie":6800,"ĠCooper":6801,"ĠDa":6802,"ĠKurt":6803,"...\"":6804,"Ġdiss":6805,"Ġadop":6806,"Ġserved":6807,"ĠInc":6808,"beit":6809,"Ġletter":6810,"Ġbaseball":6811,"ĠSarah":6812,"Ġinterpretation":6813,"hib":6814,"Ġbik":6815,"ĠWonder":6816,"igned":6817,"Ġstupidity":6818,"Ġtransform":6819,"ĠCharl":6820,"Ġexecut":6821,"Ġproductions":6822,"Ġassistant":6823,"OP":6824,"Ġtree":6825,"ingers":6826,"iled":6827,"Ġmock":6828,"ĠMod":6829,"ĠCann":6830,"ĠDuring":6831,"Ġfranch":6832,"ĠRac":6833,"ĠRec":6834,"irected":6835,"Ġblah":6836,"Ġtitles":6837,"ĠItaly":6838,"Ġmentally":6839,"Ġignore":6840,"utherland":6841,"Despite":6842,"roph":6843,"ĠBack":6844,"ĠCole":6845,"Ġjungle":6846,"ĠLOV":6847,"ĠFin":6848,"ĠEnd":6849,"ĠOw":6850,"Ġretarded":6851,"Ġcredible":6852,"Ġcredibility":6853,"Ġparall":6854,"ĠWarner":6855,"Ġpurely":6856,"ĠWatching":6857,"Ġreference":6858,"Robert":6859,"ĠMOVIE":6860,"Jack":6861,"something":6862,"Ġhipp":6863,"Ġrev":6864,"ĠSav":6865,"ĠWind":6866,"onda":6867,"Ġpicks":6868,"Ġpsycho":6869,"Ġflawed":6870,"liners":6871,"CK":6872,"inging":6873,"Ġcand":6874,"aped":6875,"Ġentry":6876,"ĠArgent":6877,"Ġcultural":6878,"Ġratings":6879,"Ġbeloved":6880,"Ġturkey":6881,"Where":6882,"fits":6883,"bra":6884,"cker":6885,"tending":6886,"Ġcaring":6887,"Ġmiscast":6888,"iamond":6889,"Ġdetermined":6890,"ĠMickey":6891,"Ġcontroversial":6892,"Ġfac":6893,"Ġdude":6894,"Ġwears":6895,"Ġplastic":6896,"Ġrank":6897,"Ġcomedian":6898,"Ġsettings":6899,"Ġtreasure":6900,"Ġrevolves":6901,"ĠAustralia":6902,"Ġreminiscent":6903,"Director":6904,"Ġbow":6905,"Ġunbe":6906,"ĠArm":6907,"ĠMarg":6908,"Ġmedical":6909,"Ġtechnique":6910,"Ġaccepted":6911,"Ġattacks":6912,"Ġlonely":6913,"vo":6914,"Ġcy":6915,"Ġhole":6916,"ĠSir":6917,"Ġexists":6918,"ouses":6919,"ĠKarl":6920,"Ġargu":6921,"Ġpoet":6922,"Ġawards":6923,"ibilities":6924,"ographer":6925,"Ġescapes":6926,"wyck":6927,"Ġtense":6928,"Ġstunt":6929,"ams":6930,"ĠMom":6931,"ĠCap":6932,"Ġshadow":6933,"Ġcha":6934,"ĠRet":6935,"ĠKrist":6936,"Ġdeadly":6937,"Ġannoun":6938,"Ġamongst":6939,"Ġjournal":6940,"ĠSanta":6941,"Ġwelcome":6942,"BS":6943,"utter":6944,"ety":6945,"ĠMass":6946,"Ġshark":6947,"Ġalright":6948,"olph":6949,"ĠKar":6950,"Ġrolling":6951,"Ġflight":6952,"Ġinteract":6953,"except":6954,"Ġtopic":6955,"Ġcountries":6956,"Ġattacked":6957,"Ġimmense":6958,"Ġinternational":6959,"lynn":6960,"ĠMusic":6961,"Ġsinister":6962,"Ġashamed":6963,"ease":6964,"hh":6965,"orc":6966,"alley":6967,"ĠCome":6968,"Ġshape":6969,"antino":6970,"ĠOur":6971,"Ġbackd":6972,"ĠStud":6973,"Ġgrim":6974,"Ġcastle":6975,"Ġindie":6976,"Ġstruggles":6977,"Ġ1940":6978,"Ġreplaced":6979,"Ġton":6980,"Ġnation":6981,"Ġlibr":6982,"ĠHA":6983,"Ġlearning":6984,"Ġsheriff":6985,"Ġresist":6986,"Ġperfection":6987,"Ġconfusion":6988,"ronic":6989,"Ġseparate":6990,"Ġtag":6991,"aron":6992,"ĠLat":6993,"Ġunderground":6994,"Ġdeliber":6995,"Ġcarrying":6996,"Ġcriminals":6997,"Ġbalance":6998,"Ġfulf":6999,"Ġhar":7000,"iger":7001,"Ġgreatly":7002,"forward":7003,"Ġdisgu":7004,"Ġanticip":7005,"Ġmiles":7006,"ĠMexico":7007,"Ġrisk":7008,"Ġstylish":7009,"Ġgraphics":7010,"Ġintensity":7011,"Ġadvantage":7012,"die":7013,"fest":7014,"together":7015,"when":7016,"Ġcock":7017,"Ġped":7018,"ĠBL":7019,"Ġsuffe":7020,"plete":7021,"Ġafternoon":7022,"Ġhorrific":7023,"ersonally":7024,"ĠDevil":7025,"Ġguessing":7026,"Ġstops":7027,"Ġaston":7028,"ĠPhilip":7029,"Ġthousands":7030,"inate":7031,"Ġmature":7032,"Ġkung":7033,"Ġnose":7034,"ĠKaren":7035,"Ġadding":7036,"vised":7037,"Ġexceptional":7038,"ification":7039,"gypt":7040,"Ġembarrassed":7041,"iveness":7042,"Ġpoignant":7043,"Ġtongue":7044,"Ex":7045,"Maybe":7046,"Per":7047,"fun":7048,"Ġtune":7049,"ingu":7050,"ĠSutherland":7051,"ustrated":7052,"opath":7053,"ĠLos":7054,"ĠLisa":7055,"Ġcance":7056,"Ġdislike":7057,"Ġraw":7058,"stery":7059,"chell":7060,"sett":7061,"Ġgripping":7062,"Ġnetwork":7063,"Ġcynical":7064,"Ġhip":7065,"Ġlazy":7066,"adows":7067,"rial":7068,"ĠMovies":7069,"ĠHal":7070,"Ġalleg":7071,"ĠOkay":7072,"ĠChic":7073,"rett":7074,"Ġsleazy":7075,"Ġangle":7076,"ĠAmaz":7077,"Ġspoiler":7078,"ĠWoody":7079,"Ġwealthy":7080,"ĠKennedy":7081,"Mr":7082,"pal":7083,"oration":7084,"ĠAward":7085,"ĠMU":7086,"ĠProdu":7087,"Ġletting":7088,"Ġmindless":7089,"ĠArn":7090,"Ġ1990":7091,"Ġinnocence":7092,"ĠPacino":7093,"hard":7094,"watch":7095,"Ġphen":7096,"Ġweight":7097,"ĠLand":7098,"aste":7099,"Ġarrog":7100,"ishment":7101,"ĠVen":7102,"gettable":7103,"onsider":7104,"rama":7105,"Ġscreenwriter":7106,"Ġscripts":7107,"Ġopened":7108,"Ġpresentation":7109,"Ġmagaz":7110,"Ġequal":7111,"ĠPrince":7112,"Ġidiotic":7113,"Ġchallenge":7114,"Unfortunately":7115,"ĠAbout":7116,"Ġmountain":7117,"ĠBergman":7118,"Ġlaid":7119,"Ġnom":7120,"Ġnational":7121,"story":7122,"ĠCaine":7123,"Ġlovable":7124,"ĠOz":7125,"ĠIntern":7126,"Ġportra":7127,"ĠBeing":7128,"Ġinnov":7129,"ĠSuperman":7130,"Ġfrequently":7131,"ĠVincent":7132,"wor":7133,"chant":7134,"ĠCry":7135,"ogical":7136,"ocr":7137,"Ġfinan":7138,"Ġconsists":7139,"Ġartists":7140,"ĠReyn":7141,"Ġsuggests":7142,"Ġsleeping":7143,"ĠSusan":7144,"bid":7145,"mates":7146,"Ġbon":7147,"semble":7148,"ĠHa":7149,"ĠWater":7150,"Ġjumps":7151,"ĠRa":7152,"Ġneck":7153,"ĠFlor":7154,"Ġclips":7155,"Ġcontract":7156,"Ġfairy":7157,"Ġadventures":7158,"THE":7159,"ĠFreddy":7160,"Ġfranchise":7161,"TER":7162,"Ġcases":7163,"Ġpool":7164,"ogue":7165,"Ġatmospher":7166,"Ad":7167,"EL":7168,"Wow":7169,"mitted":7170,"Ġcave":7171,"ila":7172,"Ġvivid":7173,"ĠLost":7174,"ĠGi":7175,"ĠNol":7176,"Ġcreation":7177,"phan":7178,"!!!!!!!!":7179,"Ġsteps":7180,"ĠHardy":7181,"Having":7182,"Ġnoted":7183,"ĠDave":7184,"unning":7185,"Ġvir":7186,"ĠClass":7187,"Ġunfold":7188,"Ġrobot":7189,"Ġimaginative":7190,"Ġaired":7191,"Ġnotable":7192,"ĠCatherine":7193,"ĠPowell":7194,"Ġmanager":7195,"retty":7196,"Ġborder":7197,"Ġtechniques":7198,"ĠColumbo":7199,"original":7200,"==":7201,"Bra":7202,"Ġcorn":7203,"cia":7204,"ĠAndre":7205,"Ġourselves":7206,"Ġsky":7207,"Ġoccup":7208,"ĠBritain":7209,"Ġ2001":7210,"ĠSchool":7211,"Ġrobber":7212,"ĠWalker":7213,"30":7214,"sky":7215,"writ":7216,"hest":7217,"Ġwanna":7218,"Ġfirm":7219,"Ġhiding":7220,"Ġsho":7221,"than":7222,"ĠLaura":7223,"Ġinstall":7224,"Ġnightmare":7225,"ĠBlair":7226,"going":7227,"Ġspecific":7228,"mate":7229,"order":7230,"Ġwasting":7231,"cellent":7232,"rig":7233,"ĠBollywood":7234,"ĠBesides":7235,"ĠPG":7236,"ĠPL":7237,"Ġripped":7238,"airs":7239,"Ġsket":7240,"Ġurban":7241,"ĠThings":7242,"ĠCameron":7243,"Ġsuffered":7244,"?).":7245,"Paul":7246,"UL":7247,"alph":7248,"Ġexch":7249,"Ġdece":7250,"ĠEgypt":7251,"ogan":7252,"Ġraise":7253,"ointed":7254,"Ġuseless":7255,"Ġattempted":7256,"Ġappearances":7257,"Ġironic":7258,"Ġpsychiat":7259,"ĠTommy":7260,"Ġstunts":7261,"bbed":7262,"ĠGrace":7263,"Ġofficial":7264,"Ġsearching":7265,"ĠStanwyck":7266,"OD":7267,"ype":7268,"Ġhes":7269,"amor":7270,"Ġvi":7271,"inda":7272,"ooky":7273,"Ġenorm":7274,"Ġhappiness":7275,"ĠAlong":7276,"umbs":7277,"Ġrestaur":7278,"Ġfallen":7279,"ĠMarie":7280,"Ġsuccessfully":7281,"Ġsedu":7282,"Ġvideos":7283,"AA":7284,"Most":7285,"iation":7286,"Ġsings":7287,"asion":7288,"seud":7289,"Ġstates":7290,"Ġstorm":7291,"ĠSomething":7292,"ĠHunter":7293,"Ġchilling":7294,"ĠWere":7295,"ĠWolf":7296,"ĠDream":7297,"Ġconven":7298,"ĠOliver":7299,"Ġrelax":7300,"Ġaccess":7301,"cover":7302,"Ã©e":7303,"comedy":7304,"Ġcorpor":7305,"EAD":7306,"Ġboredom":7307,"Ġphysically":7308,"Ġhooked":7309,"Ġoblig":7310,"Ġcousin":7311,"list":7312,"nan":7313,"arter":7314,"ĠAst":7315,"Ġvent":7316,"ĠGriff":7317,"Ġfriendly":7318,"ibl":7319,"Ġrefuses":7320,"Ġfemin":7321,"ĠConnery":7322,"Ġsexuality":7323,"Ġmeaningful":7324,"Ġinitially":7325,"Ġconsequences":7326,"ĠSoviet":7327,"Ġtempt":7328,"Ġsplend":7329,"erior":7330,"Ġlying":7331,"oops":7332,"ĠMa":7333,"Ġjack":7334,"Ġinstantly":7335,"ĠMatth":7336,"ĠGolden":7337,"Ġprotagonists":7338,"Ġbelongs":7339,"Ġtribute":7340,"Ġmarvelous":7341,"Ġestablished":7342,"Ġtorn":7343,"ĠTurn":7344,"ader":7345,"ĠMAN":7346,"ĠDad":7347,"ĠGreek":7348,"ĠNancy":7349,"Ġenh":7350,"place":7351,"plots":7352,"obi":7353,"Ġproof":7354,"ĠSoon":7355,"Char":7356,"Ġachieved":7357,"Ġweapon":7358,"end":7359,"lance":7360,"itchell":7361,"Ġtoile":7362,"Ġdign":7363,"Ġlyr":7364,"ĠBell":7365,"ĠFle":7366,"erty":7367,"Ġovercome":7368,"Ġspoken":7369,"ĠChuck":7370,"Ġirony":7371,"Ġstealing":7372,"Ġrepeat":7373,"rified":7374,"Ġessential":7375,"Ġcompetent":7376,"ĠUniversal":7377,"Ġfabulous":7378,"ux":7379,"Ġgal":7380,"ulate":7381,"quis":7382,"Ġlegs":7383,"Ġwerewolf":7384,"Ġposter":7385,"ONE":7386,"Ġconvict":7387,"Ġsurrounding":7388,"ĠAndrews":7389,"Ġexercise":7390,"va":7391,"vably":7392,"stop":7393,"iments":7394,"Ġanal":7395,"Ġsends":7396,"uno":7397,"elson":7398,"Ġarr":7399,"ĠVeg":7400,"atholic":7401,"Ġtrial":7402,"Ġweakness":7403,"Ġsurviv":7404,"ĠVictoria":7405,"ĠFreeman":7406,"BLE":7407,"hill":7408,"Ġtied":7409,"itar":7410,"Ġnurse":7411,"rier":7412,"ulk":7413,"ĠLion":7414,"ĠLore":7415,"Ġpreach":7416,"orses":7417,"Ġwarn":7418,"Ġlacked":7419,"ĠUnlike":7420,"ĠClint":7421,"Ġcrafted":7422,"Ġneighborhood":7423,"ĠREALLY":7424,"Ġsentimental":7425,"ĠSatan":7426,"ĠReynolds":7427,"Ġinfect":7428,"entric":7429,"aying":7430,"iders":7431,"ushes":7432,"ĠFlynn":7433,"ĠAlien":7434,"Ġtraum":7435,"Ġtriumph":7436,"Ġelabor":7437,"Ġcaric":7438,"Ġscientists":7439,"Ġambig":7440,"Ġobsession":7441,"Ġneighb":7442,"ĠTarantino":7443,"Ġmirror":7444,"hold":7445,"kick":7446,"aser":7447,"Ġeager":7448,"ĠHave":7449,"Ġshines":7450,"ĠWes":7451,"ĠFu":7452,"Ġmeat":7453,"Ġtender":7454,"Ġhorrend":7455,"oche":7456,"Ġappearing":7457,"ĠAtl":7458,"ĠMaria":7459,"Ġclosely":7460,"Ġdestro":7461,"ĠBasically":7462,"Ġtroubled":7463,"accur":7464,"Con":7465,"gun":7466,"wife":7467,"orrow":7468,"Ġpseud":7469,"ctions":7470,"Ġstumb":7471,"ĠSky":7472,"Ġsevent":7473,"cket":7474,"iffe":7475,"aky":7476,"ĠFair":7477,"Ġspots":7478,"thew":7479,"Ġterrit":7480,"Ġsolve":7481,"Ġmusicals":7482,"Ġspiritual":7483,"Ġessence":7484,"Ġperformers":7485,"Ġvacation":7486,"?),":7487,"rich":7488,"woman":7489,"Ġtrap":7490,"Ġsaves":7491,"Ġfest":7492,"Ġbudd":7493,"Ġthick":7494,"asingly":7495,"ĠCurt":7496,"ĠHud":7497,"eline":7498,"Ġseeking":7499,"ours":7500,"Ġglimp":7501,"ĠCharact":7502,"lett":7503,"Ġmillions":7504,"Ġconnected":7505,"ugosi":7506,"David":7507,"Ġglimpse":7508,"60":7509,"Ġwishes":7510,"Ġthirty":7511,"Ġbeer":7512,"ĠSally":7513,"Ġplant":7514,"ĠFamily":7515,"Ġtransfer":7516,"Ġannoyed":7517,"Ġdevil":7518,"uppet":7519,"Ġbroke":7520,"Ġhomage":7521,"Ġautom":7522,"Ġuncomfortable":7523,"ĠMichelle":7524,"ĠSol":7525,"Ġjerk":7526,"agine":7527,"ĠPenn":7528,"Ġintention":7529,"Ġspy":7530,"angle":7531,"Ġenjoyment":7532,"Ġcoach":7533,"Ġcarefully":7534,"Ġdramas":7535,"Ġdevelops":7536,"Ġdealt":7537,"Ġdaughters":7538,"Ġshoots":7539,"Ġ:)":7540,"Ġhundreds":7541,"ĠGeneral":7542,"Ġatmospheric":7543,"CE":7544,"LD":7545,"ped":7546,"ĠBAD":7547,"ĠCind":7548,"Ġchases":7549,"ifting":7550,"Ġjew":7551,"ĠLI":7552,"aws":7553,"ructed":7554,"Ġinco":7555,"Ġdecl":7556,"Ġnowadays":7557,"Ġstranger":7558,"gging":7559,"Ġexplicit":7560,"Ġborrow":7561,"Ġlesser":7562,"Ġmonth":7563,"Ġopposed":7564,"Ġpersonalities":7565,"Ġconcerns":7566,"ĠBobby":7567,"inent":7568,"Ġmont":7569,"Ġpush":7570,"Ġdump":7571,"ĠId":7572,"ĠBall":7573,"Ġchoos":7574,"ĠPage":7575,"redict":7576,"Ġensemble":7577,"mentioned":7578,"awa":7579,"ĠVirgin":7580,"Ġrain":7581,"Ġdarkness":7582,"Ġthrilling":7583,"ANT":7584,"ielberg":7585,"Ġmadness":7586,"Ġidentify":7587,"Ġbroadcast":7588,"Ġthousand":7589,"Ġmiserably":7590,"ĠOliv":7591,"Ġbattles":7592,"Ġunforgettable":7593,"Finally":7594,"cut":7595,"too":7596,"uke":7597,"Ġsail":7598,"rep":7599,"Ġthread":7600,"stone":7601,"ado":7602,"ellar":7603,"Ġquote":7604,"Ġguilt":7605,"Ġbeings":7606,"riller":7607,"Ġbucks":7608,"emption":7609,"Ġimportantly":7610,"Ġultra":7611,"Ġafford":7612,"Ġoutrageous":7613,"Ġadequ":7614,"13":7615,"gra":7616,"Ġwreck":7617,"ata":7618,"Ġtow":7619,"Ġstyl":7620,"Ġstiff":7621,"rael":7622,"ĠHBO":7623,"Ġpointed":7624,"Ġstruck":7625,"ĠGermans":7626,"ĠComedy":7627,"Ġdollar":7628,"Ġkidnapped":7629,"Tom":7630,"US":7631,"iently":7632,"van":7633,"why":7634,"onse":7635,"Ġupper":7636,"ĠHome":7637,"Ġsuits":7638,"Ġvirgin":7639,"ĠLem":7640,"acked":7641,"ĠAlt":7642,"Ġconspir":7643,"Ġlessons":7644,"Ġdrags":7645,"Ġlarger":7646,"Ġmetal":7647,"Ġprofession":7648,"Ġuninspired":7649,"ĠFranco":7650,"Ġtax":7651,"brick":7652,"ĠTop":7653,"ĠMid":7654,"Ġnotch":7655,"Ġattend":7656,"Ġalb":7657,"ĠRic":7658,"Ġspending":7659,"Ġgrows":7660,"rase":7661,"Ġwra":7662,"Ġactiv":7663,"Ġkicks":7664,"ĠGreg":7665,"ĠJamie":7666,"ĠKiller":7667,"Ġknife":7668,"Ġaged":7669,"ĠReg":7670,"Ġhopefully":7671,"Ġswitch":7672,"Ġacceptable":7673,"water":7674,"Ġcitiz":7675,"Ġdare":7676,"Ġinaccur":7677,"Ġheist":7678,"ĠMitchell":7679,"Ġnewsp":7680,"Ġstriking":7681,"Ġincompet":7682,"Ġunbear":7683,"ĠArnold":7684,"anc":7685,"ĠWOR":7686,"Ġsup":7687,"Ġrushed":7688,"Ġtricks":7689,"Ġincons":7690,"Ġembr":7691,"Ġsmooth":7692,"Ġdialogs":7693,"ĠTrue":7694,"Ġignored":7695,"ĠPolice":7696,"Ġincreasingly":7697,"Ġfaced":7698,"Ġhill":7699,"Ġecc":7700,"Ġbeating":7701,"Ġchasing":7702,"ifying":7703,"ĠRes":7704,"Ġunple":7705,"......":7706,"ĠDefinitely":7707,"Ġtalked":7708,"Ġbriefly":7709,"Ġcolorful":7710,"handed":7711,"onestly":7712,"lee":7713,"Ġmoon":7714,"Ġreb":7715,"Ġselect":7716,"ĠMet":7717,"aka":7718,"agan":7719,"ĠFro":7720,"uments":7721,"ĠGill":7722,"ographic":7723,"Ġsuperfic":7724,"Ġabrupt":7725,"Gr":7726,"Ġhung":7727,"Ġgain":7728,"ĠAT":7729,"ĠSuch":7730,"ĠBurt":7731,"ĠWould":7732,"istically":7733,"ĠRep":7734,"ĠNet":7735,"igan":7736,"erella":7737,"Ġ45":7738,"ormal":7739,"pses":7740,"Ġstrangely":7741,"Ġambitious":7742,"Ġcompetition":7743,"Ġdropped":7744,"--------":7745,"Ġrepeatedly":7746,"Ġdaily":7747,"SPOILERS":7748,"icing":7749,"Ġchap":7750,"Ġrhy":7751,"ĠGen":7752,"Ġunh":7753,"udos":7754,"Ġspread":7755,"Ġattraction":7756,"Ġsexually":7757,"Ġdragged":7758,"Ġriding":7759,"ĠSomeone":7760,"Ġhoped":7761,"Ġrevealing":7762,"ĠActing":7763,"Ġfolk":7764,"Ġinevitable":7765,"Ġrepetitive":7766,"ĠRachel":7767,"ĠMatthau":7768,"pse":7769,"Ġsize":7770,"Ġfianc":7771,"Ġtoss":7772,"Ġdomin":7773,"Ġguts":7774,"ĠAlf":7775,"Ġshall":7776,"ĠDri":7777,"ĠDrew":7778,"acted":7779,"Ġcomfort":7780,"ĠKen":7781,"Ġqueen":7782,"Ġchest":7783,"Ġsubplot":7784,"ĠWend":7785,"Ġeditor":7786,"Ġcorner":7787,"Ġthrillers":7788,"ĠIsrael":7789,"Ġdestruction":7790,"Ġlimit":7791,"Ġwesterns":7792,"Ġdisappear":7793,"series":7794,"Ġendearing":7795,"ĠKorean":7796,"ĠObviously":7797,"Rich":7798,"bal":7799,"gain":7800,"Ġbott":7801,"atisf":7802,"ĠLiving":7803,"ĠLugosi":7804,"ĠHeaven":7805,"Ġremaining":7806,"Ġrelevant":7807,"Ġexpensive":7808,"oilers":7809,"ĠIndians":7810,"********":7811,"ĠPrin":7812,"Ġghosts":7813,"Ġcuriosity":7814,"Ġmelodramatic":7815,"âĢĻ":7816,"Ġcringe":7817,"Ġportrait":7818,"atched":7819,"ĠMach":7820,"ĠFather":7821,"mann":7822,"ĠBrid":7823,"Ġhandful":7824,"ĠSpielberg":7825,"Ġeasier":7826,"ĠJessica":7827,"Ġsand":7828,"Ġgather":7829,"allo":7830,"kel":7831,"ĠDE":7832,"ĠDi":7833,"ĠDal":7834,"ĠRalph":7835,"Ġruth":7836,"ĠNational":7837,"Ġlocked":7838,"ables":7839,"weight":7840,"Ġexplore":7841,"Ġpatri":7842,"Ġimportance":7843,"Ġattracted":7844,"ĠJonathan":7845,"Ġelectric":7846,"Ġcharisma":7847,"!.":7848,"Ġ***":7849,"Ġthrew":7850,"only":7851,"Ġtom":7852,"Ġlur":7853,"icop":7854,"Ġselling":7855,"ĠHolly":7856,"ĠPower":7857,"Ġrat":7858,"ĠKhan":7859,"new":7860,"Ġappalling":7861,"Ġeleg":7862,"Ġbrand":7863,"AND":7864,"Ġnonetheless":7865,"Ġfourth":7866,"Ġrequires":7867,"ĠLaurel":7868,"Ġvulner":7869,"70":7870,"Br":7871,"Fr":7872,"book":7873,"Ġnail":7874,"ieu":7875,"cend":7876,"ĠBros":7877,"ĠMother":7878,"Ġshy":7879,"Ġtrite":7880,"Ġsuburb":7881,"rison":7882,"Ġpresident":7883,"Ġcameos":7884,"Ġelev":7885,"Ġstudios":7886,"Ġselfish":7887,"Ġhonor":7888,"Ġinfamous":7889,"Ġbusy":7890,"Ġengine":7891,"ĠAusten":7892,"Ġresponse":7893,"ĠCheck":7894,"Ġstretch":7895,"Tr":7896,"Ġcandy":7897,"omic":7898,"Ġstated":7899,"ĠSur":7900,"ĠNelson":7901,"ptic":7902,"Ġfears":7903,"plane":7904,"Ġblows":7905,"ertainly":7906,"Ġ24":7907,"Ġterrifying":7908,"Ġilleg":7909,"Ġjudg":7910,"Ġdubbing":7911,"Ġintentions":7912,"Ġphenomen":7913,"hi":7914,"via":7915,"Ġfinger":7916,"Ġeerie":7917,"utch":7918,"ĠMiy":7919,"ĠCus":7920,"ela":7921,"Ġdepe":7922,"Ġargue":7923,"anging":7924,"Ġstring":7925,"Ġadapted":7926,"ĠNorman":7927,"Ġindividuals":7928,"Ġsophisticated":7929,"Ġbackdrop":7930,"Pe":7931,"ugh":7932,"Ġnuts":7933,"Ġstaff":7934,"ĠSPOILERS":7935,"Ġshout":7936,"ements":7937,"Ġabys":7938,"ĠRand":7939,"Ġwatches":7940,"Ġmyst":7941,"ĠUl":7942,"Ġcreators":7943,"Ġglob":7944,"Ġ2005":7945,"ĠNext":7946,"Ġsplit":7947,"Ġreactions":7948,"ĠSidney":7949,"iar":7950,"Ġafore":7951,"isation":7952,"Ġmes":7953,"ĠTem":7954,"ĠAz":7955,"ĠBac":7956,"eston":7957,"ĠPot":7958,"Ġclown":7959,"avor":7960,"ĠChurch":7961,"Ġreasonable":7962,"Ġelsewhere":7963,"ologist":7964,"Ġdemands":7965,"Ġreturning":7966,"Ġengaged":7967,"Ġprogress":7968,"Star":7969,"ĠAngeles":7970,"Ġcommercials":7971,"Ġlifest":7972,"Ġexplosions":7973,"Ġbreasts":7974,"Ġtoilet":7975,"Ġterritory":7976,"Ġincoherent":7977,"ELL":7978,"See":7979,"Ġpa":7980,"Ġlust":7981,"Ġfeed":7982,"abs":7983,"Ġhappily":7984,"ivan":7985,"Ġrestra":7986,"Ġbasement":7987,"unky":7988,"Ġdevast":7989,"Ġmistaken":7990,"anagh":7991,"ĠMatrix":7992,"Ġhype":7993,"Ġinvestigation":7994,"Ġoccurs":7995,"Ġcardboard":7996,"ĠHudson":7997,"Ġunpleasant":7998,"Other":7999,"isions":8000,"ora":8001,"oni":8002,"Ġhood":8003,"Ġhorses":8004,"Ġstood":8005,"ĠHurt":8006,"agg":8007,"Ġune":8008,"Ġgoal":8009,"Ġimit":8010,"eremy":8011,"Ġcrimes":8012,"Ġpresum":8013,"Ġchecking":8014,"Ġpacked":8015,"ĠRogers":8016,"Ġrevelation":8017,"Ġtremendous":8018,"rd":8019,"rink":8020,"Ġcig":8021,"Ġpin":8022,"Ġdub":8023,"leton":8024,"Ġetern":8025,"ĠMitch":8026,"ĠHug":8027,"ĠJer":8028,"Ġrealise":8029,"oiler":8030,"Ġobser":8031,"Ġprofessor":8032,"Ġbleak":8033,"Ġreplace":8034,"Ġmotivation":8035,"Ġrestaurant":8036,"Ġeccentric":8037,"Ġmaker":8038,"Ġpiano":8039,"Ġreli":8040,"ĠCur":8041,"uloid":8042,"usions":8043,"ĠRome":8044,"ĠGRE":8045,"Ġprecise":8046,"ipes":8047,"Ġkillings":8048,"Ġbrilliance":8049,"ventually":8050,"bbing":8051,"ĠLucy":8052,"Ġmedium":8053,"Ġraped":8054,"Ġwonders":8055,"Ġlibrary":8056,"ĠChicago":8057,"dog":8058,"ipe":8059,"nic":8060,"Ġwicked":8061,"Ġclues":8062,"....<":8063,"ĠHeart":8064,"Ġaccused":8065,"ograph":8066,"Ġinteraction":8067,"existent":8068,"ierce":8069,"Ġcaptain":8070,"ĠOscars":8071,"Ġdancer":8072,"Ġobserv":8073,"Ġinternet":8074,"Ġphotographer":8075,"Ġwidow":8076,"Ġhorrendous":8077,"Great":8078,"ez":8079,"yc":8080,"oms":8081,"idel":8082,"ĠCont":8083,"Ġareas":8084,"ablish":8085,"Ġhorrid":8086,"Ġexplod":8087,"ERS":8088,"Ġpleased":8089,"195":8090,"Ġrapid":8091,"ĠSeriously":8092,"Ġbeaten":8093,"Ġburst":8094,"Ġinexplic":8095,"'.<":8096,"lines":8097,"such":8098,"Ġoil":8099,"aning":8100,"Ġdent":8101,"ĠMA":8102,"ĠKirk":8103,"Ġprecious":8104,"Its":8105,"Ġdocumentaries":8106,"Ġpulling":8107,"Ġgrandfather":8108,"ĠSecret":8109,"Ġphilosoph":8110,"Ġassociated":8111,"Ge":8112,"ĠIce":8113,"Ġ/>'":8114,"ĠBart":8115,"ĠCub":8116,"Ġshower":8117,"Ġperpet":8118,"Ġdisplays":8119,"Ġcharacterization":8120,"Ġmessages":8121,"Ġcountless":8122,"194":8123,"Ġ2000":8124,"Ġdetailed":8125,"Ġmerit":8126,"ĠAlexander":8127,"ambling":8128,"ĠSandra":8129,"Ġsymbolism":8130,"Ġencounters":8131,"ĠZombie":8132,"Ġelderly":8133,"writers":8134,"Se":8135,"corn":8136,"rim":8137,"heim":8138,"Ġwann":8139,"omit":8140,"Ġgee":8141,"iere":8142,"ĠHas":8143,"ĠHind":8144,"agin":8145,"Ġranks":8146,"ĠFire":8147,"ĠGive":8148,"Ġthrills":8149,"ĠIndeed":8150,"chest":8151,"Ġ2006":8152,"orthy":8153,"ĠRussia":8154,"Ġsurrounded":8155,"Ġsegments":8156,"Ġcowboy":8157,"Ġfifteen":8158,"ĠDiane":8159,"Ġjealous":8160,"school":8161,"KE":8162,"mit":8163,"oven":8164,"tan":8165,"itchen":8166,"ĠTit":8167,"ĠSorry":8168,"Ġallowing":8169,"Ġalike":8170,"Ġmechan":8171,"Ġtimeless":8172,"obody":8173,"Ġhelicop":8174,"ĠAnim":8175,"Ġreturned":8176,"ĠConn":8177,"Ġarrive":8178,"Ġrepresents":8179,"minute":8180,"ĠPicture":8181,"Act":8182,"jointed":8183,"video":8184,"hey":8185,"Ġwake":8186,"omy":8187,"ĠMars":8188,"ĠMarsh":8189,"ĠHy":8190,"ĠHot":8191,"ophy":8192,"ĠRee":8193,"ĠFR":8194,"ĠJosh":8195,"ĠKath":8196,"ullivan":8197,"Ġguide":8198,"Ġperforming":8199,"Ġslick":8200,"veloped":8201,"Ġproviding":8202,"Ġforgive":8203,"Ġloser":8204,"Ġwalls":8205,"ĠEmily":8206,"Ġfortun":8207,"ĠLeslie":8208,"Ġresolution":8209,"ĠLeonard":8210,"ĠKubrick":8211,"Ġhysterical":8212,"Ġholiday":8213,"Ġargument":8214,"Com":8215,"Ġcried":8216,"idal":8217,"Ġabilities":8218,"ĠRow":8219,"Ġoutcome":8220,"Ġrow":8221,"Ġdismiss":8222,"Ġdirectorial":8223,"Ġreasonably":8224,"Ġliking":8225,"Ġpleasantly":8226,"Ġadvance":8227,"Ġmerc":8228,"ĠScience":8229,"Ġphotographed":8230,"Ġaccomplished":8231,"minded":8232,"Ġmansion":8233,"Ġsubsequent":8234,"Qu":8235,"onne":8236,"Ġtoy":8237,"Ġnine":8238,"ĠSU":8239,"Ġchain":8240,"Ġchamp":8241,"ĠWitch":8242,"Ġwheel":8243,"Ġ21":8244,"Ġreluct":8245,"Ġfarce":8246,"ĠBruno":8247,"Ġdetract":8248,"Ġhearts":8249,"Ġdrown":8250,"Ġmotor":8251,"Ġflawless":8252,"Ġspoiled":8253,"Ġreceive":8254,"ĠProbably":8255,"ĠIII":8256,"Ġaffection":8257,"Ġwondered":8258,"Ġlandscape":8259,"Ġsplendid":8260,"En":8261,"tte":8262,"Ġtons":8263,"Ġcared":8264,"Ġecon":8265,"ilted":8266,"ooges":8267,"ira":8268,"rior":8269,"ifically":8270,"ĠPoor":8271,"anson":8272,"Ġenters":8273,"Ġantics":8274,"Ġnearby":8275,"ĠJuliet":8276,"Ġidiots":8277,"OME":8278,"Ġinsulting":8279,"Ġescaped":8280,"ĠNazis":8281,"Ġresembles":8282,"ĠOwen":8283,"Ġvirus":8284,"ĠSC":8285,"ĠBry":8286,"Ġwebs":8287,"Ġattached":8288,"Ġgotta":8289,"ords":8290,"Ġworthless":8291,"Ġfancy":8292,"Ġdefinite":8293,"Ġcomplaint":8294,"chers":8295,"Ġimmigr":8296,"Ġtortured":8297,"Ġburned":8298,"ĠWalken":8299,"Very":8300,"cingly":8301,"ees":8302,"ih":8303,"Ġpushed":8304,"also":8305,"think":8306,"ĠGun":8307,"ortion":8308,"eping":8309,"Ġaudio":8310,"ĠThanks":8311,"Ġgenerous":8312,"Ġsadistic":8313,"Ġstronger":8314,"ĠFrankenstein":8315,"Once":8316,"Ġjumping":8317,"Ġcharismatic":8318,"ĠCinema":8319,"Night":8320,"cul":8321,"pieces":8322,"Ġmic":8323,"Ġextended":8324,"ĠEmma":8325,"ĠKa":8326,"plo":8327,"...)":8328,"Ġbelieving":8329,"ERE":8330,"196":8331,"Ġswear":8332,"Ġangel":8333,"Ġcausing":8334,"Ġmeaningless":8335,"Ġhighlights":8336,"Ġfortune":8337,"Ġpossessed":8338,"Ġunwatch":8339,"movies":8340,"Ġtall":8341,"Ġhunt":8342,"Ġpsy":8343,"Ġbeast":8344,"Ġsticks":8345,"ĠSex":8346,"ĠBaker":8347,"Ġbutton":8348,"Ġalbeit":8349,"Ġworried":8350,"venile":8351,"ĠGal":8352,"wered":8353,"Ġrive":8354,"Ġresour":8355,"Ġsmoke":8356,"Ġinvis":8357,"Ġinsist":8358,"isms":8359,"ĠFriend":8360,"ecess":8361,"Ġdemons":8362,"Ġcombat":8363,"Ġsuspects":8364,"Ġcontinued":8365,"Ġaffected":8366,"ĠCanada":8367,"Ġcrisis":8368,"Two":8369,"\";":8370,"rict":8371,"uity":8372,"Ġhitting":8373,"ĠIng":8374,"ĠTen":8375,"Ġstead":8376,"raw":8377,"type":8378,"Ġcompassion":8379,"Ġpersona":8380,"Ġpossibility":8381,"Ġdistance":8382,"Ġlisted":8383,"Ġpolitic":8384,"Ġplanning":8385,"Ġsurvival":8386,"Ġprojects":8387,"Ġdiscussion":8388,"Ġcelluloid":8389,"Ġaimed":8390,"____":8391,"Ġbathroom":8392,"ixture":8393,"ĠIreland":8394,"Ġsuperficial":8395,"Su":8396,"Tit":8397,"hew":8398,"Ġbold":8399,"itches":8400,"Ġhire":8401,"Ġpig":8402,"Ġdaring":8403,"Ġgif":8404,"seen":8405,"ĠBuddy":8406,"Ġweb":8407,"ĠCow":8408,"ĠCall":8409,"ĠCould":8410,"ĠHopper":8411,"ĠWoman":8412,"Ġfrustrated":8413,"Ġwhoever":8414,"oln":8415,"ĠPen":8416,"ĠPersonally":8417,"peror":8418,"because":8419,"Ġimperson":8420,"Ġburied":8421,"Ġcovers":8422,"Ġmenacing":8423,"Ġdrivel":8424,"onym":8425,"Ġiron":8426,"Ġsentence":8427,"Ġrespond":8428,"ĠFilms":8429,"Ġtravels":8430,"Ġdelivering":8431,"Ġachievement":8432,"Ġcalm":8433,"Ġunintentionally":8434,"Ġingred":8435,"Int":8436,"crow":8437,"dated":8438,"fact":8439,"Ġ;":8440,"Ġsaf":8441,"Ġwack":8442,"Ġfitting":8443,"Ġgut":8444,"ĠCIA":8445,"ĠHanks":8446,"Ġplague":8447,"Ġcomfortable":8448,"ĠRoll":8449,"ĠFour":8450,"ĠFurther":8451,"ĠEN":8452,"Ġload":8453,"Ġblast":8454,"!!!!!":8455,"Ġdiff":8456,"Ġcareers":8457,"ĠCarter":8458,"ĠCarrey":8459,"ĠGeor":8460,"Ġsubjects":8461,"Ġinspiring":8462,"ESS":8463,"Ġsouls":8464,"ĠStanley":8465,"Ġloosely":8466,"Ġoffended":8467,"Ġassassin":8468,"Ġobscure":8469,"Ġmagazine":8470,"bury":8471,"hour":8472,"jo":8473,"erning":8474,"Ġdiver":8475,"ĠAud":8476,"Ġvenge":8477,"ĠRing":8478,"Ġmaniac":8479,"Ġdisjointed":8480,"aval":8481,"Ġchildish":8482,"Ġconsum":8483,"ĠReed":8484,"Ġconcerning":8485,"ĠWillis":8486,"artha":8487,"Ġridiculously":8488,"Ġstrip":8489,"Ġredemption":8490,"rifice":8491,"ĠTrain":8492,"Ġdraws":8493,"Ġgolden":8494,"Ġbirthday":8495,"Ġinvolvement":8496,"AIN":8497,"Sec":8498,"iper":8499,"kish":8500,"lers":8501,"maybe":8502,"sl":8503,"Ġ**":8504,"itudes":8505,"ĠTru":8506,"ameless":8507,"ĠCivil":8508,"ĠWow":8509,"Ġrural":8510,"ĠGhost":8511,"Ġshel":8512,"asses":8513,"erek":8514,"Ġhorrors":8515,"Ġabsorb":8516,"useum":8517,"Ġtypically":8518,"Ġbuilds":8519,"urious":8520,"Ġprisoners":8521,"ĠMurray":8522,"Ġlogical":8523,"ĠGothic":8524,"James":8525,"box":8526,"love":8527,"paced":8528,"Ġwest":8529,"Ġfired":8530,"Ġdire":8531,"Ġnut":8532,"Ġbeats":8533,"ĠSister":8534,"race":8535,"ĠCatholic":8536,"aks":8537,"Ġramp":8538,"icularly":8539,"Ġcorpse":8540,"oubted":8541,"Ġpicking":8542,"Ġdevoid":8543,"Ġsuperbly":8544,"Ġblend":8545,"ĠMatthew":8546,"Black":8547,"Ġmetaphor":8548,"Ġastonishing":8549,"Richard":8550,"put":8551,"ration":8552,"Ġsen":8553,"Ġsill":8554,"Ġfed":8555,"Ġcere":8556,"Ġdict":8557,"Ġgift":8558,"istan":8559,"ĠRiver":8560,"ĠField":8561,"Ġsport":8562,"Ġflu":8563,"Ġscripted":8564,"gger":8565,"ĠThink":8566,"bsolute":8567,"ĠStreep":8568,"Ġinvestigate":8569,"opsis":8570,"Ġgradu":8571,"ĠNEVER":8572,"ĠWallace":8573,"ĠCusack":8574,"cont":8575,"iors":8576,"Ġheight":8577,"aye":8578,"ooge":8579,"ortal":8580,"force":8581,"Ġspooky":8582,"Ġdifferences":8583,"Ġglory":8584,"ĠDev":8585,"Ġmorality":8586,"incoln":8587,"Ġslightest":8588,"Ġlabor":8589,"Ġimplausible":8590,"ACK":8591,"ĠLinda":8592,"Ġingen":8593,"Ġprostitute":8594,"Ġexaggerated":8595,"ĠVampire":8596,"Ġpseudo":8597,"Ġaforementioned":8598,"Ġunwatchable":8599,"Ke":8600,"gal":8601,"Ġsam":8602,"Ġward":8603,"Ġdre":8604,"Ġduty":8605,"ications":8606,"keys":8607,"ĠPo":8608,"ĠFore":8609,"ĠFoster":8610,"ĠJake":8611,"ĠEX":8612,"ĠVideo":8613,"Ġmaint":8614,"ĠUncle":8615,"Ġassault":8616,"eyed":8617,"Ġtechnically":8618,"Ġerrors":8619,"ĠHighly":8620,"Ġdefend":8621,"ĠNevertheless":8622,"ĠLawrence":8623,"ĠCampbell":8624,"ĠBrando":8625,"Perhaps":8626,"Ġinstallment":8627,"ĠAltman":8628,"got":8629,"ses":8630,"ya":8631,"Ġnerv":8632,"aled":8633,"Ġreached":8634,"ĠMed":8635,"Ġdoz":8636,"Ġdear":8637,"ĠFonda":8638,"Ġoffering":8639,"Ġwhereas":8640,"Ġremoved":8641,"Ġgrasp":8642,"Ġtracks":8643,"ĠShep":8644,"Ġdistant":8645,"ĠUnion":8646,"ĠSeason":8647,"ATCH":8648,"balls":8649,"ĠNeed":8650,"Though":8651,"Ġimproved":8652,"Ġlabel":8653,"Ġlifetime":8654,"Ġconversations":8655,"Ġstinker":8656,"Ġproceedings":8657,"Ġticket":8658,"ĠArgento":8659,"redictable":8660,"Ġruthless":8661,"El":8662,"OST":8663,"ware":8664,"Ġwave":8665,"Ġbust":8666,"Ġpatter":8667,"aris":8668,"Ġinher":8669,"Ġstole":8670,"Ġasp":8671,"ĠSub":8672,"Ġmeasure":8673,"Ġnoise":8674,"eller":8675,"Ġprejud":8676,"izz":8677,"Ġkidding":8678,"ĠBlake":8679,"ĠReal":8680,"Ġconclud":8681,"Ġsadness":8682,"Ġpopcorn":8683,"Ġdiscovery":8684,"Ġsigns":8685,"Ġrequire":8686,"Ġdrunken":8687,"Ġbenefit":8688,"rehensible":8689,"zel":8690,"Ġsons":8691,"Ġasse":8692,"uristic":8693,"Ġnotes":8694,"ĠCour":8695,"ĠDays":8696,"ĠFOR":8697,"ĠFiction":8698,"Ġunre":8699,"hattan":8700,"Ġhumili":8701,"ĠWhatever":8702,"astern":8703,"Ġheroic":8704,"Ġgroups":8705,"Ġdevoted":8706,"Ġmarks":8707,"Ġscientific":8708,"Ġofficers":8709,"ĠAngela":8710,"ffee":8711,"ĠONE":8712,"Ġisolated":8713,"Ġstrictly":8714,"town":8715,"ĠâĢ":8716,"Ġhunting":8717,"Ġshoes":8718,"agn":8719,"ĠRoss":8720,"ĠLang":8721,"ĠNavy":8722,"Ġpretend":8723,"Ġdisli":8724,"Ġdisease":8725,"Ġdialogues":8726,"ortunately":8727,"Ġheaded":8728,"Ġtales":8729,"grade":8730,"Ġtransport":8731,"Ġpredecess":8732,"Ġillustr":8733,"Ġtrend":8734,"Ġtraveling":8735,"Ġoccurred":8736,"ĠCassave":8737,"Ġtorment":8738,"Ġdedicated":8739,"Ġoverlooked":8740,"\"-":8741,"dri":8742,"fight":8743,"Ġ..":8744,"Ġcroc":8745,"ĠIra":8746,"Ġbefriend":8747,"sex":8748,"ĠCase":8749,"ĠDown":8750,"Ġvicious":8751,"ĠGabr":8752,"ĠEle":8753,"Ġgoodness":8754,"Ġclosed":8755,"aph":8756,"Ġpoison":8757,"Ġbridge":8758,"Ġ192":8759,"ahl":8760,"ĠForce":8761,"Ġmovements":8762,"Ġunfair":8763,"Still":8764,"afia":8765,"ĠTracy":8766,"ĠMadonna":8767,"Ġcurrently":8768,"ĠSpecial":8769,"ĠTechn":8770,"Ġjuvenile":8771,"Ġlyrics":8772,"nest":8773,"Ġmixture":8774,"ancing":8775,"Ġpir":8776,"ĠImp":8777,"ilarly":8778,"ĠAW":8779,"ĠBol":8780,"ĠBoll":8781,"ĠBates":8782,"Ġshirt":8783,"umsy":8784,"ĠKat":8785,"Ġspare":8786,"obic":8787,"ĠAlmost":8788,"Ġtrio":8789,"ovich":8790,"Ġsidekick":8791,"Ġopinions":8792,"ĠGrade":8793,"Ġdisturbed":8794,"Ġinfluenced":8795,"ĠLucas":8796,"enes":8797,"Ġtool":8798,"Ġlit":8799,"ĠIron":8800,"Ġstaged":8801,"terday":8802,"emark":8803,"Ġaltogether":8804,"ĠRight":8805,"ĠFel":8806,"Ġagents":8807,"Ġconserv":8808,"Ġcollabor":8809,"Ġwinds":8810,"Ġrecognition":8811,"Ġintrigue":8812,"Ġgradually":8813,"Ġinhabit":8814,"ĠGriffith":8815,"Ġdignity":8816,"Ġelaborate":8817,"Ed":8818,"atures":8819,"Ġgimm":8820,"ĠTot":8821,"Ġreh":8822,"ĠBal":8823,"ĠBach":8824,"ĠCandy":8825,"ularly":8826,"ĠDirect":8827,"emies":8828,"ĠLincoln":8829,"Ġconvol":8830,"Ġoverdone":8831,"Ġroot":8832,"Ġblank":8833,"Ġdecisions":8834,"ocative":8835,"Ġindul":8836,"Ġadmitted":8837,"Ġcommented":8838,"Ġstaying":8839,"ĠNeil":8840,"Ġconventional":8841,"Ġprimarily":8842,"ĠDorothy":8843,"Ġunbearable":8844,"Ġmesmer":8845,"Ġwont":8846,"oning":8847,"Ġhun":8848,"Ġhunter":8849,"Ġpunk":8850,"ione":8851,"Ġdoors":8852,"ĠPretty":8853,"Ġsloppy":8854,"Ġharder":8855,"Ġgeneric":8856,"Ġsteam":8857,"ĠAmanda":8858,"Ġrecorded":8859,"Ġterrorist":8860,"Ġintrigued":8861,"Ġorders":8862,"Ġhatred":8863,"ĠSilver":8864,"urpris":8865,"ĠSwedish":8866,"Av":8867,"God":8868,"Look":8869,"des":8870,"ket":8871,"Ġpitch":8872,"Ġinject":8873,"ĠSen":8874,"ĠBook":8875,"ĠMun":8876,"olves":8877,"ĠGarb":8878,"never":8879,"Ġperformer":8880,"Ġracial":8881,"Ġrelies":8882,"ĠClaire":8883,"Ġadmir":8884,"Ġbrains":8885,"iko":8886,"Ġmotives":8887,"Ġmurderous":8888,"Ġcurse":8889,"Ġscreams":8890,"ĠDragon":8891,"Ġthreatening":8892,"Ġduo":8893,"Ġreduced":8894,"Ġrubber":8895,"Ġthroat":8896,"ĠLOVE":8897,"OS":8898,"every":8899,"mail":8900,"Ã¡":8901,"Ġack":8902,"Ġought":8903,"oric":8904,"oup":8905,"ouch":8906,"Ġinapp":8907,"stars":8908,"ima":8909,"aman":8910,"ĠCre":8911,"ĠHood":8912,"unior":8913,"eland":8914,"ĠRather":8915,"orton":8916,"Ġcliff":8917,"Ġsett":8918,"onson":8919,"Ġhardcore":8920,"ĠBeck":8921,"Ġpopulation":8922,"Ġsecrets":8923,"Ġgrandmother":8924,"Ġrecognized":8925,"related":8926,"Ġbullet":8927,"ĠSyd":8928,"ĠTodd":8929,"ĠArab":8930,"ĠPlanet":8931,"oubtedly":8932,"Hey":8933,"Too":8934,"Ġsales":8935,"itched":8936,"Ġcure":8937,"alo":8938,"Ġreaches":8939,"ghan":8940,"ĠBrend":8941,"ĠMo":8942,"Ġdoomed":8943,"ĠPred":8944,"ĠRub":8945,"ĠLake":8946,"ĠGil":8947,"resp":8948,"ĠNed":8949,"Ġrocks":8950,"Ġafterwards":8951,"Ġgenres":8952,"Ġinsert":8953,"ĠBrook":8954,"Ġcoffee":8955,"Ġartific":8956,"ĠClub":8957,"Ġtitled":8958,"Ġsadd":8959,"Ġnarrator":8960,"Ġsubtlety":8961,"Ġfrag":8962,"Ġfrustrating":8963,"Ġarrested":8964,"Ġencoura":8965,"Ġparallel":8966,"Ġnewspaper":8967,"Te":8968,"Ġtie":8969,"Ġfro":8970,"Ġfoul":8971,"Ġbog":8972,"itled":8973,"Ġho":8974,"Ġpubl":8975,"Ġstro":8976,"ĠABC":8977,"Ġnotably":8978,"Ġnotorious":8979,"ĠHust":8980,"Ġkitchen":8981,"Ġplanned":8982,"ĠLots":8983,"ĠJu":8984,"inder":8985,"ĠEri":8986,"Ġnoble":8987,"Ġaging":8988,"Ġproducing":8989,"Ġcoherent":8990,"Ġabsence":8991,"Ġmisses":8992,"Ġdarker":8993,"Ġsuspic":8994,"Ġpolitically":8995,"Ġexisted":8996,"ĠFrankie":8997,"ĠCraw":8998,"Ġsacrific":8999,"Ġsimplistic":9000,"Ġcaptivating":9001,"ĠNatal":9002,"Ġarrogant":9003,"works":9004,"Ġlifestyle":9005,"Ġacknow":9006,"vity":9007,"Ġwrap":9008,"Ġbin":9009,"itual":9010,"Ġcards":9011,"Ġpants":9012,"verty":9013,"entin":9014,"ĠMann":9015,"ĠHunt":9016,"andra":9017,"ĠRaj":9018,"ĠLen":9019,"elli":9020,"Ġpasses":9021,"Ġsatir":9022,"ika":9023,"Ġpsychotic":9024,"Ġodds":9025,"Ġsilver":9026,"Ġstrike":9027,"Ġstereotype":9028,"ĠQuinn":9029,"Ġexplaining":9030,"Ġmodels":9031,"Ġunbelievably":9032,"ĠCraig":9033,"Ġclothing":9034,"Before":9035,"Ġdigital":9036,"ĠDuke":9037,"Ġphilosophy":9038,"Ġdistracting":9039,"Ġinventive":9040,"ĠMassacre":9041,"Ġenormous":9042,"Ġillegal":9043,"HING":9044,"Ye":9045,"aith":9046,"Ġax":9047,"Ġsag":9048,"Ġcup":9049,"eder":9050,"ĠSqu":9051,"rip":9052,"ĠDill":9053,"estic":9054,"Ġtrade":9055,"Ġpoverty":9056,"Ġfuneral":9057,"Ġslim":9058,"Ġincest":9059,"Ġacclaim":9060,"Ġhanded":9061,"Ġimagined":9062,"ĠBlock":9063,"ĠSpring":9064,"shot":9065,"Ġunfolds":9066,"ĠMorris":9067,"Ġestablish":9068,"ĠGlenn":9069,"Ġsucceeded":9070,"ĠEVERY":9071,"Ġsolely":9072,"Ġcameras":9073,"Ġscratch":9074,"Ġpsychiatrist":9075,"Ġconspiracy":9076,"Ġconvoluted":9077,"makers":9078,"esis":9079,"otte":9080,"ĠTob":9081,"Ġnotion":9082,"Ġchances":9083,"ĠDerek":9084,"isten":9085,"icking":9086,"Ġclumsy":9087,"ipment":9088,"Ġapolog":9089,"Ġsmoking":9090,"aneously":9091,"Ġexposed":9092,"Ġgrab":9093,"comp":9094,"shi":9095,"????":9096,"Ġintroduces":9097,"mares":9098,"Ġcatches":9099,"ĠMonster":9100,"Ġtrademark":9101,"Ġdepicts":9102,"warming":9103,"Ġdescribes":9104,"Ġhighest":9105,"Ġexplosion":9106,"Ġfilth":9107,"Ġbuddies":9108,"')":9109,"hs":9110,"ril":9111,"Ġfrench":9112,"Ġthief":9113,"oner":9114,"Ġlake":9115,"child":9116,"ĠAcc":9117,"irts":9118,"ĠBurns":9119,"Ġcomics":9120,"Ġconve":9121,"ciating":9122,"Ġspaces":9123,"Ġrecru":9124,"ĠBranagh":9125,"Ġdepressed":9126,"Ġhopeless":9127,"Ġprovoking":9128,"ĠGodfather":9129,"Ġclimb":9130,"ĠJulian":9131,"Ġporno":9132,"Ġwitnessed":9133,"ĠSandler":9134,"Ġsynopsis":9135,"Ġscheme":9136,"\"...":9137,"Ser":9138,"great":9139,"run":9140,"uable":9141,"Ġpays":9142,"Ġdust":9143,"ĠTal":9144,"Ġstone":9145,"ĠBuck":9146,"ĠBald":9147,"ĠPoint":9148,"Ġunsett":9149,"eps":9150,"Ġfactory":9151,"Ġthoughtful":9152,"Ġmonot":9153,"ĠSpike":9154,"Ġfantas":9155,"ONG":9156,"Ġcountryside":9157,"Ġhonesty":9158,"Ġfatal":9159,"Ġsacrifice":9160,"Ġchoreography":9161,"Ġcabin":9162,"Ġblatant":9163,"Ġpoetry":9164,"Ġchaos":9165,"Ġmontage":9166,"Che":9167,"lan":9168,"Ġsarc":9169,"ĠCD":9170,"ĠDom":9171,"ĠJeremy":9172,"ĠShir":9173,"ĠRobb":9174,"ĠManhattan":9175,"Ġmisunder":9176,"Ġpsychopath":9177,"Ġbuildings":9178,"Ġoddly":9179,"Ġsecretary":9180,"Ġamounts":9181,"prov":9182,"ĠCentury":9183,"Ġimmensely":9184,"ĠCinderella":9185,"Ġdozens":9186,"High":9187,"foot":9188,"la":9189,"pin":9190,"Ġwet":9191,"Ġocean":9192,"Ġfart":9193,"athetic":9194,"Ġcats":9195,"Ġgall":9196,"adget":9197,"ĠBett":9198,"ĠDin":9199,"ĠFat":9200,"ĠNin":9201,"cience":9202,"Ġclic":9203,"Ġagreed":9204,"aware":9205,"ĠStra":9206,"ruciating":9207,"Ġconsistent":9208,"Ġinstant":9209,"Ġcarn":9210,"Ġneglect":9211,"Ġsympath":9212,"Ġestate":9213,"Donald":9214,"ĠGlover":9215,"ĠBoys":9216,"Ġthankfully":9217,"Ġinnovative":9218,"PS":9219,"UM":9220,"bow":9221,"Ġ=":9222,"Ġmal":9223,"Ġmaid":9224,"Ġbes":9225,"Ġbone":9226,"icient":9227,"Ġnause":9228,"ĠTR":9229,"ĠSummer":9230,"Ġshadows":9231,"agney":9232,"Ġvoy":9233,"ĠLow":9234,"ĠJord":9235,"Ġups":9236,"Ġimpe":9237,"Ġadoles":9238,"Ġagg":9239,"ctional":9240,"Ġclassical":9241,"Ġexplored":9242,"Ġelim":9243,"ommended":9244,"rossing":9245,"Ġequipment":9246,"Ġdamage":9247,"Ġsatisfied":9248,"Ġbullets":9249,"Ġprimary":9250,"mission":9251,"ĠGirls":9252,"Ġpuppet":9253,"Ġcasual":9254,"Ġwrestling":9255,"Dr":9256,"SPOILER":9257,"Ġtires":9258,"isand":9259,"Ġmudd":9260,"oral":9261,"ĠIan":9262,"Ġego":9263,"ĠTalk":9264,"ĠMi":9265,"ĠHung":9266,"ĠRuth":9267,"ĠEver":9268,"odge":9269,"Ġenemies":9270,"Ġovert":9271,"Ġshortly":9272,"Ġforms":9273,"Ġsnakes":9274,"Ġconstructed":9275,"Ġruins":9276,"Ġstrikes":9277,"ĠHamilton":9278,"Ġblockbuster":9279,"Ġunintentional":9280,"Ġconsistently":9281,"Ġmiserable":9282,"ulsive":9283,"Ġcannibal":9284,"Ġrobbery":9285,"ĠTurner":9286,"ĠCurtis":9287,"ĠPrincess":9288,"Please":9289,"Ġtame":9290,"Ġow":9291,"llo":9292,"verted":9293,"adine":9294,"ĠBush":9295,"ĠBUT":9296,"ĠCong":9297,"eling":9298,"olor":9299,"ĠFX":9300,"cio":9301,"forms":9302,"Ġguitar":9303,"Ġbless":9304,"Ġpray":9305,"Ġmaintain":9306,"Ġcopies":9307,"ĠMario":9308,"Ġsmaller":9309,"ĠMyers":9310,"Ġterrorists":9311,"Ġeighties":9312,"Ġdespair":9313,"Ġwrapped":9314,"Ġwannabe":9315,"Ġinvisible":9316,"Ġears":9317,"Ġstellar":9318,"ĠBourne":9319,"ĠLum":9320,"ĠFalk":9321,"ĠGrey":9322,"Ġjustify":9323,"Ġagrees":9324,"izations":9325,"Ġcheating":9326,"Ġrelent":9327,"ggy":9328,"Ġ35":9329,"fined":9330,"sycho":9331,"ribute":9332,"ĠDamme":9333,"Ġfinancial":9334,"ĠVegas":9335,"ĠFrost":9336,"La":9337,"iour":9338,"lon":9339,"Ġwine":9340,"Ġhates":9341,"ĠCox":9342,"ĠWAS":9343,"Ġscores":9344,"Ġexotic":9345,"Ġexhib":9346,"Ġuneven":9347,"Ġworkers":9348,"ensions":9349,"then":9350,"Ġinstr":9351,"Ġglor":9352,"lands":9353,"Ġdetect":9354,"Ġfailing":9355,"Ġconvincingly":9356,"Ġresponsibility":9357,"Ġfooled":9358,"Ġurge":9359,"Ġburning":9360,"Ġdefeat":9361,"Ġarchite":9362,"Ġpurchase":9363,"Ġdynamic":9364,"Ġirrele":9365,"ploitation":9366,"Dan":9367,"burn":9368,"master":9369,"Ġtail":9370,"Ġpale":9371,"ĠTrom":9372,"ĠMacy":9373,"ĠMartha":9374,"ĠHack":9375,"Ġjazz":9376,"ĠEventually":9377,"ighty":9378,"Ġloads":9379,"ĠChase":9380,"Ġawe":9381,"Ġgrotes":9382,"Ġsettle":9383,"Ġcomposed":9384,"ĠShaw":9385,"Ġmonolog":9386,"Ġhomeless":9387,"ĠUnless":9388,"okey":9389,"Ġconsiderable":9390,"Ġsimilarities":9391,"Ġillness":9392,"Ġutil":9393,"Ġkicked":9394,"Ġstyles":9395,"Ġteaching":9396,"Ġemphasis":9397,"ĠScarlett":9398,"Ġwebsite":9399,",,":9400,"Peter":9401,"fle":9402,"Ġboun":9403,"Ġinane":9404,"Ġech":9405,"Ġrebell":9406,"ĠBab":9407,"Ġshine":9408,"ĠPR":9409,"ĠLin":9410,"Ġunoriginal":9411,"Ġendings":9412,"perfect":9413,"azaki":9414,"white":9415,"Ġrooms":9416,"Ġadvise":9417,"Ġexploit":9418,"Ġcrucial":9419,"ĠNorris":9420,"ĠStevens":9421,"Ġresemblance":9422,"ĠEva":9423,"Ġalternative":9424,"Ġbottle":9425,"ĠGREAT":9426,"90":9427,"Bad":9428,"Or":9429,"gle":9430,"gling":9431,"Ġtank":9432,"Ġsouth":9433,"Ġdiamond":9434,"Ġgro":9435,"Ġgest":9436,"leading":9437,"ĠApart":9438,"ĠSyl":9439,"ĠSullivan":9440,"ĠBak":9441,"ĠBand":9442,"ĠCagney":9443,"Ġsuited":9444,"ĠRita":9445,"Ġprops":9446,"ĠEp":9447,"Ġshelf":9448,"assed":9449,"ĠViv":9450,"ĠUN":9451,"Ġresur":9452,"Ġenjoys":9453,"ossibly":9454,"Ġuseful":9455,"Ġexcruciating":9456,"ivalent":9457,"Ġsurvived":9458,"Ġregardless":9459,"Ġbeneath":9460,"ĠREAL":9461,"Ġhence":9462,"ĠWhether":9463,"ĠInternational":9464,"ĠFlorida":9465,"Ġadequate":9466,"Ġalbum":9467,"Ġnervous":9468,"Ġsab":9469,"ĠCold":9470,"ĠFall":9471,"Ġintim":9472,"about":9473,"Ġdisplayed":9474,"Ġuser":9475,"Ġblur":9476,"izable":9477,"Ġnevertheless":9478,"ĠStooges":9479,"Ġtrained":9480,"Ġinstit":9481,"oked":9482,"Ġprompt":9483,"Ġsilence":9484,"Ġrecording":9485,"ĠProfess":9486,"Ġcontrary":9487,"Ġpassionate":9488,"Ġaccompanied":9489,"William":9490,"Ġtransformation":9491,"(..":9492,"Ġdys":9493,"Ġstabb":9494,"pel":9495,"Ġplausible":9496,"ĠPy":9497,"ĠRE":9498,"ĠFant":9499,"These":9500,"ĠKer":9501,"nered":9502,"Ġamuse":9503,"Ġtends":9504,"Ġhorrifying":9505,"ĠState":9506,"Ġconscious":9507,"ographed":9508,"Ġcraw":9509,"Ġmentioning":9510,"Ġtransp":9511,"Ġsnake":9512,"Ġcinematographer":9513,"ĠKeith":9514,"Ġspecifically":9515,"ĠMuslim":9516,"Ġvulgar":9517,"Ġwig":9518,"Ġfo":9519,"Ġbears":9520,"Ġstress":9521,"Ġanx":9522,"ĠSay":9523,"ĠMason":9524,"ĠCrow":9525,"cking":9526,"ĠWard":9527,"antom":9528,"ĠPam":9529,"Ġorchest":9530,"ĠGand":9531,"aux":9532,"ĠNice":9533,"Ġpartly":9534,"Ġcharacteristic":9535,"ĠStu":9536,"Ġdownhill":9537,"Ġcreativity":9538,"annels":9539,"Ġlackl":9540,"Ġpainted":9541,"Ġmasterful":9542,"Ġpotentially":9543,"Ġblew":9544,"Ġarrived":9545,"ĠAdams":9546,"ĠElli":9547,"ĠNicole":9548,"ĠChildren":9549,"Ġoverwhelming":9550,"ifferent":9551,"ĠGarbo":9552,"Many":9553,"bidden":9554,"Ġ[":9555,"Ġtaught":9556,"Ġsits":9557,"ieve":9558,"ĠAw":9559,"amera":9560,"ĠSong":9561,"ĠSound":9562,"Ġexter":9563,"Ġouts":9564,"pled":9565,"Ġcliche":9566,"ĠHey":9567,"Ġsubplots":9568,"ĠSheriff":9569,"Ġabsent":9570,"Ġmonkey":9571,"Ġdeveloping":9572,"Ġtrees":9573,"Ġbrutally":9574,"Ġpersu":9575,"Ġsplatter":9576,"Ġdisappeared":9577,"Ġhideous":9578,"Ġcompanion":9579,"ĠFrancisco":9580,"Ġdinosaurs":9581,"bsolutely":9582,"..<":9583,"cult":9584,"wind":9585,"Ġaid":9586,"Ġlav":9587,"ĠTimes":9588,"Ġstark":9589,"amber":9590,"ĠSing":9591,"ĠMount":9592,"ĠDawn":9593,"antee":9594,"ĠRandy":9595,"ĠRoche":9596,"ĠLuck":9597,"ĠGos":9598,"Ġoverrated":9599,"izard":9600,"Ġcheated":9601,"Ġhelpless":9602,"Ġportion":9603,"umentary":9604,"Ġfocusing":9605,"Ġprogresses":9606,"ĠStreisand":9607,"Ġdrops":9608,"Ġdivorce":9609,"ĠAlfred":9610,"Ġphilosophical":9611,"free":9612,"rome":9613,"ori":9614,"Ġstaring":9615,"ceived":9616,"ĠAmy":9617,"ĠBus":9618,"ĠHist":9619,"ĠDoll":9620,"icker":9621,"ĠKr":9622,"tends":9623,"Ġdirects":9624,"Ġparties":9625,"Ġtea":9626,"Ġunderlying":9627,"Ġclasses":9628,"Ġdistingu":9629,"Ġguessed":9630,"Ġparan":9631,"ARD":9632,"Ġcampa":9633,"Ġwrites":9634,"Ġunsatisf":9635,"ropriately":9636,"worthy":9637,"Ġhench":9638,"ĠNicholson":9639,"Ġnostalgia":9640,"ĠMargaret":9641,"Ġdeliberately":9642,"onsidering":9643,"Ġcitizens":9644,"\"!":9645,"40":9646,"funny":9647,"attered":9648,"oured":9649,"Ġhouses":9650,"Ġdating":9651,"Ġease":9652,"ĠMade":9653,"ĠMeg":9654,"Ġchased":9655,"ĠWid":9656,"ĠDirty":9657,"Ġje":9658,"Ġdoct":9659,"antis":9660,"ĠGib":9661,"Ġprec":9662,"Ġadorable":9663,"Ġflies":9664,"Ġcontained":9665,"everal":9666,"ivable":9667,"Ġresort":9668,"Ġcouples":9669,"Ġstrang":9670,"ksh":9671,"owski":9672,"Ġreflection":9673,"ĠDavies":9674,"193":9675,"Ġhilariously":9676,"Ġ2004":9677,"Ġpriv":9678,"headed":9679,"club":9680,"ĠGraham":9681,"spector":9682,"Ġastron":9683,"ĠHamlet":9684,"ĠStrange":9685,"Ġtroubles":9686,"Ġadvertising":9687,"Ġglasses":9688,"Ġjournalist":9689,"Ġabysmal":9690,"Ġingredients":9691,"ĠCassavetes":9692,"AST":9693,"Can":9694,"gate":9695,"reet":9696,"Ġwished":9697,"atics":9698,"Ġthumbs":9699,"ĠTerry":9700,"Ġheat":9701,"ooby":9702,"urance":9703,"Ġshake":9704,"pered":9705,"Ġintr":9706,"ĠNiro":9707,"Ġleague":9708,"Ġupl":9709,"pera":9710,"Ġblowing":9711,"Ġdesired":9712,"Ġinterrupt":9713,"Ġtreats":9714,"Ġillogical":9715,"Ġgangsters":9716,"Ġpractice":9717,"ĠYear":9718,"ĠYears":9719,"ĠGarfield":9720,"Ġunderstated":9721,"Ġformulaic":9722,"Ġproceeds":9723,"Ġearned":9724,"ĠCarrie":9725,"Ġguests":9726,"Ġliberal":9727,"Ġhelicopter":9728,"Ġirrelevant":9729,"Go":9730,"fu":9731,"faced":9732,"Ġtad":9733,"Ġsust":9734,"Ġsouthern":9735,"rer":9736,"rell":9737,"Ġwore":9738,"eric":9739,"Ġegg":9740,"Ġstir":9741,"Ġstilted":9742,"ĠAge":9743,"ĠCuster":9744,"Ġchannels":9745,"Ġseeks":9746,"Ġendure":9747,"Ġpretending":9748,"onto":9749,"phant":9750,"eryl":9751,"ĠAtt":9752,"ugust":9753,"ĠMcK":9754,"Ġmountains":9755,"Ġtranslation":9756,"Ġeducation":9757,"Ġfundament":9758,"Ġexchange":9759,"Ġvibr":9760,"Frank":9761,"ĠMiyazaki":9762,"Ġriveting":9763,"ĠShirley":9764,"ĠTroma":9765,"99":9766,"House":9767,"Spe":9768,"bird":9769,"name":9770,"was":9771,"icism":9772,"Ġwhim":9773,"ĠSP":9774,"thriller":9775,"Ġarc":9776,"acies":9777,"Ġpoetic":9778,"ĠSheen":9779,"ĠAside":9780,"Ġnightmares":9781,"ĠJustin":9782,"Ġsuggested":9783,"Ġconditions":9784,"ylan":9785,"Ġsuitable":9786,"ĠRobinson":9787,"Ġpuppets":9788,"Ġprincipal":9789,"Ġrendition":9790,"ĠRadio":9791,"ĠUltim":9792,"Ġunsettling":9793,"zing":9794,"Ġfought":9795,"Ġfighter":9796,"ĠMTV":9797,"arts":9798,"esty":9799,"oples":9800,"ousing":9801,"andon":9802,"Ġram":9803,"Ġintimate":9804,"anges":9805,"Ġattitudes":9806,"Ġsincere":9807,"Ġschlock":9808,"ierre":9809,"ĠMystery":9810,"ricia":9811,"ĠEdgar":9812,"ĠProt":9813,"Ġrolled":9814,"Ġmatches":9815,"conscious":9816,"Ġguarantee":9817,"George":9818,"Ang":9819,"human":9820,"Ġsung":9821,"Ġwis":9822,"Ġce":9823,"Ġpad":9824,"Ġdivers":9825,"Ġya":9826,"Ġlip":9827,"ĠMiles":9828,"ĠCertainly":9829,"ĠHop":9830,"ĠHills":9831,"Ġplat":9832,"Ġalter":9833,"quel":9834,"ĠGore":9835,"Ġtrashy":9836,"arson":9837,"lik":9838,"Ġalongside":9839,"ĠMarc":9840,"Ġpatients":9841,"Ġinferior":9842,"Ġsleaze":9843,"Ġundoubtedly":9844,"ĠExcept":9845,"Ġembarrassment":9846,"strong":9847,"Being":9848,"ĠWatson":9849,"Ġfrustration":9850,"Ġborrowed":9851,"Second":9852,"ĠHuston":9853,"ĠCrawford":9854,"ĠBaldwin":9855,",<":9856,"IP":9857,"Love":9858,"Ph":9859,"pre":9860,"isons":9861,"Ġmile":9862,"Ġreck":9863,"Ġyelling":9864,"ĠBette":9865,"ffic":9866,"Ġrecyc":9867,"Ġlaughably":9868,"Ġphrase":9869,"ORE":9870,"ĠPerry":9871,"Ġavoided":9872,"Ġprisoner":9873,"Ġdrawing":9874,"Ġjoined":9875,"Ġcorruption":9876,"ĠCarradine":9877,"ĠRemember":9878,"Ġwounded":9879,"ĠKarloff":9880,"both":9881,"pion":9882,"prise":9883,"Ġlun":9884,"ĠTown":9885,"Ġforty":9886,"ĠAbb":9887,"ĠBa":9888,"ĠBible":9889,"Ġlips":9890,"ĠRating":9891,"Ġritual":9892,"ĠNorm":9893,"Ġmankind":9894,"ĠKap":9895,"arer":9896,"Ġremained":9897,"ĠBronson":9898,"venture":9899,"Ġpromises":9900,"Ġweakest":9901,"ompson":9902,"ĠNOTHING":9903,"ĠPrice":9904,"ĠWoods":9905,"ĠBrazil":9906,"Ġcontrad":9907,"ĠCorman":9908,"Ġmarketing":9909,"Ġoptim":9910,"Ġrevolutionary":9911,"Ġconceived":9912,"ĠTyler":9913,"ĠLemmon":9914,"Ġinappropriate":9915,"Ġgrotesque":9916,"Bas":9917,"Never":9918,"len":9919,"lam":9920,"Ġtopless":9921,"ĠTry":9922,"ĠAff":9923,"ĠSouthern":9924,"ĠBow":9925,"ĠBuster":9926,"ĠRead":9927,"ĠLine":9928,"ĠLOT":9929,"ĠEli":9930,"aping":9931,"Ġadul":9932,"Ġrage":9933,"Ġcompens":9934,"Ġcomparing":9935,"Ġpossibilities":9936,"uffy":9937,"ypse":9938,"ysis":9939,"ĠElvis":9940,"Ġtrailers":9941,"Ġdimensional":9942,"Ġcontempl":9943,"Ġhints":9944,"Ġmotivations":9945,"Ġensues":9946,"Ġchallenging":9947,"Ġninja":9948,"ĠCastle":9949,"ocalypse":9950,"hetti":9951,"charact":9952,"fan":9953,"hile":9954,"maker":9955,"iners":9956,"Ġmund":9957,"orse":9958,"ĠTam":9959,"idy":9960,"ĠMas":9961,"ĠHan":9962,"agues":9963,"astically":9964,"ĠUnt":9965,"Ġcoast":9966,"ĠSpain":9967,"Ġlowest":9968,"ĠScot":9969,"ĠScream":9970,"Ġbehave":9971,"ĠMarion":9972,"Ġcapturing":9973,"Ġbackgrounds":9974,"Ġcondem":9975,"THING":9976,"Ġremarkably":9977,"ĠDoug":9978,"ĠRoad":9979,"Ġbeliefs":9980,"plicity":9981,"ixties":9982,"Ġincompetent":9983,"ĠIraq":9984,"ALL":9985,"Me":9986,"da":9987,"Ġ_":9988,"Ġtact":9989,"Ġsappy":9990,"Ġdile":9991,"imagin":9992,"urai":9993,"ersh":9994,"ĠDaw":9995,"Ġplod":9996,"ĠJoy":9997,"ellig":9998,"obs":9999,"ĠVar":10000,"Ġslave":10001,"Ġtripe":10002,"Ġworlds":10003,"ĠThompson":10004,"ĠSpir":10005,"Ġtransition":10006,"Ġsenses":10007,"Ġpurposes":10008,"Ġclosest":10009,"Ġdesperation":10010,"Ġlegit":10011,"Ġlegal":10012,"Death":10013,"Ġwarmth":10014,"Ġhypnot":10015,"Ġfrequent":10016,"Ġcustom":10017,"Ġsurvivors":10018,"Ġjewel":10019,")...":10020,"Pro":10021,"born":10022,"break":10023,"dis":10024,"esc":10025,"Ġpushing":10026,"ĠAuss":10027,"ĠMiddle":10028,"ĠCa":10029,"ĠHoll":10030,"ifi":10031,"Ġexquis":10032,"Ġalas":10033,"Ġoutfit":10034,"Ġconvent":10035,"ĠNobody":10036,"ints":10037,"Ġflop":10038,"!!<":10039,"!!!<":10040,"Ġpride":10041,"Ġnewly":10042,"Ġrelation":10043,"ĠShort":10044,"Ġunderstandable":10045,"Ġwaited":10046,"Ġpops":10047,"check":10048,"engers":10049,"Ġauthority":10050,"Ġbuffs":10051,"Ġicon":10052,"ĠWaters":10053,"Arthur":10054,"ĠCommun":10055,"Ġfloating":10056,"Ġreunion":10057,"Ġnomination":10058,"Ġbonus":10059,"ĠFelix":10060,"Ġartificial":10061,"rin":10062,"will":10063,"Ġ{":10064,"inch":10065,"Ġfaster":10066,"Ġpub":10067,"arity":10068,"Ġgh":10069,"Ġren":10070,"sect":10071,"ĠSet":10072,"ĠSupp":10073,"ĠWalt":10074,"ifully":10075,"essa":10076,"ĠFortunately":10077,"Ġspoke":10078,"Ġawhile":10079,"ĠAli":10080,"Ġsimult":10081,"Ġviewings":10082,"Ġtravest":10083,"Ġbuck":10084,"Ġcareful":10085,"Ġgloss":10086,"ĠNewman":10087,"ATE":10088,"Ġsolution":10089,"Ġphoto":10090,"Ġpopularity":10091,"Ġunexpl":10092,"Ġbehaviour":10093,"ĠJews":10094,"Ġcandid":10095,"Ġvulnerable":10096,"Ġpresumably":10097,"Ġdysfun":10098,"15":10099,"creen":10100,"Ġbanned":10101,"itable":10102,"Ġthugs":10103,"iceless":10104,"ĠSN":10105,"ripp":10106,"ĠMorm":10107,"ĠLive":10108,"Ġdism":10109,"Ġflood":10110,"ensical":10111,"Ġinstinct":10112,"ixon":10113,"Ġrefuge":10114,"Ġ2007":10115,"Ġclaimed":10116,"Ġhyper":10117,"Ġfaults":10118,"Ġeaten":10119,"Ġminimum":10120,"Ġpurchased":10121,"Ġswimming":10122,"Ġnostalgic":10123,"ĠThroughout":10124,"Ġincorpor":10125,"Ġhesit":10126,"Ġassemb":10127,"Did":10128,"hist":10129,"hum":10130,"Ġaka":10131,"Ġcode":10132,"oto":10133,"ala":10134,"stage":10135,"ayed":10136,"ĠDomin":10137,"unts":10138,"ĠFinal":10139,"Ġintric":10140,"Ġconqu":10141,"ĠOp":10142,"Ġshowcase":10143,"ĠKn":10144,"awful":10145,"Ġgranted":10146,"Ġtribe":10147,"Ġpersons":10148,"annon":10149,"Ġglim":10150,"ĠLeigh":10151,"Ġequivalent":10152,"Ġappreciation":10153,"overn":10154,"Ġclimactic":10155,"Ġundert":10156,"Ġyesterday":10157,"Ġdepicting":10158,"ĠCraven":10159,"ĠJeffrey":10160,"Ġcomposer":10161,"oneliness":10162,"ĠBoris":10163,"Ġvaguely":10164,"austroph":10165,"ĠBullock":10166,"ĠPhillip":10167,"Ġdreary":10168,"Ġcampaign":10169,"big":10170,"based":10171,"mill":10172,"make":10173,"Ã¨":10174,"Ġaest":10175,"Ġwars":10176,"Ġwishing":10177,"Ġbumbling":10178,"Ġcens":10179,"Ġdirt":10180,"Ġindu":10181,"ilight":10182,"Ġmode":10183,"Ġrein":10184,"ĠBay":10185,"ĠCart":10186,"Ġath":10187,"Ġscope":10188,"Ġdod":10189,"Ġvig":10190,"ĠLy":10191,"Ġgreatness":10192,"Ġfunction":10193,"ccer":10194,"arker":10195,"ionship":10196,"Ġperforms":10197,"Ġsuperhero":10198,"Ġpassable":10199,"ĠHarvey":10200,"shine":10201,"ĠGranted":10202,"Ġengage":10203,"Ġcurs":10204,"Ġcorrectly":10205,"ĠKids":10206,"ĠImagine":10207,"Ġpitiful":10208,"iseries":10209,"Ġseventies":10210,"Ġsafety":10211,"ĠPredator":10212,"Last":10213,"bet":10214,"did":10215,"fly":10216,"front":10217,"uated":10218,"yre":10219,"Ġapt":10220,"Ġcake":10221,"ctic":10222,"Ġwhis":10223,"cha":10224,"ĠCode":10225,"Ġshod":10226,"ĠLar":10227,"Ġcancer":10228,"Ġarmed":10229,"Ġpriceless":10230,"Ġrabb":10231,"Ġmusicians":10232,"asha":10233,"Ġreads":10234,"Ġversus":10235,"ĠDeep":10236,"Ġphony":10237,"ĠChristie":10238,"ĠIsab":10239,"Ġwinter":10240,"Ġfuturistic":10241,"Ġlands":10242,"Ġcleverly":10243,"ervice":10244,"Ġhistorically":10245,"Ġbedroom":10246,"Only":10247,"Ġarrival":10248,"ĠIran":10249,"Ġfoolish":10250,"Ġsubstit":10251,"ĠValent":10252,"Ġsevere":10253,"Ġignorant":10254,"Ġexecutive":10255,"Ġelegant":10256,"ĠMarshall":10257,"Ġtiresome":10258,"His":10259,"Ġbaff":10260,"ĠSPOILER":10261,"robe":10262,"ĠWomen":10263,"acts":10264,"again":10265,"ested":10266,"Ġworn":10267,"ĠRO":10268,"ĠRings":10269,"Ġnep":10270,"Ġrul":10271,"ĠFish":10272,"inding":10273,"acks":10274,"ookie":10275,"Ġthru":10276,"Ġteaches":10277,"pecting":10278,"ĠVo":10279,"Ġminiseries":10280,"ramer":10281,"ĠSpock":10282,"ĠScr":10283,"Ġreport":10284,"Ġrefused":10285,"ĠWarren":10286,"volution":10287,"Ġintroduce":10288,"ettes":10289,"Ġjudging":10290,"haust":10291,"Ġdefense":10292,"ĠHammer":10293,"ĠFoxx":10294,"anoia":10295,"ĠPictures":10296,"Ġtunes":10297,"ĠLatin":10298,"Ġgifted":10299,"ĠJordan":10300,"Her":10301,"Sure":10302,"fast":10303,"numb":10304,"vation":10305,"Ġaunt":10306,"Ġwow":10307,"Ġfacing":10308,"Ġmouse":10309,"Ġmuseum":10310,"Ġcos":10311,"ĠAM":10312,"ĠActor":10313,"ldom":10314,"ĠDiv":10315,"ĠDee":10316,"Ġrude":10317,"ference":10318,"inds":10319,"ourney":10320,"acity":10321,"acles":10322,"urning":10323,"Ġsurg":10324,"azing":10325,"ocaust":10326,"Ġrelatives":10327,"Ġleaders":10328,"retched":10329,"ĠMcD":10330,"Ġpatience":10331,"ARN":10332,"udden":10333,"Ġincomprehensible":10334,"ĠNYC":10335,".(":10336,"Im":10337,"Since":10338,"bu":10339,"eff":10340,"gers":10341,"reens":10342,"Ġponder":10343,"ĠAugust":10344,"ĠHalf":10345,"Ġsched":10346,"aghetti":10347,"ĠEither":10348,"ĠKh":10349,"apers":10350,"ĠAss":10351,"Ġlasted":10352,"Ġsenseless":10353,"Ġsecondary":10354,"Ġdefined":10355,"Ġgenerations":10356,"Ġindic":10357,"Ġvaluable":10358,"Ġadaptations":10359,"Ġ1999":10360,"Ġtastes":10361,"Ġwildly":10362,"Ġwandering":10363,"ĠCharlotte":10364,"ĠVenice":10365,"Ġcorporate":10366,"ĠCharacters":10367,"Ġunhappy":10368,"provoking":10369,"mun":10370,"oad":10371,"occ":10372,"Ġties":10373,"Ġori":10374,"Ġbang":10375,"Ġloneliness":10376,"Ġbell":10377,"Ġrely":10378,"ĠWag":10379,"ĠDON":10380,"ĠPick":10381,"ĠGus":10382,"ĠGOOD":10383,"Ġprol":10384,"ĠExt":10385,"ĠKl":10386,"Ġawake":10387,"ĠStars":10388,"issy":10389,"Ġglorious":10390,"ĠBlade":10391,"Ġexpressed":10392,"INE":10393,"Ġsuspicious":10394,"Ġpromised":10395,"Ġdancers":10396,"ĠNightmare":10397,"ĠProject":10398,"Ġsatisfy":10399,"ĠSeries":10400,"Ġ*****":10401,"ĠRomero":10402,"Ġpressure":10403,"Ġintegrity":10404,"Brazil":10405,"Ġmundane":10406,"12":10407,"Big":10408,"HH":10409,"vial":10410,"Ġfi":10411,"Ġmax":10412,"ench":10413,"Ġlam":10414,"ĠRanger":10415,"Ġrush":10416,"ĠNov":10417,"ĠNathan":10418,"odile":10419,"Ġoveracting":10420,"Ġpartners":10421,"Ġflag":10422,"Ġraises":10423,"Ġsounding":10424,"developed":10425,"Ġacid":10426,"Ġskate":10427,"amped":10428,"ĠWells":10429,"ĠHarold":10430,"ĠMcL":10431,"Ġconstruction":10432,"Ġangst":10433,"OUS":10434,"Ġunden":10435,"Ġrocket":10436,"Ġproperty":10437,"Ġrepresented":10438,"ĠAnnie":10439,"Ġdimension":10440,"ĠSeeing":10441,"ĠErnest":10442,"Ġalcoholic":10443,"Ġrotten":10444,"ĠNolan":10445,"Ġglobal":10446,"Ġtravesty":10447,"Ali":10448,"IST":10449,"dra":10450,"har":10451,"talk":10452,"Ġwarr":10453,"Ġmate":10454,"Ġcul":10455,"lex":10456,"ĠSaw":10457,"ĠSold":10458,"ĠSnow":10459,"ĠTheater":10460,"rob":10461,"ĠCool":10462,"Ġshameless":10463,"ĠPan":10464,"ĠPay":10465,"ĠKent":10466,"ĠKaz":10467,"Ġclaustroph":10468,"Ġprev":10469,"enson":10470,"upert":10471,"ĠThus":10472,"Ġ3000":10473,"ollowing":10474,"Ġglamor":10475,"ĠBeyond":10476,"ainsaw":10477,"Ġheartbreaking":10478,"ĠConf":10479,"ushi":10480,"Ġlimits":10481,"ĠQuaid":10482,"Ġcompelled":10483,"Ġexceptionally":10484,"innie":10485,"Ġdiscovering":10486,"ĠJesse":10487,"Ġstinks":10488,"Ġnerd":10489,"Ġeducational":10490,"Watching":10491,"Ġmethods":10492,"IF":10493,"gom":10494,"po":10495,"pol":10496,"hears":10497,"Ġwax":10498,"Ġloos":10499,"ĠMY":10500,"ĠDutch":10501,"ession":10502,"Ġcommend":10503,"ĠPink":10504,"ĠRud":10505,"ĠLiz":10506,"ĠGiven":10507,"Ġmeand":10508,"Ġtroops":10509,"Ġreson":10510,"ission":10511,"lied":10512,"rilliant":10513,"Ġromp":10514,"Ġresulting":10515,"ĠPlot":10516,"Ġcomplaining":10517,"ĠNeither":10518,"Ġchecked":10519,"Ġliterature":10520,"ĠScottish":10521,"Ġreceives":10522,"Ġdisgrace":10523,"Ġpackage":10524,"ĠBarney":10525,"Ġdisappears":10526,"ĠSpacey":10527,"Ġhurts":10528,"Ġapplaud":10529,"Ġethnic":10530,"Ġdisliked":10531,"Mart":10532,"Red":10533,"UE":10534,"uz":10535,"Ã¶":10536,"iti":10537,"Ġdances":10538,"Ġreel":10539,"Ġanaly":10540,"ĠAbr":10541,"rock":10542,"rien":10543,"ĠDylan":10544,"Ġjer":10545,"Ġjaw":10546,"ĠRitter":10547,"ĠLone":10548,"Ġorphan":10549,"ĠGere":10550,"ĠJune":10551,"Ġunit":10552,"Ġenlight":10553,"Ġquit":10554,"Ġdish":10555,"Ġworker":10556,"angel":10557,"Ġtrivial":10558,"annah":10559,"Ġreleases":10560,"Ġmenace":10561,"ĠSea":10562,"Ġ2003":10563,"Ġstraightforward":10564,"Ġcombine":10565,"Ġbands":10566,"Ġcatchy":10567,"ĠParty":10568,"Ġtemper":10569,"Jul":10570,"inity":10571,"inations":10572,"Ġwides":10573,"Ġhokey":10574,"omn":10575,"Ġmoody":10576,"Ġstale":10577,"eta":10578,"ĠSab":10579,"ĠBR":10580,"ĠHomer":10581,"Ġcho":10582,"ĠWorth":10583,"ifetime":10584,"Ġplight":10585,"ĠPin":10586,"ĠPie":10587,"ĠRh":10588,"Ġunimagin":10589,"Ġentr":10590,"Ġrecover":10591,"Ġsmell":10592,"Ġletters":10593,"otta":10594,"Ġmessed":10595,"ĠSeven":10596,"Ġcloset":10597,"Ġmisery":10598,"Ġpurs":10599,"Ġcenters":10600,"Ġantagon":10601,"Ġagenda":10602,"Ġspirits":10603,"Ġ1995":10604,"Ġconflicts":10605,"Ġreaching":10606,"ĠCentral":10607,"Ġmanipulative":10608,"Ġchallenged":10609,"Ġhalluc":10610,"Ġactivities":10611,"Ġcigaret":10612,"onymous":10613,"Ġwacky":10614,"ĠProfessor":10615,"AP":10616,"SI":10617,"zer":10618,"Ġfingers":10619,"Ġdresses":10620,"Ġlately":10621,"Ġanth":10622,"ĠSave":10623,"ĠBugs":10624,"ĠDuck":10625,"Ġvon":10626,"thm":10627,"opic":10628,"Ġdeaf":10629,"ĠPur":10630,"ĠRoth":10631,"ĠLie":10632,"Ġrant":10633,"ĠEis":10634,"igo":10635,"ĠKyle":10636,"Ġtwin":10637,"Ġrealizing":10638,"iley":10639,"ĠChamp":10640,"Ġrecon":10641,"Ġriot":10642,"Ġexploration":10643,"Ġheading":10644,"Ġedit":10645,"Ġvisible":10646,"Ġhousehold":10647,"ĠPeters":10648,"Ġmistress":10649,"Ġrespected":10650,"Ġquestionable":10651,"Ġboxing":10652,"ĠQuite":10653,"Ġfascinated":10654,"ĠTimothy":10655,"ĠONLY":10656,"ructive":10657,"ĠEllen":10658,"Ġcounterpart":10659,"ĠBernard":10660,"Ġbetrayal":10661,"ĠWidmark":10662,"likable":10663,"gomery":10664,"UST":10665,"lined":10666,"uary":10667,"zilla":10668,"Ġsan":10669,"orney":10670,"Ġinherent":10671,"icable":10672,"Ġhabit":10673,"ĠHugh":10674,"ĠWel":10675,"ĠDig":10676,"Ġroof":10677,"osing":10678,"ĠKay":10679,"Ġgrass":10680,"Ġhumble":10681,"Ġsmiling":10682,"Ġinvited":10683,"Ġdifferently":10684,"Ġexperiments":10685,"Ġparanoia":10686,"mpire":10687,"Ġphotos":10688,"ĠPete":10689,"ĠConrad":10690,"Ġpremiere":10691,"uries":10692,"ĠExcellent":10693,"ĠAfghan":10694,"ylum":10695,"ĠMurder":10696,"Ġobjects":10697,"Ġwidely":10698,"Ġaccomplish":10699,"Ġexperimental":10700,"itizen":10701,"ĠWorst":10702,"Ġseverely":10703,"ĠTurkish":10704,"Ġresources":10705,"bone":10706,"ji":10707,"rr":10708,"Ġgreed":10709,"ota":10710,"ĠAk":10711,"ĠWy":10712,"ĠDec":10713,"Ġexhaust":10714,"actors":10715,"olk":10716,"Ġrum":10717,"Ġordered":10718,"ĠJol":10719,"Ġshowdown":10720,"Ġcloud":10721,"Ġpreced":10722,"Ġamid":10723,"ĠTherefore":10724,"Ġsubl":10725,"Ġbasket":10726,"dys":10727,"Ġsweat":10728,"ĠPeck":10729,"Ġlanding":10730,"Ġoccasions":10731,"Ġmodest":10732,"Ġjumped":10733,"Ġsquare":10734,"Ġkicking":10735,"ĠSTAR":10736,"vira":10737,"Ġcelebrity":10738,"ĠSkip":10739,"ĠVirginia":10740,"Avoid":10741,"ĠRochester":10742,"Wr":10743,"rum":10744,"ueless":10745,"vi":10746,"Ġfog":10747,"ĠBud":10748,"ĠMake":10749,"Ġrings":10750,"ĠEst":10751,"Ġclip":10752,"Ġquotes":10753,"Ġawfully":10754,"Ġslice":10755,"Ġchess":10756,"issa":10757,"lix":10758,"aneous":10759,"ucker":10760,"Ġnights":10761,"Ġvisits":10762,"Ġassigned":10763,"Ġdefinition":10764,"Ġexceptions":10765,"Ġvalid":10766,"Ġbargain":10767,"ĠAustin":10768,"Ġcatching":10769,"Ġcomplexity":10770,"Ġobjective":10771,"ĠInterest":10772,"Ġenthusiasm":10773,"Ġpursuit":10774,"Ġexposition":10775,"Ġtonight":10776,"ĠClassic":10777,"Ġdentist":10778,"Ġsaga":10779,"Ġastronaut":10780,"ITH":10781,"Jim":10782,"mus":10783,"hell":10784,"Ġwolf":10785,"Ġmish":10786,"enger":10787,"icidal":10788,"Ġeats":10789,"ĠTan":10790,"ĠAaron":10791,"ĠMajor":10792,"ĠCher":10793,"aines":10794,"Ġabused":10795,"Ġabusive":10796,"ĠNBC":10797,"Ġunst":10798,"ĠEye":10799,"Ġclock":10800,"Ġpeak":10801,"Ġsimplicity":10802,"ĠJoel":10803,"ĠSha":10804,"ugene":10805,"guy":10806,"goers":10807,"Ġsecretly":10808,"Ġsensational":10809,"Ġtasteless":10810,"Ġmentions":10811,"Ġrobots":10812,"ĠDrake":10813,"ĠBerlin":10814,"AME":10815,"ĠBarrymore":10816,"ĠHartley":10817,"Ġexcessive":10818,"Ġsurfing":10819,"ĠBeautiful":10820,"Ġchooses":10821,"ĠTitanic":10822,"ĠFurthermore":10823,"Ġvengeance":10824,"ĠGabriel":10825,"Ġmuddled":10826,"Ġdoctors":10827,"Ġuplifting":10828,"ĠAussie":10829,"Ġsimultaneously":10830,"?'":10831,"AB":10832,"AW":10833,"Hollywood":10834,"Que":10835,"bi":10836,"rows":10837,"Ġfist":10838,"Ġbite":10839,"lli":10840,"Ġdud":10841,"Ġlic":10842,"Ġgam":10843,"Ġstream":10844,"ĠSeveral":10845,"riors":10846,"ĠMah":10847,"ravel":10848,"ĠCore":10849,"ĠHonestly":10850,"ĠHeston":10851,"emesis":10852,"Ġintentionally":10853,"ĠGone":10854,"ĠEyes":10855,"geon":10856,"ĠKin":10857,"erto":10858,"urned":10859,"Ġdesires":10860,"Ġcrush":10861,"Ġobst":10862,"ĠClay":10863,"ĠClaude":10864,"show":10865,"Ġmysteries":10866,"END":10867,"ĠColonel":10868,"Ġtracking":10869,"ĠBetter":10870,"ĠSarandon":10871,"Ġderanged":10872,"ĠMontgomery":10873,"Ġcompanies":10874,"Ġcomplaints":10875,"Ġalleged":10876,"heimer":10877,"Ġconservative":10878,"ĠBrooklyn":10879,"-)":10880,"Mur":10881,"drama":10882,"felt":10883,"hoe":10884,"mons":10885,"wan":10886,"Ġtent":10887,"Ġcripp":10888,"another":10889,"Ġinability":10890,"brow":10891,"ĠBIG":10892,"ĠME":10893,"ulations":10894,"ĠWATCH":10895,"emic":10896,"Ġrates":10897,"ĠFarre":10898,"indul":10899,"Ġfee":10900,"ourke":10901,"Ġrealm":10902,"wear":10903,"Ġrail":10904,"Ġsimilarly":10905,"Ġcomprom":10906,"Ġvisiting":10907,"Ġdemise":10908,"ĠColin":10909,"ĠMarty":10910,"ĠExp":10911,"ĠEnjoy":10912,"Ġpunishment":10913,"Ġprepare":10914,"ĠDickens":10915,"ĠMaggie":10916,"Ġdebate":10917,"Ġcivilization":10918,"Ġobliv":10919,"Ġharmless":10920,"ĠSEE":10921,"Ġneighbors":10922,"ĠBridges":10923,"ĠBettie":10924,"ĠWagner":10925,"Ġsublime":10926,"Rating":10927,"col":10928,"matic":10929,"power":10930,"uation":10931,"Ġtang":10932,"Ġbump":10933,"Ġdazz":10934,"Ġonline":10935,"Ġwashed":10936,"ĠSell":10937,"road":10938,"ĠCris":10939,"Ġshif":10940,"ĠFisher":10941,"Ġunaware":10942,"Ġshowc":10943,"Ġpeoples":10944,"Ġguards":10945,"Ġawa":10946,"anski":10947,"ĠStock":10948,"Ġ23":10949,"Ġmayhem":10950,"Ġinsanity":10951,"Ġmusician":10952,"Ġboom":10953,"alsh":10954,"umbo":10955,"arents":10956,"Ġdepression":10957,"Ġexcl":10958,"ĠScooby":10959,"ĠClaud":10960,"Ġbehold":10961,"Ġretired":10962,"Ġnamely":10963,"ĠCarmen":10964,"Ġmisleading":10965,"ributes":10966,"Ġpsychic":10967,"Ġnarrow":10968,"Ġcompliment":10969,"uppets":10970,"ĠSimp":10971,"ĠPatricia":10972,"Ġmasses":10973,"Ġaccurately":10974,"Ġaccuracy":10975,"Ġroller":10976,"Ġjoins":10977,"Ġwitnesses":10978,"Ġbiography":10979,"Ġnonsensical":10980,"ĠMagn":10981,"Ġchicken":10982,"ĠJudy":10983,"Ġflee":10984,"Ġsneak":10985,"Ġuniversal":10986,"ĠMachine":10987,"Ġprecisely":10988,"Title":10989,"ĠMiike":10990,"Ġwisdom":10991,"Ġnephew":10992,"ĠVoight":10993,"Em":10994,"Sim":10995,"dies":10996,"hot":10997,"ni":10998,"rings":10999,"xic":11000,"Ġcities":11001,"Ġgym":11002,"Ġ/>***":11003,"Ġrender":11004,"ĠHuman":11005,"Ġships":11006,"ulating":11007,"ĠWong":11008,"Ġsoccer":11009,"olate":11010,"ĠGame":11011,"ĠOs":11012,"Ġshed":11013,"irsty":11014,"Ġcrook":11015,"ĠThunder":11016,"Ġcream":11017,"spir":11018,"ĠZone":11019,"ĠLeo":11020,"Ġfemales":11021,"Ġprotest":11022,"OULD":11023,"Ġstunned":11024,"pendence":11025,"Ġimmediate":11026,"Ġsquad":11027,"Ġfashioned":11028,"Ġrandomly":11029,"ĠBelushi":11030,"Ġlengthy":11031,"ĠApril":11032,"ĠAntonio":11033,"Ġambiguous":11034,"ĠDalton":11035,"Ġfantasies":11036,"Ben":11037,"ca":11038,"Ġtv":11039,"inist":11040,"Ġwretched":11041,"ĠSoph":11042,"ersed":11043,"actor":11044,"ĠFive":11045,"ĠGre":11046,"ĠGang":11047,"osis":11048,"ĠNaturally":11049,"ĠOR":11050,"Ġ---":11051,"Ġdirections":11052,"Ġflair":11053,"bergh":11054,"ĠShah":11055,"Ġaddiction":11056,"Ġedition":11057,"notch":11058,"ĠHero":11059,"Ġdoubts":11060,"Ġadvanced":11061,"Ġbusinessman":11062,"Ġresemble":11063,"Ġdesigns":11064,"Ġconcepts":11065,"Ġremarks":11066,"ĠJudge":11067,"Ġconfrontation":11068,"Ġbanal":11069,"ĠDiana":11070,"Ġimprovement":11071,"Ġencourage":11072,"ĠPhillips":11073,"ĠReturn":11074,"Ġsupreme":11075,"Ġshouting":11076,"Super":11077,"urprisingly":11078,"ĠBlockbuster":11079,"Best":11080,"Sam":11081,"Yet":11082,"uate":11083,"racy":11084,"ĠHat":11085,"Ġchicks":11086,"ĠDall":11087,"istol":11088,"ando":11089,"ĠOrigin":11090,"Ġnoises":11091,"cip":11092,"apable":11093,"Ġimitation":11094,"Ġrecre":11095,"ĠUr":11096,"Ġinterests":11097,"Ġsmugg":11098,"Ġinvented":11099,"ĠShame":11100,"ĠThird":11101,"ĠBean":11102,"Ġexpand":11103,"Ġpassengers":11104,"Ġcomedians":11105,"claim":11106,"Ġrepeating":11107,"Ġcircle":11108,"Ġregarded":11109,"Ġchoreographed":11110,"Ġreferred":11111,"Ġpoliceman":11112,"Ġhippie":11113,"orcist":11114,"ĠStudios":11115,"Ġanalysis":11116,"Ġgimmick":11117,"Ġlackluster":11118,"ĠHistory":11119,"ĠSimpson":11120,"Gu":11121,"bable":11122,"Ġdarn":11123,"Ġlord":11124,"Ġstatic":11125,"amount":11126,"Ġsear":11127,"ĠMu":11128,"illian":11129,"ĠComb":11130,"ĠWalsh":11131,"Ġscreens":11132,"Ġdele":11133,"ĠLoy":11134,"ĠGle":11135,"Ġunle":11136,"Ġrealised":11137,"ĠHead":11138,"Ġowners":11139,"Ġappropriately":11140,"ĠShar":11141,"Ġassign":11142,"psons":11143,"offs":11144,"Ġsurviving":11145,"blood":11146,"Ġmachines":11147,"Ġseduct":11148,"Ġevolution":11149,"Ġunpredictable":11150,"ĠCrystal":11151,"Ġstumbled":11152,"ĠHughes":11153,"!'":11154,"!,":11155,"IV":11156,"oqu":11157,"yo":11158,"Ġmast":11159,"Ġgolf":11160,"Ġforcing":11161,"ĠAh":11162,"ĠSF":11163,"ĠMeryl":11164,"rain":11165,"Ġchat":11166,"Ġsus":11167,"agement":11168,"ĠLas":11169,"ption":11170,"abled":11171,"ĠVin":11172,"raph":11173,"Ġgrate":11174,"Ġdecor":11175,"ften":11176,"Ġcompleted":11177,"xton":11178,"Ġrecommendation":11179,"phone":11180,"Ġdramat":11181,"Ġedgy":11182,"Ġexped":11183,"Ġlively":11184,"Ġdemean":11185,"Ġtowns":11186,"iker":11187,"mmm":11188,"Ġ2002":11189,"ĠPearl":11190,"IDS":11191,"Ġsubstant":11192,"Ġsymbolic":11193,"Ġbiased":11194,"special":11195,"Ġalternate":11196,"Ġlandscapes":11197,"Ġlifted":11198,"ĠUsually":11199,"ĠWonderful":11200,"Ġinteractions":11201,"Ġsilliness":11202,"ĠâĢĵ":11203,"ĠRobbins":11204,"ĠDawson":11205,")!":11206,"filled":11207,"mber":11208,"Ġ+":11209,"rehe":11210,"Ġfurn":11211,"Ġcaut":11212,"Ġpages":11213,"icy":11214,"Ġnomin":11215,"ĠBenn":11216,"ĠMind":11217,"ĠHOR":11218,"through":11219,"Ġdegr":11220,"astard":11221,"orthern":11222,"Ġloaded":11223,"Ġarist":11224,"ĠStall":11225,"Ġunderwater":11226,"olden":11227,"Ġrestored":11228,".......":11229,"Ġnightclub":11230,"Ġskull":11231,"Ġcounts":11232,"ĠHerz":11233,"Ġsubjected":11234,"Ġsigned":11235,"Ġvein":11236,"ĠAngels":11237,"Ġgems":11238,"particularly":11239,"Ġteachers":11240,"probably":11241,"Ġquietly":11242,"Ġtacky":11243,"Ġdistribution":11244,"Ġcoincidence":11245,"Ġinjured":11246,"ĠRepublic":11247,"Ġchapter":11248,"Ġmotorcy":11249,"ĠCourt":11250,"Fl":11251,"HA":11252,"Movie":11253,"bust":11254,"wyn":11255,"Ġmap":11256,"anim":11257,"uters":11258,"Ġshares":11259,"Ġatroc":11260,"ĠDoc":11261,"oler":11262,"ĠPut":11263,"uming":11264,"osition":11265,"Ġunravel":11266,"Ġclueless":11267,"assy":11268,"Ġamused":11269,"Ġspring":11270,"ĠVera":11271,"ĠValley":11272,"ĠInter":11273,"ĠJoey":11274,"neyed":11275,"Ġcreator":11276,"identally":11277,"ĠClose":11278,"Ġgenerated":11279,"Ġgrainy":11280,"Ġportrayals":11281,"ĠDonna":11282,"Ġzoom":11283,"Ġparad":11284,"Ġstranded":11285,"volta":11286,"Ġprize":11287,"Ġcontrolled":11288,"Ġ1972":11289,"Ġpositively":11290,"Ġmerits":11291,"ifties":11292,"Ġprimitive":11293,"Ġsummar":11294,"ĠHarrison":11295,"Ġassumed":11296,"Ġyellow":11297,"Ġadopted":11298,"ĠAstaire":11299,"ĠfiancÃ©":11300,"ĠStuart":11301,"ĠKapoor":11302,"Ġdysfunctional":11303,"eem":11304,"ko":11305,"vance":11306,"voc":11307,"Ġape":11308,"held":11309,"addy":11310,"Ġstim":11311,"ĠSel":11312,"ĠTheat":11313,"Ġlibert":11314,"ĠMild":11315,"ĠMolly":11316,"ĠHU":11317,"ĠWAY":11318,"ĠRourke":11319,"ĠFell":11320,"umar":11321,"auer":11322,"oder":11323,"aved":11324,"isha":11325,"ipid":11326,"Ġentitled":11327,"ĠInspector":11328,"Ġslaughter":11329,"ĠUnd":11330,"Ġchees":11331,"ĠDVDs":11332,"Ġpolished":11333,"attering":11334,"Ġcredited":11335,"onyo":11336,"bye":11337,"Ġmoronic":11338,"Ġmurdering":11339,"Ġposted":11340,"ĠTrans":11341,"Ġfascination":11342,"Ġbrutality":11343,"ĠRaymond":11344,"Ġaffairs":11345,"ĠFear":11346,"Ġsignificance":11347,"ĠKenneth":11348,"omeday":11349,"ĠBeatty":11350,"Ġignorance":11351,"ĠEgyptian":11352,"Dark":11353,"TW":11354,"beth":11355,"motion":11356,"erness":11357,"Ġcher":11358,"encer":11359,"ĠIF":11360,"Ġgor":11361,"Ġster":11362,"ĠAD":11363,"ĠHank":11364,"Ġactive":11365,"ĠLor":11366,"Ġouting":11367,"Ġnod":11368,"ĠVis":11369,"ĠVon":11370,"ĠVol":11371,"Ġminus":11372,"ĠUwe":11373,"Ġchew":11374,"Ġaddress":11375,"Ġconfidence":11376,"ĠChristians":11377,"Ġstrongest":11378,"Ġtransformed":11379,"Ġsteel":11380,"Ġfiller":11381,"ipper":11382,"Ġdrinks":11383,"Ġlifeless":11384,"ĠRooney":11385,"Ġrepresentation":11386,"Ġfifty":11387,"Ġrendered":11388,"Ġempathy":11389,"Ġdemonstrates":11390,"modern":11391,"ĠRecommended":11392,"Ġarguably":11393,"Ġobligatory":11394,"iblical":11395,"Ġdestroying":11396,"Ġjudgment":11397,"ĠCuba":11398,"ĠHindi":11399,"Ġpredecessor":11400,"ĠNatalie":11401,"Ġfundamental":11402,"bast":11403,"eur":11404,"fet":11405,"lins":11406,"zes":11407,"Ġ~":11408,"Ġtunn":11409,"inter":11410,"Ġtherap":11411,"leans":11412,"Ġnarc":11413,"ĠSop":11414,"ĠShat":11415,"ĠBed":11416,"Ġbutcher":11417,"ĠCy":11418,"ĠCrit":11419,"ĠHick":11420,"iffer":11421,"ĠDID":11422,"emet":11423,"ĠRex":11424,"umin":11425,"ĠNative":11426,"ĠOpera":11427,"oyle":11428,"Ġroots":11429,"osterous":11430,"iana":11431,"ĠStiller":11432,"Ġ22":11433,"Ġstartling":11434,"Ġconfir":11435,"Ġhearted":11436,"ĠSept":11437,"Ġcorpses":11438,"Ġ99":11439,"oiled":11440,"Ġprominent":11441,"!\"<":11442,"Ġliterary":11443,"Ġlosers":11444,"Ġoperation":11445,"Ġhomes":11446,"Ġcircus":11447,"ĠOthers":11448,"Ġexplores":11449,"Ġinvestigating":11450,"oopers":11451,"Ġauthorities":11452,"Ġindustrial":11453,"Ġderiv":11454,"ĠSalman":11455,"Ġinconsistent":11456,"CR":11457,"gian":11458,"lay":11459,"main":11460,"wright":11461,"your":11462,"atman":11463,"Ġec":11464,"ali":11465,"ĠHarr":11466,"Ġshared":11467,"ĠDance":11468,"ĠDia":11469,"Ġwholly":11470,"thought":11471,"andal":11472,"Ġrising":11473,"ĠFal":11474,"ĠFunny":11475,"Ġunlikable":11476,"plex":11477,"neath":11478,"Ġprey":11479,"Ġcontaining":11480,"Ġcrashes":11481,"ubby":11482,"Ġconscience":11483,"ĠClo":11484,"Ġswallow":11485,"Ġsupported":11486,"renching":11487,"ĠIMDB":11488,"Ġunlikeable":11489,"Ġambition":11490,"Ġopportunities":11491,"warf":11492,"regard":11493,"Ġdrove":11494,"Ġspecies":11495,"ĠDuv":11496,"Ġprincess":11497,"ĠWHY":11498,"Ġgreedy":11499,"Ġchuckle":11500,"ĠLoren":11501,"ĠOlivier":11502,"ĠNeedless":11503,"ĠLuckily":11504,"Ġshoddy":11505,"Ġwidescreen":11506,"ĠHerzog":11507,"EE":11508,"MAN":11509,"length":11510,"vals":11511,"yll":11512,"Ġsixties":11513,"Ġfox":11514,"Ġmute":11515,"Ġdreck":11516,"Ġliners":11517,"Ġhears":11518,"ĠMuppet":11519,"Ġchoppy":11520,"arty":11521,"asted":11522,"ĠGard":11523,"ĠNap":11524,"Ġpron":11525,"ĠAlm":11526,"Ġkeen":11527,"Ġtriangle":11528,"Ġinsipid":11529,"Ġartic":11530,"Ġdelicate":11531,"Ġmemor":11532,"ĠForget":11533,"Ġgrabs":11534,"comings":11535,"Ġwaves":11536,"Ġmasterpieces":11537,"Ġdemented":11538,"Ġprovocative":11539,"ĠGerald":11540,"Ġprofanity":11541,"EASE":11542,"ĠSimmons":11543,"Ġthreatens":11544,"Ġchallenges":11545,"Ġhackneyed":11546,"Ġpuzzle":11547,"Ġloyalty":11548,"Ġventure":11549,"Ġinaccurate":11550,"ĠFriends":11551,"16":11552,"dead":11553,"hind":11554,"person":11555,"Ġsor":11556,"isy":11557,"enberg":11558,"orus":11559,"Ġdow":11560,"Ġdrill":11561,"Ġeg":11562,"ieves":11563,"ĠSara":11564,"Ġseldom":11565,"ĠMos":11566,"ĠDEAD":11567,"Ġsums":11568,"Ġabdu":11569,"Ġvain":11570,"Ġvice":11571,"Ġvocal":11572,"Ġoutfits":11573,"ĠGovern":11574,"ĠJenny":11575,"geant":11576,"ĠChief":11577,"izer":11578,"iped":11579,"Ġsometime":11580,"Ġgrief":11581,"Ġowned":11582,"Ġexceed":11583,"covered":11584,"Ġdelic":11585,"Ġlocals":11586,"ĠMarch":11587,"Ġhopelessly":11588,"ventures":11589,"ĠLegend":11590,"ĠSomehow":11591,"Ġdevices":11592,"Ġteams":11593,"Ġrespective":11594,"Ġbarrel":11595,"Ġsensual":11596,"ĠSimpsons":11597,"blown":11598,"Nothing":11599,"ĠCorb":11600,"Ġdescribing":11601,"Ġinsightful":11602,"ĠNicol":11603,"Ġrejected":11604,"ĠHopefully":11605,"Ġdomestic":11606,"Ġincorrect":11607,"ĠTemple":11608,"Ġdevastating":11609,"ĠReeves":11610,"ĠErika":11611,"Ġadolescent":11612,"//":11613,"Ab":11614,"New":11615,"VEN":11616,"cil":11617,"met":11618,"rating":11619,"Ġ.<":11620,"really":11621,"isk":11622,"ndrome":11623,"Ġmummy":11624,"Ġlush":11625,"ĠIll":11626,"brid":11627,"icolor":11628,"cel":11629,"Ġsending":11630,"rah":11631,"ĠCary":11632,"ĠCze":11633,"Ġshorter":11634,"Ġdope":11635,"antha":11636,"ĠPu":11637,"ĠGiant":11638,"Ġprospect":11639,"Ġunsu":11640,"abh":11641,"ĠKitty":11642,"Ġtwins":11643,"Ġbrood":11644,"Ġshoulder":11645,"everly":11646,"Ġcope":11647,"Ġlocated":11648,"ĠLeague":11649,"Ġmorbid":11650,"Ġinfant":11651,"ĠPerfect":11652,"Ġdifficulties":11653,"Ġinspire":11654,"ĠRichardson":11655,"loria":11656,"Ġroute":11657,"Ġscarecrow":11658,"Ġenthr":11659,"Ġassassination":11660,"Everything":11661,"Ġscrewed":11662,"Ġexposure":11663,"ĠBogart":11664,"ĠNicholas":11665,"ĠOffice":11666,"Ġguarante":11667,"Ġfulfill":11668,"Ġpreachy":11669,"Ġhungry":11670,"People":11671,"Ġrecycled":11672,"Ġsurgery":11673,"Hor":11674,"Ind":11675,"mn":11676,"ping":11677,"yet":11678,"Ġfren":11679,"ati":11680,"Ġdun":11681,"edge":11682,"Ġlens":11683,"vell":11684,"roe":11685,"ĠBox":11686,"ĠBeth":11687,"ĠCook":11688,"elic":11689,"ĠLup":11690,"ĠGh":11691,"ĠOuter":11692,"Ġpoem":11693,"neck":11694,"perhaps":11695,"Ġremove":11696,"Ġshoulders":11697,"ocaly":11698,"ĠBrady":11699,"itsch":11700,"ĠShould":11701,"Ġconfident":11702,"ounty":11703,"Ġmargin":11704,"Ġtops":11705,"Ġheartwarming":11706,"Ġrefuse":11707,"ĠWillie":11708,"Ġmorals":11709,"Ġvictory":11710,"heads":11711,"Ġmarked":11712,"Ġmilk":11713,"Thank":11714,"Ġcommunicate":11715,"Ġballs":11716,"Ġinternal":11717,"Ġfrightened":11718,"Ġknocked":11719,"Ġpreferred":11720,"Ġpreviews":11721,"Ġfirmly":11722,"Ġdeceased":11723,"ĠAccording":11724,"ĠUntil":11725,"AG":11726,"Dead":11727,"bles":11728,"daughter":11729,"directed":11730,"lest":11731,"Ġwakes":11732,"Ġbones":11733,"Ġhoot":11734,"otal":11735,"chi":11736,"Ġans":11737,"ĠBost":11738,"ĠCAN":11739,"ĠCopp":11740,"ĠCOM":11741,"ustin":11742,"oodoo":11743,"Ġcharged":11744,"ĠEarl":11745,"ĠOt":11746,"ounded":11747,"odder":11748,"ĠKnow":11749,"apse":11750,"Ġtwelve":11751,"ighters":11752,"Ġcheek":11753,"Ġsupply":11754,"ashi":11755,"Ġexploring":11756,"Ġwarrior":11757,"aham":11758,"Ġminded":11759,"Ġsingers":11760,"hetically":11761,"guided":11762,"Ġconsiderably":11763,"ĠDanes":11764,"ĠConne":11765,"Ġposters":11766,"Ġ1997":11767,"bbie":11768,"ĠNights":11769,"ĠDarkness":11770,"Ġdeserted":11771,"Ġservant":11772,"Ġmatched":11773,"Ġreflects":11774,"two":11775,"ĠCarey":11776,"ĠMitchum":11777,"kshay":11778,"Ġsuspend":11779,"Back":11780,"days":11781,"direct":11782,"fashion":11783,"pan":11784,"Ġwing":11785,"Ġwoe":11786,"Ġbarb":11787,"Ġhitch":11788,"llie":11789,"Ġtoys":11790,"Ġpill":11791,"arse":11792,"ilation":11793,"eting":11794,"ghter":11795,"amiliar":11796,"uration":11797,"ĠHogan":11798,"ĠWoo":11799,"ĠDow":11800,"Ġabund":11801,"usp":11802,"Ġintro":11803,"ciously":11804,"Ġpecul":11805,"Ġoverlong":11806,"Ġserving":11807,"Ġbrat":11808,"Ġinvites":11809,"eches":11810,"Ġshortcomings":11811,"ĠBeast":11812,"Ġstudying":11813,"ologically":11814,"usey":11815,"Ġpresenting":11816,"ĠSamuel":11817,"Ġbleed":11818,"Ġ1968":11819,"ĠCrazy":11820,"Ġpreposterous":11821,"Ġdimin":11822,"Ġunexpectedly":11823,"Ġgender":11824,"Ġoption":11825,"Ġpetty":11826,"Ġimaginable":11827,"elvet":11828,"ĠCruise":11829,"ĠKurtz":11830,"ĠMUST":11831,"Ġrhythm":11832,"Ġcontradict":11833,"Ġderivative":11834,"EAR":11835,"Jean":11836,"Joe":11837,"More":11838,"Pr":11839,"bar":11840,"creat":11841,"eor":11842,"flu":11843,"runs":11844,"say":11845,"Ġ....":11846,"Ġbreed":11847,"atoes":11848,"Ġpie":11849,"chor":11850,"ĠSix":11851,"ĠCut":11852,"ĠCarly":11853,"ĠCON":11854,"Ġplag":11855,"agle":11856,"ĠPrest":11857,"ĠLifetime":11858,"Ġrational":11859,"ĠJos":11860,"pton":11861,"arest":11862,"ĠStorm":11863,"Ġviewpoint":11864,"Ġcomputers":11865,"Ġreader":11866,"ova":11867,"atively":11868,"inski":11869,"playing":11870,"Ġcontinually":11871,"Ġfilling":11872,"working":11873,"Str":11874,"ĠMonty":11875,"Ġhistoric":11876,"Ġconviction":11877,"Ġcruelty":11878,"Ġbirds":11879,"Ġdemanding":11880,"Ġcaricature":11881,"ĠBrosnan":11882,"ĠHyde":11883,"Ġwardrobe":11884,"Ġathlet":11885,"dyssey":11886,"OY":11887,"Rock":11888,"bot":11889,"buck":11890,"ef":11891,"ho":11892,"Ġwander":11893,"Ġmates":11894,"atured":11895,"orters":11896,"Ġpump":11897,"arious":11898,"Ġniece":11899,"ĠAF":11900,"ĠAunt":11901,"Ġselection":11902,"urst":11903,"Ġweather":11904,"Ġshred":11905,"Ġchronic":11906,"ainted":11907,"Ġsoci":11908,"Ġvign":11909,"ĠPig":11910,"ĠRent":11911,"ĠLance":11912,"ĠLily":11913,"Ġshell":11914,"icken":11915,"Ġspan":11916,"Ġflam":11917,"Ġflashes":11918,"Ġslip":11919,"Ġowns":11920,"Ġlasting":11921,"Ġunderstands":11922,"ĠBlond":11923,"ĠScreen":11924,"Ġheartfelt":11925,"Ġblackmail":11926,"Ġheroin":11927,"Ġdrift":11928,"guin":11929,"Ġdealer":11930,"Ġsolo":11931,"*****":11932,"ĠRichards":11933,"Ġ1983":11934,"Ġembark":11935,"Ġdesigner":11936,"Ġwilderness":11937,"Ġadditional":11938,"Ġsurroundings":11939,"ĠWWE":11940,"Ġhypoc":11941,"Ġresolved":11942,"ĠMontana":11943,"Ġemerges":11944,"ĠPortug":11945,"ĠDunne":11946,"ĠAmazon":11947,"Ġweaknesses":11948,"Ġinexplicably":11949,"Ġacclaimed":11950,"Ġspaceship":11951,"ĠScotland":11952,"Ġunexplained":11953,"Dis":11954,"RY":11955,"evil":11956,"haw":11957,"pres":11958,"west":11959,"yard":11960,"Ġx":11961,"Ġbars":11962,"atable":11963,"once":11964,"Ġgarden":11965,"ĠTW":11966,"Ġstare":11967,"ĠSide":11968,"ĠMol":11969,"ĠCushing":11970,"ĠHo":11971,"ĠFIL":11972,"ĠEastern":11973,"Ġleather":11974,"ĠKN":11975,"ĠKle":11976,"Ġdisast":11977,"cca":11978,"getic":11979,"ĠAliens":11980,"Ġinsists":11981,"ĠWhit":11982,"ERT":11983,"Ġgloom":11984,"ĠClar":11985,"ĠMarx":11986,"ĠZero":11987,"comed":11988,"Ġcolon":11989,"Ġsooner":11990,"ĠEverybody":11991,"writing":11992,"Which":11993,"Ġidentical":11994,"ĠFlash":11995,"ĠGoldberg":11996,"Ġvirtual":11997,"ĠIrene":11998,"Ġdestroys":11999,"ĠWORST":12000,"ĠGibson":12001,"fetched":12002,"emetery":12003,"ĠCzech":12004,"Sorry":12005,"War":12006,"normal":12007,"Ġsque":12008,"rec":12009,"Ġbread":12010,"itabh":12011,"Ġpushes":12012,"ĠAction":12013,"urg":12014,"ĠMam":12015,"ĠCel":12016,"ĠCab":12017,"ĠConsidering":12018,"ĠHilton":12019,"Ġshaky":12020,"Ġchills":12021,"Ġvital":12022,"ĠRid":12023,"Ġrises":12024,"ĠFool":12025,"respect":12026,"Ġunseen":12027,"ĠEmpire":12028,"Ġwhats":12029,"Ġrope":12030,"ĠVince":12031,"ĠHend":12032,"Ġentered":12033,"Ġrefers":12034,"ypsy":12035,"ATH":12036,"Ġpsychology":12037,"load":12038,"Ġhostage":12039,"ĠDenzel":12040,"ĠKidman":12041,"Ġpaintings":12042,"====":12043,"ĠNetwork":12044,"Ġrapidly":12045,"Queen":12046,"ĠClooney":12047,"ocalyptic":12048,"://":12049,"Pol":12050,"gren":12051,"pes":12052,"itated":12053,"aro":12054,"ico":12055,"Ġ/>--":12056,"ĠTak":12057,"ĠTele":12058,"Ġrevers":12059,"Ġrebel":12060,"adly":12061,"Ġstages":12062,"ido":12063,"Ġasylum":12064,"ĠAbsolutely":12065,"ĠBased":12066,"ĠMust":12067,"ĠMess":12068,"ĠWITH":12069,"ĠDud":12070,"Ġsucc":12071,"actory":12072,"Ġrides":12073,"ĠGot":12074,"Ġmeas":12075,"ĠOct":12076,"ĠOUT":12077,"ĠKings":12078,"Ġperman":12079,"obby":12080,"Ġfluff":12081,"ansas":12082,"Ġgray":12083,"Ġyoungest":12084,"Ġstrangers":12085,"Ġepit":12086,"Ġinterrog":12087,"ĠBeach":12088,"Ġcentered":12089,"Ġmorally":12090,"ANG":12091,"Ġstruct":12092,"ĠOrleans":12093,"Ġdestiny":12094,"Ġsubtly":12095,"Ġfilmmaking":12096,"Ġairport":12097,"Ġrespectable":12098,"Ġplanes":12099,"backs":12100,"Ġ1979":12101,"Ġacceptance":12102,"OUR":12103,"Ġidol":12104,"ĠSimply":12105,"Ġmentality":12106,"Ġtestament":12107,"ĠSurely":12108,"Ġdisgusted":12109,"Blood":12110,"Ġstretched":12111,"ĠTerror":12112,"ĠHayes":12113,"ĠColumbia":12114,"ĠRunner":12115,"ĠUpon":12116,"ttp":12117,"Ġsketch":12118,"Ġsuburban":12119,"Ġreluctant":12120,"Ġsteady":12121,"ĠCowboy":12122,"Ġamusement":12123,"Ġvibrant":12124,"hoeven":12125,"ĠMildred":12126,"ded":12127,"overs":12128,"wer":12129,"Ġomin":12130,"Ġfur":12131,"Ġlunch":12132,"chair":12133,"kees":12134,"Ġseam":12135,"ĠBattle":12136,"ĠBusey":12137,"ĠMort":12138,"Ġshaking":12139,"ulent":12140,"ĠWish":12141,"ĠDanger":12142,"Ġdose":12143,"Ġabst":12144,"ĠPfe":12145,"ĠRat":12146,"ĠRupert":12147,"ĠLight":12148,"ĠFra":12149,"ĠGray":12150,"ardom":12151,"ortions":12152,"Ġunm":12153,"ĠKathy":12154,"Ġpoker":12155,"ĠVelvet":12156,"Ġafterward":12157,"Ġbrown":12158,"rup":12159,"Ġgrin":12160,"Ġnewcom":12161,"iculty":12162,"Ġvisited":12163,"Ġtopics":12164,"Ġschools":12165,"ĠMyr":12166,"Ġthrilled":12167,"chester":12168,"ĠConan":12169,"Ġrespectively":12170,"Ġsurvives":12171,"boat":12172,"Ġprogramme":12173,"Ġstrengths":12174,"ĠWesterns":12175,"Ġcaliber":12176,"ĠDamon":12177,"ĠDaniels":12178,"Ġdisguise":12179,"Ġelevator":12180,"Ġdifficulty":12181,"ĠSNL":12182,"Bill":12183,"DVD":12184,"bie":12185,"bound":12186,"rection":12187,"erman":12188,"Ġmort":12189,"ioni":12190,"ĠARE":12191,"unless":12192,"asting":12193,"ĠGay":12194,"ĠGinger":12195,"acking":12196,"ĠOdd":12197,"Ġscenar":12198,"placed":12199,"Ġpartially":12200,"Ġremakes":12201,"Ġbride":12202,"ĠStupid":12203,"Ġattorney":12204,"ailing":12205,"ĠAlone":12206,"Ġtraits":12207,"ocracy":12208,"Ġstrings":12209,"Ġaudition":12210,"ĠThor":12211,"Ġskits":12212,"Ġmarries":12213,"ypical":12214,"ĠEdge":12215,"Ġmotive":12216,"Ġairplane":12217,"Ġengrossing":12218,"Three":12219,"Ġconduct":12220,"Ġdropping":12221,"Ġabsurdity":12222,"Ġdiscussing":12223,"Ġemployed":12224,"ĠHayworth":12225,"ymour":12226,"ĠThankfully":12227,"Ġinevitably":12228,"Ġhealthy":12229,"Ġuniformly":12230,"ĠPaxton":12231,"mittedly":12232,"iblings":12233,"Ġtempted":12234,"Ġinfected":12235,"Ġaspiring":12236,"Ġadmittedly":12237,"ĠDillon":12238,"Ġconveys":12239,"ĠBakshi":12240,"ĠCoppola":12241,"Ġpeculiar":12242,"DER":12243,"IES":12244,"Mad":12245,"Ray":12246,"UD":12247,"acious":12248,"cop":12249,"dan":12250,"giving":12251,"Ã³":12252,"inator":12253,"arate":12254,"Ġduck":12255,"Ġdressing":12256,"ĠIV":12257,"leck":12258,"Ġrehears":12259,"cends":12260,"ĠAwards":12261,"ĠSweet":12262,"Ġhapless":12263,"ĠBarker":12264,"Ġsharing":12265,"Ġshoe":12266,"Ġchron":12267,"Ġvoted":12268,"Ġdepend":12269,"ĠPoe":12270,"Ġneur":12271,"ĠLed":12272,"ĠLess":12273,"indu":12274,"ĠNik":12275,"ĠEugene":12276,"Ġenig":12277,"Ġawaken":12278,"Ġripping":12279,"athon":12280,"Ġcasts":12281,"Ġexpects":12282,"Ġhelpful":12283,"Ġvisions":12284,"ampoon":12285,"Ġassured":12286,"Ġcrazed":12287,"Ġmisguided":12288,"Ġhilarity":12289,"ucci":12290,"ĠGodzilla":12291,"Ġeventual":12292,"OOOO":12293,"blah":12294,"Ġbombs":12295,"Ġstores":12296,"itzer":12297,"ACE":12298,"Ġseparated":12299,"ugging":12300,"ĠRusso":12301,"Ġlaunch":12302,"ĠTerrible":12303,"Ġkissing":12304,"Ġconnections":12305,"ĠWilder":12306,"ĠVerhoeven":12307,"www":12308,"ĠCarell":12309,"Ġcanceled":12310,"ĠTruly":12311,"Ġexquisite":12312,"Ġconventions":12313,"Ġcensors":12314,",(":12315,"PER":12316,"Sl":12317,"bul":12318,"dep":12319,"fish":12320,"hole":12321,"named":12322,"oard":12323,"tick":12324,"Ġsale":12325,"Ġwives":12326,"Ġfuel":12327,"Ġcattle":12328,"Ġlux":12329,"Ġnick":12330,"ĠShy":12331,"ĠBert":12332,"ĠCard":12333,"ĠHans":12334,"Ġjarring":12335,"Ġvoc":12336,"ĠPost":12337,"quin":12338,"umn":12339,"ĠGO":12340,"ĠGentle":12341,"ĠGOD":12342,"Ġunrelated":12343,"assing":12344,"Ġadvers":12345,"owned":12346,"Ġblues":12347,"bearing":12348,"Ġspeeches":12349,"ffects":12350,"eworthy":12351,"orders":12352,"Ġcoff":12353,"Ġreported":12354,"Ġmessy":12355,"Ġregards":12356,"OTH":12357,"Ġhugely":12358,"ĠElvira":12359,"Ġlaws":12360,"ĠQuentin":12361,"ĠGlob":12362,"Ġunsus":12363,"ĠChristianity":12364,"Ġstopping":12365,"ĠPalma":12366,"ĠWHAT":12367,"Ġjealousy":12368,"Ġbabys":12369,"ĠCostello":12370,"Ġpedest":12371,"Ġarchitect":12372,"Ġclaustrophobic":12373,"Ġdeleted":12374,"GH":12375,"Jane":12376,"Little":12377,"Mon":12378,"date":12379,"gio":12380,"gency":12381,"ois":12382,"vas":12383,"Ġmac":12384,"atement":12385,"Ġpulp":12386,"ician":12387,"Ġnatives":12388,"almost":12389,"rio":12390,"ĠMain":12391,"ĠCos":12392,"ĠHep":12393,"ĠDy":12394,"ĠRush":12395,"ĠLund":12396,"ĠFast":12397,"feld":12398,"Ġunimp":12399,"gends":12400,"ĠView":12401,"ensen":12402,"Ġracing":12403,"Ġsetup":12404,"Ġcamc":12405,"Ġhandling":12406,"aney":12407,"ractive":12408,"Ġretire":12409,"ĠSeymour":12410,"minger":12411,"Ġpromote":12412,"ĠOrson":12413,"Ġuncertain":12414,"Ġforgiven":12415,"Ġattacking":12416,"ĠTravolta":12417,"Ġreceiving":12418,"Ġsticking":12419,"ĠEmperor":12420,"ĠBela":12421,"Ġkidnapping":12422,"Ġlayers":12423,"Ġcoward":12424,"ĠDemons":12425,"ĠRonald":12426,"Ġstumbles":12427,"ĠOlivia":12428,"Ġfluid":12429,"Ġingenious":12430,"Ġprejudice":12431,"Yeah":12432,"ĠHopkins":12433,"ĠPfeiffer":12434,"Ant":12435,"FE":12436,"Film":12437,"Pat":12438,"erve":12439,"Ġfiring":12440,"Ġmafia":12441,"oura":12442,"onent":12443,"Ġtooth":12444,"Ġbew":12445,"ĠSoul":12446,"herd":12447,"rand":12448,"Ġalley":12449,"thon":12450,"isted":12451,"Ġranch":12452,"Ġhers":12453,"near":12454,"Ġthrust":12455,"Ġblink":12456,"ĠViol":12457,"Ġspecially":12458,"Ġunderm":12459,"Ġrifle":12460,"Ġraces":12461,"Ġcouch":12462,"Ġsubmar":12463,"Ġterrified":12464,"Ġinvasion":12465,"mostly":12466,"cope":12467,"isode":12468,"Ġstandout":12469,"ĠSpider":12470,"Ġavid":12471,"Ġmoron":12472,"Ġmedic":12473,"Ġinfo":12474,"Ġconstit":12475,"Ġbreakdown":12476,"Ġpleasing":12477,"Ġ1996":12478,"Ġrecognizable":12479,"Ġstatue":12480,"Ġmacho":12481,"affy":12482,"Ġpunches":12483,"Ġmirac":12484,"Ġaccounts":12485,"ĠWinters":12486,"Ġearnest":12487,"ĠSnipes":12488,"Ġredund":12489,"ĠMilo":12490,"Ġvastly":12491,"Ġcontribution":12492,"ĠDetective":12493,"ĠArmstrong":12494,"Ġmechanical":12495,"driven":12496,"Ġinstrument":12497,"ĠAfghanistan":12498,"Ġaristocr":12499,"ĠDuvall":12500,"Ġanswered":12501,"ĠFILM":12502,"Lu":12503,"Life":12504,"mel":12505,"Ġtap":12506,"Ġwire":12507,"Ġfade":12508,"Ġmall":12509,"Ġdwell":12510,"along":12511,"utton":12512,"iless":12513,"lymp":12514,"ĠBin":12515,"Ġ('":12516,"ĠWright":12517,"Ġjaded":12518,"Ġactivity":12519,"Ġvo":12520,"Ġvary":12521,"Ġoutlaw":12522,"ĠFans":12523,"apid":12524,"Ġque":12525,"Ġslut":12526,"Ġcontempt":12527,"Ġmins":12528,"Ġcomprehe":12529,"Ġsmiles":12530,"Ġhandles":12531,"Ġlasts":12532,"Ġglowing":12533,"symp":12534,"orky":12535,"ĠChristina":12536,"Ġindication":12537,"Ġcollaps":12538,"Ġmisfortun":12539,"Ġdeserving":12540,"Chris":12541,"ĠSchne":12542,"ĠRussians":12543,"ĠAlec":12544,"Ġclaiming":12545,"Ġdepths":12546,"Ġmassacre":12547,"Ġradical":12548,"Ġcompete":12549,"ĠIrons":12550,"Ġsavage":12551,"Ġastounding":12552,"Ġdefeated":12553,"Ġspectacle":12554,"Ġcelebration":12555,"ĠCarlos":12556,"ĠLambert":12557,"Ġcrisp":12558,"ĠSavage":12559,"Ġrestrained":12560,"Ġbefriends":12561,"Ġadmirable":12562,"Ġskateboard":12563,"Ġexpedition":12564,"ĠStallone":12565,"ĠDiaz":12566,"\"<":12567,"CM":12568,"Col":12569,"King":12570,"Mat":12571,"fig":12572,"Ġtab":12573,"Ġsou":12574,"Ġfoil":12575,"Ġhides":12576,"Ġtomb":12577,"Ġpione":12578,"Ġdates":12579,"ĠTok":12580,"ĠSandy":12581,"ĠBottom":12582,"ĠMey":12583,"tery":12584,"ĠCand":12585,"ulse":12586,"Ġscrap":12587,"ĠLoc":12588,"ĠFoot":12589,"ĠJill":12590,"Ġjustified":12591,"ardo":12592,"ĠNiel":12593,"ĠEyre":12594,"Ġupst":12595,"ĠOllie":12596,"ĠKline":12597,"ĠKey":12598,"izoph":12599,"Ġentering":12600,"Ġprince":12601,"Ġunderneath":12602,"Ġbugs":12603,"ovsky":12604,"onti":12605,"ĠNote":12606,"Ġretros":12607,"Ġpassage":12608,"Ġfemme":12609,"Ġfabr":12610,"Ġdescent":12611,"ĠSamantha":12612,"Ġwaitress":12613,"Ġ1993":12614,"ĠBoyle":12615,"Ġballet":12616,"Ġhangs":12617,"winning":12618,"Anyone":12619,"Ġhammy":12620,"genre":12621,"Ġblatantly":12622,"Ġautomatically":12623,"Ġabruptly":12624,"ĠShatner":12625,"ĠDowney":12626,"ĠPreston":12627,"17":12628,"100":12629,"IRE":12630,"Les":12631,"dem":12632,"fr":12633,"gt":12634,"gles":12635,"oen":12636,"Ġtaped":12637,"Ġpink":12638,"omber":12639,"Ġnurs":12640,"ĠAR":12641,"ĠLange":12642,"ĠFan":12643,"Ġupside":12644,"cile":12645,"Ġagency":12646,"orsese":12647,"Ġgiallo":12648,"Ġfactors":12649,"Ġbitch":12650,"Ġinspect":12651,"deal":12652,"aha":12653,"ĠDebbie":12654,"ĠScor":12655,"Ġblacks":12656,"Ġpainter":12657,"Ġregion":12658,"Ġroommate":12659,"Ġ1971":12660,"Ġ1984":12661,"Ġwitches":12662,"Ġpublicity":12663,"borg":12664,"Ġimmortal":12665,"ĠBrain":12666,"ĠActress":12667,"Ġ1969":12668,"IDE":12669,"Ġenergetic":12670,"Without":12671,"Ġdragon":12672,"production":12673,"Ġhomosexuality":12674,"ĠToronto":12675,"ĠBeauty":12676,"Ġanticipation":12677,"ĠBacon":12678,"Ġcrocodile":12679,"ĠSydney":12680,"Ġslimy":12681,"ĠDomino":12682,"Ġtactics":12683,"Ġbasketball":12684,"ĠSellers":12685,"Ġmotorcycle":12686,"Ġguaranteed":12687,"izophren":12688,"''":12689,"DS":12690,"Ter":12691,"gas":12692,"gid":12693,"hilar":12694,"kill":12695,"much":12696,"mary":12697,"Ġturd":12698,"inction":12699,"Ġsomeday":12700,"Ġmales":12701,"Ġcoc":12702,"arters":12703,"Ġgambling":12704,"utions":12705,"ĠToy":12706,"Ġformed":12707,"ĠSway":12708,"ĠBird":12709,"ĠBunny":12710,"Ġaboard":12711,"ĠPowers":12712,"ĠLeland":12713,"quette":12714,"ĠGable":12715,"ĠJa":12716,"ĠJar":12717,"Ġunatt":12718,"ĠKramer":12719,"ĠVill":12720,"Ġbackwards":12721,"Ġ1920":12722,"Ġmayor":12723,"Ġcoupled":12724,"ubble":12725,"Ġrestrict":12726,"iterally":12727,"Ġcommits":12728,"Ġassure":12729,"Ġcommenting":12730,"Ġuncons":12731,"ĠAmong":12732,"Ġaccepts":12733,"Ġsuggestion":12734,"Ġapproaches":12735,"Ġimmature":12736,"Ġrecords":12737,"Ġrequest":12738,"Ġmelanch":12739,"Ġmidnight":12740,"Ġcrossing":12741,"Ġlaun":12742,"Ġnerves":12743,"Ġsitcoms":12744,"ĠUniversity":12745,"Ġgentleman":12746,"ĠBeatles":12747,"Ġcaricatures":12748,"ĠGregory":12749,"Ġinhabitants":12750,"Ġdilemma":12751,"ĠSeptember":12752,"18":12753,"cat":12754,"cool":12755,"dest":12756,"Ġtip":12757,"Ġaer":12758,"Ġsiblings":12759,"Ġol":12760,"Ġpant":12761,"Ġduration":12762,"Ġgained":12763,"Ġnails":12764,"stan":12765,"ieval":12766,"tering":12767,"ĠHaines":12768,"outhed":12769,"arthy":12770,"ĠLena":12771,"Ġoutright":12772,"ĠFace":12773,"ĠFont":12774,"ĠFinn":12775,"ĠGret":12776,"Ġproving":12777,"Ġquarter":12778,"Ġrooting":12779,"epers":12780,"ober":12781,"Ġremade":12782,"Ġincidents":12783,"Ġneedless":12784,"Ġsincerely":12785,"note":12786,"Ġassert":12787,"Ġdefinitive":12788,"ĠZe":12789,"enna":12790,"lights":12791,"Ġminority":12792,"profess":12793,"ĠPolanski":12794,"ĠRambo":12795,"ĠCohen":12796,"Ġreferring":12797,"ĠEntertain":12798,"Ġshopping":12799,"ĠWerewolf":12800,"Ġdepends":12801,"ĠTechnicolor":12802,"Ġfrozen":12803,"ĠNovak":12804,">>":12805,"MA":12806,"Rec":12807,"dram":12808,"iably":12809,"post":12810,"tta":12811,"zzy":12812,"Ġmail":12813,"orient":12814,"ouge":12815,"Ġpenn":12816,"Ġlion":12817,"oming":12818,"Ġbelly":12819,"ador":12820,"sexual":12821,"ĠAIDS":12822,"ĠSOME":12823,"ĠCL":12824,"Ġframes":12825,"Ġkudos":12826,"Ġvotes":12827,"ĠPulp":12828,"ĠPiper":12829,"ĠPonyo":12830,"Ġworship":12831,"ĠRel":12832,"ĠJod":12833,"Ġmeal":12834,"Ġ''":12835,"ĠFrances":12836,"Ġboasts":12837,"Ġ101":12838,"Ġglance":12839,"Ġglued":12840,"axy":12841,"Ġexamination":12842,"Ġbudgets":12843,"ORY":12844,"Ġcombines":12845,"Ġsuitably":12846,"Ġapproaching":12847,"ĠMoreover":12848,"ĠSecondly":12849,"Plan":12850,"Ġtolerable":12851,"Ġassuming":12852,"Ġaddicted":12853,"ĠPrivate":12854,"Ġtossed":12855,"Ġlimitations":12856,"Ġsatirical":12857,"Seriously":12858,"Ġsarcastic":12859,"character":12860,"Ġdisastrous":12861,"Bottom":12862,"Because":12863,"NA":12864,"best":12865,"has":12866,"pa":12867,"stin":12868,"ieg":12869,"amo":12870,"ĠBam":12871,"ĠBeverly":12872,"ĠCou":12873,"ĠHum":12874,"usively":12875,"Ġven":12876,"Ġvomit":12877,"ĠPle":12878,"ĠPix":12879,"isty":12880,"ĠLiv":12881,"ĠFun":12882,"abby":12883,"inky":12884,"Ġdisin":12885,"Ġadvis":12886,"gins":12887,"Ġspree":12888,"ĠVisc":12889,"Ġbacks":12890,"Ġunderwear":12891,"ĠUP":12892,"ĠAlive":12893,"ĠJoh":12894,"ĠShell":12895,"Ġcoat":12896,"Ġentirety":12897,"Ġreports":12898,"Ġtranspl":12899,"Ġdemonic":12900,"Ġsuspension":12901,"Ġspirited":12902,"Ġmeteor":12903,"Ġerror":12904,"ĠMend":12905,"Ġpractical":12906,"Ġthreatened":12907,"Ġoffend":12908,"ĠVictorian":12909,"Ġpilots":12910,"Ġmiracle":12911,"Ġbiopic":12912,"ĠEvans":12913,"Ġtranslated":12914,"Ġemerge":12915,"moving":12916,"Ġlinked":12917,"ĠToday":12918,"ĠWriter":12919,"ĠJacob":12920,"Ġwanders":12921,"ĠAmazing":12922,"ĠWendy":12923,"Ġdubious":12924,"Ġpattern":12925,"ĠHepburn":12926,"Ġcamcorder":12927,"Get":12928,"bourne":12929,"dig":12930,"hart":12931,"uber":12932,"Ġcro":12933,"esque":12934,"orous":12935,"Ġharr":12936,"Ġhollow":12937,"Ġstardom":12938,"keeper":12939,"ĠAS":12940,"ĠSa":12941,"ĠSudden":12942,"ĠBS":12943,"ĠBoo":12944,"ĠBug":12945,"ĠHK":12946,"ulously":12947,"Ġframed":12948,"ĠLib":12949,"Ġouter":12950,"Ġintentional":12951,"quire":12952,"Ġunem":12953,"Ġfeast":12954,"Ġdisci":12955,"Ġtrials":12956,"anky":12957,"Ġcohes":12958,"exter":12959,"ĠÂĳ":12960,"shock":12961,"Ġcultures":12962,"ĠGrudge":12963,"Ġ1973":12964,"Ġ1982":12965,"Ġwindows":12966,"Ġinformative":12967,"Ġprograms":12968,"Ġcontinuing":12969,"ĠMacbeth":12970,"ĠSanders":12971,"Ġdeparture":12972,"Ġiconic":12973,"ĠIncred":12974,"Ġfeminist":12975,"Ġphenomenon":12976,"Ġfortunate":12977,"Ġdiverse":12978,"Ġmesmerizing":12979,"Ġrebellious":12980,"Ġexterior":12981,"ĠTheatre":12982,"fashioned":12983,"Ġunsuspecting":12984,"!\".":12985,"14":12986,"high":12987,"have":12988,"wide":12989,"Ġtrop":12990,"Ġfishing":12991,"Ġhust":12992,"Ġinjust":12993,"Ġinformed":12994,"icer":12995,"Ġglee":12996,"stru":12997,"ilia":12998,"Ġstairs":12999,"roit":13000,"ĠBard":13001,"ĠMath":13002,"ĠMask":13003,"Ġshining":13004,"ĠDoo":13005,"unks":13006,"ppers":13007,"ĠPoll":13008,"ĠFay":13009,"ortant":13010,"Ġanyways":13011,"Ġclin":13012,"Ġclone":13013,"tec":13014,"Ġpee":13015,"Ġcharacterizations":13016,"Ġspine":13017,"Ġflim":13018,"Ġflashy":13019,"Ġunderworld":13020,"Ġresidents":13021,"Ġrave":13022,"ĠAsia":13023,"Ġexpectation":13024,"itionally":13025,"scar":13026,"Ġmonument":13027,"ĠSpencer":13028,"ĠScorsese":13029,"atton":13030,"Ġexpose":13031,"Ġexpense":13032,"INK":13033,"Ġregularly":13034,"Ġinflict":13035,"Ġconsideration":13036,"Ġconvinces":13037,"Ġinspir":13038,"Ġsensible":13039,"ĠExorcist":13040,"Ġautobi":13041,"Ġmannerisms":13042,"Ġstunningly":13043,"Ġrescued":13044,"ĠLauren":13045,"Ġdespicable":13046,"ĠFuller":13047,"Christopher":13048,"ĠCannes":13049,"ographical":13050,"Ġecho":13051,"Ġprivile":13052,"ĠSpirit":13053,"Ġchopped":13054,"ĠFarrell":13055,"\":":13056,"TF":13057,"Take":13058,"first":13059,"gener":13060,"sn":13061,"wic":13062,"Ġ!!":13063,"Ġtapes":13064,"Ġmasc":13065,"Ġbilled":13066,"atum":13067,"oria":13068,"asse":13069,"Ġnit":13070,"Ġnaught":13071,"ĠTIM":13072,"ĠAway":13073,"irlfriend":13074,"ĠCop":13075,"ĠHulk":13076,"opard":13077,"ĠPC":13078,"ĠPose":13079,"Ġneo":13080,"Ġconj":13081,"ĠGate":13082,"osal":13083,"ardieu":13084,"Ġlend":13085,"Ġgoods":13086,"oda":13087,"Ġendlessly":13088,"Ġpretends":13089,"Ġadjust":13090,"avin":13091,"Ġspont":13092,"Ġfles":13093,"Ġcontribute":13094,"Ġcrashing":13095,"Ġsubtext":13096,"Ġscreenwriters":13097,"ĠBron":13098,"rosawa":13099,"Ġcopied":13100,"Ġstudied":13101,"ĠSebast":13102,"ĠNews":13103,"ikes":13104,"ĠEdie":13105,"Ġslee":13106,"ĠGrinch":13107,"Ġ1978":13108,"Ġ1988":13109,"Ġdecidedly":13110,"Ġmixing":13111,"Ġapproached":13112,"ĠMonroe":13113,"REE":13114,"Ġcolleagues":13115,"super":13116,"ĠHorrible":13117,"Ġmercy":13118,"Ġsquee":13119,"Ġlegacy":13120,"ITY":13121,"?!?!":13122,"Ġimplied":13123,"Unlike":13124,"Ġcleaning":13125,"Ġtendency":13126,"Ġnerve":13127,"Ġconfronted":13128,"ĠCassidy":13129,"Ġprincip":13130,"Ġenthusiastic":13131,"Ġbabies":13132,"girls":13133,"Ġrewarding":13134,"Ġadopt":13135,"ĠNolte":13136,"Ġconveniently":13137,"Ġconvicted":13138,"Ġphenomenal":13139,"Ġpoliticians":13140,"Ġironically":13141,"Ġconclude":13142,"ĠCasey":13143,"Toole":13144,"Ġbeside":13145,"ĠBoston":13146,".),":13147,"bon":13148,"car":13149,"cript":13150,"chet":13151,"cules":13152,"door":13153,"does":13154,"fare":13155,"Ġwounds":13156,"Ġbent":13157,"athing":13158,"Ġcemetery":13159,"Ġhires":13160,"angh":13161,"Ġpomp":13162,"Ġling":13163,"Ġstumble":13164,"idan":13165,"ĠAven":13166,"ĠSoder":13167,"Ġbutler":13168,"ĠCross":13169,"ĠCron":13170,"people":13171,"anton":13172,"Ġvile":13173,"olt":13174,"ĠRhett":13175,"Ġoutline":13176,"Ġrug":13177,"umming":13178,"ĠGall":13179,"ĠJed":13180,"ĠEthan":13181,"Ġgoals":13182,"icky":13183,"Ġdismal":13184,"Ġdisabled":13185,"avia":13186,"Ġrealization":13187,"Ġhorny":13188,"Ġslack":13189,"Ġchee":13190,"Ġtrace":13191,"ockey":13192,"Ġfarmer":13193,"Ġmonkeys":13194,"Ġfathers":13195,"Ġrepulsive":13196,"Ġretrie":13197,"ĠRevolution":13198,"ĠÂ£":13199,"ĠÂħ":13200,"shadow":13201,"ĠGerard":13202,"ĠJustice":13203,"Ġangels":13204,"Ġuncut":13205,"Ġrespects":13206,"Ġerr":13207,"ĠTwilight":13208,"Ġestr":13209,"Ġaffects":13210,"ĠLester":13211,"Ġfifth":13212,"RIBLE":13213,"Ġcontroversy":13214,"Ġauthenticity":13215,"produced":13216,"Next":13217,"Ġcooking":13218,"ĠAntonioni":13219,"Ġtremendously":13220,"Ġconcentrate":13221,"ĠBonnie":13222,"Ġisolation":13223,"Ġmasks":13224,"ĠDirection":13225,"Ġcliches":13226,"Ġintricate":13227,"Boy":13228,"HO":13229,"bly":13230,"dam":13231,"lord":13232,"mad":13233,"vability":13234,"Ġfaint":13235,"Ġcage":13236,"Ġhuh":13237,"Ġinsec":13238,"urous":13239,"urring":13240,"ĠMall":13241,"ĠHou":13242,"Ġattended":13243,"ĠDest":13244,"Ġjet":13245,"Ġdoom":13246,"olved":13247,"Ġrats":13248,"ĠJuly":13249,"ĠNa":13250,"ĠNaked":13251,"odox":13252,"ĠKiss":13253,"ĠKumar":13254,"ayson":13255,"Ġprequel":13256,"before":13257,"Ġoldest":13258,"Ġdecap":13259,"Ġsmug":13260,"arrot":13261,"Ġacademy":13262,"nothing":13263,"ĠScary":13264,"ĠChristine":13265,"guard":13266,"cheek":13267,"Ġaircraft":13268,"Ġreminder":13269,"Ġbelt":13270,"Ġpornography":13271,"Ġ1939":13272,"ASS":13273,"ĠAgent":13274,"abbit":13275,"Ġhammer":13276,"Ġdeny":13277,"ĠErrol":13278,"ĠPalance":13279,"Ġfunding":13280,"burne":13281,"ĠPreminger":13282,"ranos":13283,"Ġcommitment":13284,"Ġenhanced":13285,"ĠFROM":13286,"Ġstroke":13287,"Ġsympathize":13288,"Ġresurrect":13289,"Ġunsatisfying":13290,"ĠMormon":13291,"Ġgrateful":13292,"Ġnominations":13293,"busters":13294,"Ġpronoun":13295,"Ġmisfortune":13296,"!?":13297,"FUL":13298,"Our":13299,"TY":13300,"bach":13301,"hal":13302,"liest":13303,"mers":13304,"sub":13305,"Ġfierce":13306,"Ġbiol":13307,"Ġbulk":13308,"Ġcue":13309,"Ġcurt":13310,"Ġhij":13311,"Ġpals":13312,"Ġdrew":13313,"Ġwash":13314,"Ġyard":13315,"ĠWR":13316,"actually":13317,"Ġaltered":13318,"ĠLans":13319,"quer":13320,"ardless":13321,"Ġpros":13322,"Ġquant":13323,"intage":13324,"Ġdisregard":13325,"Ġseeming":13326,"cco":13327,"ĠVaugh":13328,"version":13329,"Ġincapable":13330,"Ġmusc":13331,"Ġreaders":13332,"Ġartwork":13333,"ĠReagan":13334,"Ġcraz":13335,"ĠZh":13336,"hetto":13337,"Ġposing":13338,"ielding":13339,"Ġ1981":13340,"!)<":13341,"OUN":13342,"?\"<":13343,"ĠParamount":13344,"know":13345,"Ġdolls":13346,"Ġcriticize":13347,"Ġ1945":13348,"ĠHolocaust":13349,"Ġescaping":13350,"Ġmediocr":13351,"Ġmouths":13352,"Ġyouthful":13353,"ĠMasters":13354,"Ġvehicles":13355,"burg":13356,"ĠClearly":13357,"Ġpursued":13358,"Ġdemonstrate":13359,"ĠPortman":13360,"Ġdisguised":13361,"Ġconvenient":13362,"ĠAtlantis":13363,"Ġselected":13364,"ĠfiancÃ©e":13365,"ĠKahn":13366,"Ġpsyched":13367,"ĠGilbert":13368,"Ġpublished":13369,"ĠGandhi":13370,"Ġparanoid":13371,"Ġvigil":13372,"ĠValentine":13373,"ĠDallas":13374,"ĠBennett":13375,"Ġbrooding":13376,"Ġabstract":13377,"sympathetic":13378,"!\",":13379,")?":13380,"Dra":13381,"Final":13382,"Gl":13383,"Much":13384,"doc":13385,"ridden":13386,"uv":13387,"witted":13388,"Ġbike":13389,"atile":13390,"esar":13391,"esse":13392,"Ġpimp":13393,"asi":13394,"Ġloop":13395,"icia":13396,"uten":13397,"stood":13398,"Ġitems":13399,"vere":13400,"ĠTCM":13401,"ĠACT":13402,"Ġhavoc":13403,"ĠBrilliant":13404,"ĠMing":13405,"ĠMouse":13406,"ĠMalt":13407,"ĠCob":13408,"empl":13409,"Ġfruit":13410,"Ġsorely":13411,"ags":13412,"ĠPierce":13413,"ĠLim":13414,"ĠLives":13415,"ĠFree":13416,"uded":13417,"Ġmanif":13418,"ĠKansas":13419,"arely":13420,"Ġoverbearing":13421,"Ġadore":13422,"Ġusers":13423,"Ġblunt":13424,"Ġhorrified":13425,"Ġinsuff":13426,"oots":13427,"Ġhandic":13428,"Ġinterior":13429,"Ġcommander":13430,"Ġremembers":13431,"Ġswitched":13432,"oulies":13433,"Ġquestioning":13434,"Ġaccepting":13435,"ĠTrust":13436,"Those":13437,"Ġliteral":13438,"Ġcartoonish":13439,"ĠTrail":13440,"ĠBravo":13441,"Ġdelightfully":13442,"Ġfatale":13443,"ĠMelville":13444,"Ġpreparing":13445,"ĠBelieve":13446,"ĠGarland":13447,"ICK":13448,"Ġpossession":13449,"Ġgrowth":13450,"ĠMcCoy":13451,"Ġsells":13452,"Ġpathos":13453,"Ġtourist":13454,"Ġgear":13455,"Ġtranslate":13456,"ukh":13457,"Ġcracking":13458,"ĠZombies":13459,"Ġneatly":13460,"ĠCompany":13461,"Ġuniversity":13462,"ĠModesty":13463,"Ġchoosing":13464,"ĠBrenda":13465,"Ġinstitution":13466,"Ġstabbed":13467,"ĠMountain":13468,"Ġunimaginative":13469,"indulgent":13470,"Ġominous":13471,"Ġcomprehend":13472,"ĠSwayze":13473,"stinov":13474,"ĠVisconti":13475,"Men":13476,"PP":13477,"Ret":13478,"lucky":13479,"Ġwider":13480,"Ġcries":13481,"Ġtoken":13482,"Ġpic":13483,"otional":13484,"utive":13485,"vet":13486,"owed":13487,"imum":13488,"Ġseedy":13489,"essed":13490,"active":13491,"ĠLogan":13492,"Ġorg":13493,"ĠNon":13494,"Ġenchant":13495,"pling":13496,"Ġperception":13497,"ouring":13498,"Ġpole":13499,"assic":13500,"ishop":13501,"rug":13502,"Ġrainy":13503,"Ġlonging":13504,"Ġapply":13505,"Ġartsy":13506,"Ġdelicious":13507,"ĠClive":13508,"Ġhousewife":13509,"Ġregister":13510,"Ġpromoted":13511,"ĠDanish":13512,"Ġdiscern":13513,"Ġdestined":13514,"Ġundead":13515,"Ġapprox":13516,"ermit":13517,"onica":13518,"Ġdelighted":13519,"Ġexploits":13520,"ĠLouise":13521,"ĠSTILL":13522,"Ġobsessive":13523,"ITE":13524,"Ġpraised":13525,"ĠLaurence":13526,"ĠWHO":13527,"Ġsafely":13528,"Ġscariest":13529,"ĠEnterprise":13530,"Ġcontributed":13531,"Ġdivorced":13532,"ĠHAVE":13533,"Ġdeliberate":13534,"ĠRicci":13535,"Ġdepending":13536,"ĠPotter":13537,"idelity":13538,"Ġexploding":13539,"Ġsuspicion":13540,"ĠElliott":13541,"ALLY":13542,"Mark":13543,"NOT":13544,"Out":13545,"din":13546,"fman":13547,"flix":13548,"lake":13549,"math":13550,"mund":13551,"Ġtire":13552,"Ġfires":13553,"Ġfreaking":13554,"Ġfifties":13555,"Ġbul":13556,"Ġbully":13557,"Ġbald":13558,"Ġbounty":13559,"asper":13560,"leased":13561,"ental":13562,"Ġwastes":13563,"ami":13564,"ammed":13565,"ĠBle":13566,"ĠMob":13567,"ĠMoe":13568,"ĠCBS":13569,"ĠHir":13570,"ĠHapp":13571,"ĠWait":13572,"ĠDixon":13573,"Ġjock":13574,"Ġwholes":13575,"ĠPra":13576,"ĠPalt":13577,"ĠLad":13578,"Ġoutdated":13579,"ĠGR":13580,"ĠGloria":13581,"ĠNIGHT":13582,"ĠEbert":13583,"Ġlock":13584,"ĠKell":13585,"sored":13586,"assin":13587,"Ġrose":13588,"Ġentries":13589,"Ġbiting":13590,"Ġinvention":13591,"Ġappeals":13592,"Ġbuzz":13593,"ĠSho":13594,"ĠRobot":13595,"ĠReid":13596,"Ġindifferent":13597,"Ġzone":13598,"iami":13599,"ĠAmir":13600,"Ġboxer":13601,"Ġmeantime":13602,"erminator":13603,"without":13604,"OOK":13605,"royd":13606,"Ġbrainless":13607,"Ġgrounds":13608,"ĠBasinger":13609,"Ġdegener":13610,"Ġbalanced":13611,"ĠRoyal":13612,"Ġboost":13613,"Ġensure":13614,"ĠJanet":13615,"Ġcolours":13616,"ĠCountry":13617,"ĠGiov":13618,"Ġenhance":13619,"Ġeternal":13620,"Ġreliable":13621,"Ġinexplicable":13622,"ĠIngrid":13623,"ĠSisters":13624,"Ġhunters":13625,"Ġacknowled":13626,"Ġrelentless":13627,"Ġmonologue":13628,"Ġcharacteristics":13629,"Ġrabbit":13630,"Ġpursue":13631,"ĠEisenstein":13632,"Ġneurotic":13633,".).":13634,"Based":13635,"Cr":13636,"Eng":13637,"EST":13638,"May":13639,"Niro":13640,"URE":13641,"oi":13642,"prom":13643,"rary":13644,"sorry":13645,"Ã¼":13646,"Ġakin":13647,"Ġsession":13648,"Ġware":13649,"Ġbim":13650,"Ġbabe":13651,"itors":13652,"Ġcents":13653,"eson":13654,"oust":13655,"Ġpoo":13656,"asco":13657,"Ġ/>**":13658,"Ġbeg":13659,"ĠTiger":13660,"eted":13661,"ĠAkshay":13662,"ĠMack":13663,"ĠMuppets":13664,"ĠCorn":13665,"ĠHim":13666,"ĠWrest":13667,"Ġsugar":13668,"Ġscored":13669,"Ġplate":13670,"ĠGadget":13671,"Ġcharms":13672,"ige":13673,"abel":13674,"ĠKnox":13675,"Ġoverblown":13676,"forming":13677,"Ġrealities":13678,"Ġrealistically":13679,"Ġdont":13680,"ĠChamber":13681,"Ġminister":13682,"ĠUstinov":13683,"Ġobtain":13684,"issance":13685,"autiful":13686,"Ġapplied":13687,"Ġbug":13688,"Ġbuys":13689,"Ġextensive":13690,"spot":13691,"Ġrelevance":13692,"Ġdistraction":13693,"ountered":13694,"Ġstudies":13695,"ĠNoah":13696,"Ġcentre":13697,"Ġsnuff":13698,"Ġpatron":13699,"Ġswearing":13700,"Ġfills":13701,"Ġexistential":13702,"Ġsociet":13703,"Ġ1994":13704,"Ġresear":13705,"borough":13706,"ĠGoodman":13707,"black":13708,"Ġinterviewed":13709,"Ġreplies":13710,"Ġcomparisons":13711,"ĠStrong":13712,"Ġkidnap":13713,"ACT":13714,"Ġhooker":13715,"Ġexplosive":13716,"Ġmutant":13717,"Really":13718,"ĠLois":13719,"Ġadvertised":13720,"ĠYOUR":13721,"ĠPacific":13722,"ĠKurosawa":13723,"Ġsinking":13724,"Ġparallels":13725,"ĠWesley":13726,"Ġobservation":13727,"Ġpsyche":13728,"ĠJuan":13729,"Ġsabot":13730,"Basically":13731,"ĠAffleck":13732,"Ġaesthetic":13733,"ĠScrooge":13734,"ĠAbraham":13735,"Ġvignettes":13736,"Ġscenarios":13737,"stanbul":13738,"Ġmediocrity":13739,"ĠPaltrow":13740,"Jeff":13741,"Mel":13742,"WH":13743,"iate":13744,"ufact":13745,"ventional":13746,"wick":13747,"wolves":13748,"Ġsought":13749,"Ġbitten":13750,"onents":13751,"omination":13752,"ĠIQ":13753,"ĠTale":13754,"Ġreign":13755,"advert":13756,"cending":13757,"Ġanc":13758,"ĠSame":13759,"Ġhaunt":13760,"riz":13761,"urrent":13762,"ĠMoh":13763,"ĠMummy":13764,"ussy":13765,"Ġdeem":13766,"ĠFried":13767,"ĠFitz":13768,"ĠEarly":13769,"ĠOk":13770,"ĠOlymp":13771,"Ġpercent":13772,"ava":13773,"Ġrecreat":13774,"ĠStay":13775,"Ġundercover":13776,"ĠUt":13777,"athom":13778,"Ġdecline":13779,"Ġinsurance":13780,"Ġinsomn":13781,"Ġcinemas":13782,"Ġextrem":13783,"ĠClaus":13784,"comes":13785,"Ġmasters":13786,"Ġmorons":13787,"Ġposes":13788,"ĠPaulie":13789,"Ġsickening":13790,"Ġencountered":13791,"Ġsatisfaction":13792,"noir":13793,"Ġsuspected":13794,"ĠGlen":13795,"Ġunsure":13796,"ITT":13797,"Ġdivided":13798,"Ġwisely":13799,"Ġdebt":13800,"ĠEvan":13801,"Ġabandon":13802,"ĠHawk":13803,"ĠCollins":13804,"Ġconveyed":13805,"ĠLooking":13806,"Ġstalking":13807,"ĠAshley":13808,"ĠPLEASE":13809,"ĠLionel":13810,"ĠCharacter":13811,"Ġeternity":13812,"ĠRuby":13813,"Ġimpecc":13814,"Ġowes":13815,"Ġdetectives":13816,"ARNING":13817,"Ġlicense":13818,"ĠCorey":13819,"Ġshifts":13820,"ĠClarke":13821,"Ġmedicine":13822,"Four":13823,"IVE":13824,"NY":13825,"Tim":13826,"dance":13827,"gence":13828,"ua":13829,"Ġta":13830,"render":13831,"Ġcaps":13832,"bral":13833,"Ġgaps":13834,"Ġnun":13835,"Ġitem":13836,"ilmer":13837,"ĠWee":13838,"Ġexempl":13839,"Ġvoodoo":13840,"ĠPsycho":13841,"ĠGor":13842,"ĠGersh":13843,"Ġunsc":13844,"ureau":13845,"avan":13846,"Ġspaghetti":13847,"Ġplotting":13848,"ĠHeck":13849,"azard":13850,"Ġlongest":13851,"Ġintertw":13852,"Ġheadache":13853,"ĠSpoilers":13854,"Ġdrab":13855,"Ġmedieval":13856,"ĠDana":13857,"incarn":13858,"Ġlandmark":13859,"Ġavoiding":13860,"Ġ1959":13861,"Ġcollective":13862,"ĠTravis":13863,"Ġstatements":13864,"Ġimprobable":13865,"ĠActors":13866,"ĠRocky":13867,"Ġnoticeable":13868,"Ġaiming":13869,"Ġsources":13870,"Ġinsights":13871,"Ġfields":13872,"Ġdetermination":13873,"Ġexperiencing":13874,"Ġeducated":13875,"ĠDarwin":13876,"Ġassociate":13877,"ĠMalone":13878,"Ġbreast":13879,"Ġcycle":13880,"ĠMUCH":13881,"Ġaccessible":13882,"Ġstylized":13883,"Ġembrace":13884,"ĠHotel":13885,"Ġwheelchair":13886,"Ġaxe":13887,"Ġgestures":13888,"ĠPython":13889,"Ġundeniably":13890,"Ġdazzling":13891,"ĠHUGE":13892,"Over":13893,"Sil":13894,"Tra":13895,"Up":13896,"fiction":13897,"rust":13898,"Ġ00":13899,"Ġsanity":13900,"Ġwagon":13901,"Ġok":13902,"Ġmim":13903,"Ġthieves":13904,"Ġgoo":13905,"Ġmold":13906,"ĠTogether":13907,"etc":13908,"Ġseas":13909,"ĠMalk":13910,"ĠMinn":13911,"Ġshrink":13912,"ĠWol":13913,"ĠWyn":13914,"ĠWILL":13915,"emen":13916,"Ġscandal":13917,"Ġkarate":13918,"elope":13919,"oodle":13920,"Ġric":13921,"Ġintoler":13922,"quest":13923,"quality":13924,"redited":13925,"ĠGund":13926,"Ġanytime":13927,"abre":13928,"inks":13929,"Ġarche":13930,"avier":13931,"Ġflavor":13932,"Ġinclusion":13933,"ĠAlison":13934,"Ġtraffic":13935,"Ġelite":13936,"Ġconfuse":13937,"Ġschizophren":13938,"ĠStephan":13939,"Ġgrabbed":13940,"Ġpaints":13941,"Ġ95":13942,"ĠLeft":13943,"unker":13944,"Ġirres":13945,"clim":13946,"OUSE":13947,"Ġsensation":13948,"ĠJules":13949,"Ġdamaged":13950,"Ġmidst":13951,"kinson":13952,"Ġphotographs":13953,"Ġpenal":13954,"ĠMencia":13955,"2001":13956,"Ġbanter":13957,"Ġprinciple":13958,"Ġfraud":13959,"Ġorganized":13960,"Ġdistracted":13961,"Steve":13962,"Ġvideot":13963,"Ġarguments":13964,"ĠCannon":13965,"Charles":13966,"Ġinherit":13967,"ĠSupporting":13968,"Ġharrowing":13969,"!).<":13970,"Cont":13971,"During":13972,"FT":13973,"TT":13974,"coll":13975,"family":13976,"mical":13977,"Ġtheories":13978,"rene":13979,"Ġoo":13980,"Ġost":13981,"ĠIstanbul":13982,"Ġbegging":13983,"vez":13984,"ĠTER":13985,"enton":13986,"ĠBarn":13987,"ĠBrig":13988,"ĠHon":13989,"una":13990,"Ġabound":13991,"ĠPak":13992,"Ġlikewise":13993,"Ġorange":13994,"Ġconco":13995,"Ġprob":13996,"izza":13997,"ĠVoy":13998,"Ġattach":13999,"thello":14000,"Ġresume":14001,"Ġnewer":14002,"Ġhardship":14003,"Ġclassy":14004,"Ġwarming":14005,"Ġdramatically":14006,"scene":14007,"Ġreviewed":14008,"Ġrepressed":14009,"Ġsentences":14010,"Ġ1989":14011,"ĠColor":14012,"Ġdamned":14013,"Ġcommunication":14014,"impy":14015,"ĠMadsen":14016,"Ġinsults":14017,"Ġdefine":14018,"Ġdemonst":14019,"Ġqualify":14020,"ĠPolish":14021,"Ġgrip":14022,"Ġpossesses":14023,"Ġemployee":14024,"ĠDoris":14025,"Everyone":14026,"Ġswords":14027,"Ġvolume":14028,"Ġestablishing":14029,"Ġcomposition":14030,"ĠKorea":14031,"ĠEverett":14032,"Ġarguing":14033,"Ġfestiv":14034,"Ġdumped":14035,"Grade":14036,"ĠIsraeli":14037,"Ġabsorbing":14038,"Ġpirate":14039,"Highly":14040,"ĠLowe":14041,"ĠSchneider":14042,"Ġinspirational":14043,"App":14044,"Bet":14045,"Hara":14046,"Lost":14047,"Old":14048,"Sn":14049,"bod":14050,"despite":14051,"hop":14052,"nice":14053,"tit":14054,"iture":14055,"Ġhats":14056,"Ġinmates":14057,"Ġlol":14058,"alented":14059,"ĠToni":14060,"enth":14061,"ĠBan":14062,"ĠBee":14063,"ĠCarson":14064,"Ġshift":14065,"Ġchorus":14066,"ifty":14067,"ĠDJ":14068,"ĠDiet":14069,"Ġscant":14070,"elia":14071,"anti":14072,"fell":14073,"ĠGree":14074,"ĠGoes":14075,"ĠKau":14076,"ĠKung":14077,"Ġperverse":14078,"Ġpopping":14079,"berry":14080,"bey":14081,"being":14082,"Ġolds":14083,"ection":14084,"Ġreserved":14085,"Ġraising":14086,"ignific":14087,"Ġexplode":14088,"Ġtyr":14089,"Ġpolar":14090,"ĠDeNiro":14091,"Ġdeterior":14092,"Ġskilled":14093,"ĠStefan":14094,"Ġtitular":14095,"Ġmothers":14096,"Ġswing":14097,"Ġcritique":14098,"Ġsteer":14099,"Ġhusbands":14100,"Ġweaker":14101,"ĠKeep":14102,"Ġseasoned":14103,"Ġ1987":14104,"Ġ1998":14105,"ĠWhoever":14106,"Ġachieves":14107,"Ġembarrassingly":14108,"ĠRedford":14109,"ĠLetter":14110,"Ġdiner":14111,"Ġintensely":14112,"ĠCarla":14113,"Ġresembling":14114,"Ġveterans":14115,"Ġbiker":14116,"Ġsurvivor":14117,"Ġsailor":14118,"Ġnauseating":14119,"Ġglamorous":14120,"Ġcrippled":14121,"Ġmasturb":14122,"Ġgorilla":14123,"ĠSopranos":14124,"Ġdownt":14125,"Both":14126,"Fred":14127,"Halloween":14128,"PR":14129,"Set":14130,"Was":14131,"bill":14132,"cal":14133,"full":14134,"ÃŃ":14135,"inian":14136,"Ġsunk":14137,"Ġbree":14138,"itivity":14139,"athered":14140,"ouri":14141,"Ġpatch":14142,"Ġdwarf":14143,"asia":14144,"Ġinsect":14145,"ĠIvan":14146,"utt":14147,"Ġforbidden":14148,"ĠSW":14149,"ĠSue":14150,"Ġliqu":14151,"ĠWing":14152,"ĠDame":14153,"ĠDiamond":14154,"unte":14155,"Ġjunior":14156,"Ġsober":14157,"andro":14158,"ĠRaw":14159,"ĠLest":14160,"Ġintact":14161,"ĠGram":14162,"Ġagon":14163,"Ġagony":14164,"Ġaftermath":14165,"Ġslaves":14166,"Ġslapped":14167,"ailed":14168,"Ġbelievability":14169,"Ġrightly":14170,"Ġhandy":14171,"Ġglaring":14172,"Ġsynt":14173,"Ġstuffed":14174,"Ġcheaply":14175,"Ġunfamiliar":14176,"Ġtheatres":14177,"Ġadaption":14178,"Ġcolleague":14179,"Ġcondu":14180,"Ġdefies":14181,"Ġmillionaire":14182,"Ġverbal":14183,"Ġsentimentality":14184,"Ġscrewball":14185,"Ġpeaceful":14186,"Ġtickets":14187,"Ġrewarded":14188,"Ġhippies":14189,"ĠRandolph":14190,"Actually":14191,"Ġlavish":14192,"birds":14193,"Ġlegitimate":14194,"Ġseductive":14195,"ĠLundgren":14196,"ĠEntertainment":14197,"ĠShelley":14198,"Ġestranged":14199,
[...]
